{
  "version": "1.0",
  "truncation": null,
  "padding": null,
  "added_tokens": [
    {
      "id": 0,
      "content": "[UNK]",
      "single_word": false,
      "lstrip": false,
      "rstrip": false,
      "normalized": false,
      "special": true
    },
    {
      "id": 1,
      "content": "[PAD]",
      "single_word": false,
      "lstrip": false,
      "rstrip": false,
      "normalized": false,
      "special": true
    },
    {
      "id": 2,
      "content": "[CLS]",
      "single_word": false,
      "lstrip": false,
      "rstrip": false,
      "normalized": false,
      "special": true
    },
    {
      "id": 3,
      "content": "[SEP]",
      "single_word": false,
      "lstrip": false,
      "rstrip": false,
      "normalized": false,
      "special": true
    },
    {
      "id": 4,
      "content": "[MASK]",
      "single_word": false,
      "lstrip": false,
      "rstrip": false,
      "normalized": false,
      "special": true
    }
  ],
  "normalizer": null,
  "pre_tokenizer": {
    "type": "Whitespace"
  },
  "post_processor": null,
  "decoder": null,
  "model": {
    "type": "BPE",
    "dropout": null,
    "unk_token": "[UNK]",
    "continuing_subword_prefix": null,
    "end_of_word_suffix": null,
    "fuse_unk": false,
    "byte_fallback": false,
    "ignore_merges": false,
    "vocab": {
      "[UNK]": 0,
      "[PAD]": 1,
      "[CLS]": 2,
      "[SEP]": 3,
      "[MASK]": 4,
      "!": 5,
      "#": 6,
      "$": 7,
      "%": 8,
      "&": 9,
      "(": 10,
      ")": 11,
      "*": 12,
      ",": 13,
      "-": 14,
      ".": 15,
      "/": 16,
      "0": 17,
      "1": 18,
      "2": 19,
      "3": 20,
      "4": 21,
      "5": 22,
      "6": 23,
      "7": 24,
      "8": 25,
      "9": 26,
      ":": 27,
      ";": 28,
      "?": 29,
      "A": 30,
      "B": 31,
      "C": 32,
      "D": 33,
      "E": 34,
      "F": 35,
      "G": 36,
      "H": 37,
      "I": 38,
      "J": 39,
      "K": 40,
      "L": 41,
      "M": 42,
      "N": 43,
      "O": 44,
      "P": 45,
      "Q": 46,
      "R": 47,
      "S": 48,
      "T": 49,
      "U": 50,
      "V": 51,
      "W": 52,
      "X": 53,
      "Y": 54,
      "Z": 55,
      "[": 56,
      "]": 57,
      "_": 58,
      "a": 59,
      "b": 60,
      "c": 61,
      "d": 62,
      "e": 63,
      "f": 64,
      "g": 65,
      "h": 66,
      "i": 67,
      "j": 68,
      "k": 69,
      "l": 70,
      "m": 71,
      "n": 72,
      "o": 73,
      "p": 74,
      "q": 75,
      "r": 76,
      "s": 77,
      "t": 78,
      "u": 79,
      "v": 80,
      "w": 81,
      "x": 82,
      "y": 83,
      "z": 84,
      "£": 85,
      "½": 86,
      "à": 87,
      "â": 88,
      "æ": 89,
      "è": 90,
      "é": 91,
      "œ": 92,
      "—": 93,
      "‘": 94,
      "’": 95,
      "“": 96,
      "”": 97,
      "•": 98,
      "™": 99,
      "﻿": 100,
      "th": 101,
      "in": 102,
      "er": 103,
      "an": 104,
      "the": 105,
      "ou": 106,
      "at": 107,
      "on": 108,
      "ed": 109,
      "en": 110,
      "is": 111,
      "as": 112,
      "to": 113,
      "re": 114,
      "and": 115,
      "of": 116,
      "es": 117,
      "ing": 118,
      "or": 119,
      "ar": 120,
      "it": 121,
      "he": 122,
      "ha": 123,
      "ll": 124,
      "wh": 125,
      "le": 126,
      "me": 127,
      "st": 128,
      "se": 129,
      "you": 130,
      "be": 131,
      "ow": 132,
      "ch": 133,
      "ve": 134,
      "that": 135,
      "ro": 136,
      "was": 137,
      "wi": 138,
      "id": 139,
      "ly": 140,
      "no": 141,
      "ld": 142,
      "ce": 143,
      "ver": 144,
      "gh": 145,
      "ere": 146,
      "ut": 147,
      "his": 148,
      ".”": 149,
      "ent": 150,
      "ay": 151,
      "ri": 152,
      "so": 153,
      "ad": 154,
      "my": 155,
      "al": 156,
      "for": 157,
      "with": 158,
      "ion": 159,
      "im": 160,
      "ter": 161,
      "have": 162,
      "up": 163,
      "co": 164,
      "all": 165,
      "ould": 166,
      "had": 167,
      "whi": 168,
      "lo": 169,
      "ght": 170,
      "ac": 171,
      "li": 172,
      "ir": 173,
      "we": 174,
      "sa": 175,
      "not": 176,
      "which": 177,
      "ur": 178,
      "nd": 179,
      "one": 180,
      "sh": 181,
      "ther": 182,
      "ab": 183,
      "out": 184,
      "et": 185,
      "man": 186,
      "ol": 187,
      "our": 188,
      "am": 189,
      "su": 190,
      "ag": 191,
      "rom": 192,
      "po": 193,
      "do": 194,
      "fe": 195,
      "her": 196,
      "ke": 197,
      "ne": 198,
      "ct": 199,
      "but": 200,
      "?”": 201,
      "ind": 202,
      "ain": 203,
      "him": 204,
      "mes": 205,
      "us": 206,
      "un": 207,
      "from": 208,
      "said": 209,
      "ck": 210,
      "very": 211,
      "are": 212,
      "mo": 213,
      ",”": 214,
      "pe": 215,
      "Th": 216,
      "upon": 217,
      "ti": 218,
      "Hol": 219,
      "Holmes": 220,
      "ap": 221,
      "ess": 222,
      "con": 223,
      "It": 224,
      "own": 225,
      "this": 226,
      "tr": 227,
      "de": 228,
      "ard": 229,
      "your": 230,
      "The": 231,
      "qu": 232,
      "go": 233,
      "been": 234,
      "ge": 235,
      "now": 236,
      "ust": 237,
      "ex": 238,
      "ss": 239,
      "est": 240,
      "od": 241,
      "by": 242,
      "who": 243,
      "see": 244,
      "itt": 245,
      "she": 246,
      "there": 247,
      "fo": 248,
      "ound": 249,
      "il": 250,
      "ok": 251,
      "were": 252,
      "ight": 253,
      "thing": 254,
      "some": 255,
      "He": 256,
      "would": 257,
      "fa": 258,
      "per": 259,
      "way": 260,
      "com": 261,
      "Mr": 262,
      "fi": 263,
      "pl": 264,
      "ast": 265,
      "lf": 266,
      "ate": 267,
      "ca": 268,
      "wo": 269,
      "wor": 270,
      "You": 271,
      "ation": 272,
      "has": 273,
      "could": 274,
      "what": 275,
      "ack": 276,
      "om": 277,
      "ra": 278,
      "Wh": 279,
      "into": 280,
      "te": 281,
      "when": 282,
      "if": 283,
      "pre": 284,
      "ul": 285,
      "end": 286,
      "will": 287,
      "can": 288,
      "litt": 289,
      "any": 290,
      "little": 291,
      "ide": 292,
      "“‘": 293,
      "able": 294,
      "ous": 295,
      "ist": 296,
      "ak": 297,
      "ark": 298,
      "sha": 299,
      "ough": 300,
      "ink": 301,
      "ant": 302,
      "op": 303,
      "down": 304,
      "ong": 305,
      "should": 306,
      "ven": 307,
      "then": 308,
      "urn": 309,
      "ment": 310,
      "pro": 311,
      "self": 312,
      "room": 313,
      "hand": 314,
      "ber": 315,
      "other": 316,
      "fore": 317,
      "ure": 318,
      "We": 319,
      "vi": 320,
      "ep": 321,
      "son": 322,
      "la": 323,
      "St": 324,
      "ho": 325,
      "ble": 326,
      "over": 327,
      "may": 328,
      "af": 329,
      "how": 330,
      "ic": 331,
      "And": 332,
      "know": 333,
      "ever": 334,
      "ite": 335,
      "ive": 336,
      "gl": 337,
      "day": 338,
      "ence": 339,
      "ish": 340,
      "pr": 341,
      "ry": 342,
      "ers": 343,
      "br": 344,
      "ine": 345,
      "lock": 346,
      "bo": 347,
      "art": 348,
      "think": 349,
      "atter": 350,
      "ass": 351,
      "look": 352,
      "But": 353,
      "ance": 354,
      "ru": 355,
      "ade": 356,
      "int": 357,
      "ake": 358,
      ".’": 359,
      "There": 360,
      "came": 361,
      "cl": 362,
      "ear": 363,
      "more": 364,
      "ill": 365,
      "must": 366,
      "ried": 367,
      "than": 368,
      "turn": 369,
      "shall": 370,
      "right": 371,
      "about": 372,
      "cas": 373,
      "ect": 374,
      "mark": 375,
      "before": 376,
      "come": 377,
      "um": 378,
      "und": 379,
      "bl": 380,
      "ning": 381,
      "ci": 382,
      "ady": 383,
      "ally": 384,
      "only": 385,
      "time": 386,
      "door": 387,
      "back": 388,
      "ved": 389,
      "ang": 390,
      "gr": 391,
      "ought": 392,
      "act": 393,
      "did": 394,
      "sm": 395,
      "them": 396,
      "dre": 397,
      "ob": 398,
      "iss": 399,
      "ave": 400,
      "med": 401,
      "ered": 402,
      "mor": 403,
      "ask": 404,
      "ord": 405,
      "cle": 406,
      "ise": 407,
      "matter": 408,
      "ser": 409,
      "they": 410,
      "led": 411,
      "side": 412,
      "ue": 413,
      "tor": 414,
      "two": 415,
      "thr": 416,
      "ort": 417,
      "work": 418,
      "ouse": 419,
      "ree": 420,
      "ject": 421,
      "dis": 422,
      "ened": 423,
      "ary": 424,
      "No": 425,
      "Then": 426,
      "str": 427,
      "ving": 428,
      "!”": 429,
      "ft": 430,
      "light": 431,
      "ey": 432,
      "mu": 433,
      "like": 434,
      "face": 435,
      "comp": 436,
      "el": 437,
      "gre": 438,
      "house": 439,
      "night": 440,
      "age": 441,
      "red": 442,
      "use": 443,
      "ans": 444,
      "hair": 445,
      "after": 446,
      "ves": 447,
      "ity": 448,
      "oun": 449,
      "good": 450,
      "ach": 451,
      "pt": 452,
      "new": 453,
      "just": 454,
      "ps": 455,
      "ull": 456,
      "where": 457,
      "might": 458,
      "say": 459,
      "wind": 460,
      "much": 461,
      "ank": 462,
      "let": 463,
      "again": 464,
      "ig": 465,
      "spe": 466,
      "most": 467,
      "What": 468,
      "found": 469,
      "tain": 470,
      "wr": 471,
      "its": 472,
      "well": 473,
      "pp": 474,
      "sp": 475,
      "case": 476,
      "car": 477,
      "head": 478,
      "ose": 479,
      "heard": 480,
      "llow": 481,
      "such": 482,
      "long": 483,
      "ner": 484,
      "ot": 485,
      "ond": 486,
      "reet": 487,
      "bet": 488,
      "away": 489,
      "made": 490,
      "sto": 491,
      "fir": 492,
      "ward": 493,
      "cor": 494,
      "less": 495,
      "ty": 496,
      "tell": 497,
      "even": 498,
      "here": 499,
      "ire": 500,
      "old": 501,
      "remark": 502,
      ",’": 503,
      "min": 504,
      "imp": 505,
      "father": 506,
      "Yes": 507,
      "every": 508,
      "pa": 509,
      "point": 510,
      "Well": 511,
      "anc": 512,
      "under": 513,
      "ated": 514,
      "That": 515,
      "morning": 516,
      "clo": 517,
      "ms": 518,
      "pi": 519,
      "dress": 520,
      "bt": 521,
      "fri": 522,
      "alk": 523,
      "My": 524,
      "however": 525,
      "window": 526,
      "friend": 527,
      "Sher": 528,
      "Sherlock": 529,
      "She": 530,
      "sc": 531,
      "their": 532,
      "poss": 533,
      "In": 534,
      "bed": 535,
      "year": 536,
      "inter": 537,
      "off": 538,
      "uten": 539,
      "never": 540,
      "dou": 541,
      "den": 542,
      "went": 543,
      "berg": 544,
      "utenberg": 545,
      "find": 546,
      "last": 547,
      "oc": 548,
      "ron": 549,
      "vent": 550,
      "saw": 551,
      "appe": 552,
      "pap": 553,
      "stand": 554,
      "through": 555,
      "Pro": 556,
      "ness": 557,
      "left": 558,
      "nothing": 559,
      "appear": 560,
      "Wat": 561,
      "ace": 562,
      "wa": 563,
      "quite": 564,
      "Oh": 565,
      "ud": 566,
      "thought": 567,
      "took": 568,
      "sol": 569,
      "asked": 570,
      "word": 571,
      "If": 572,
      "ef": 573,
      "ible": 574,
      "ng": 575,
      "put": 576,
      "step": 577,
      "turned": 578,
      "eyes": 579,
      "?’": 580,
      "This": 581,
      "cer": 582,
      "clear": 583,
      "first": 584,
      "Gutenberg": 585,
      "bre": 586,
      "call": 587,
      "hard": 588,
      "round": 589,
      "iness": 590,
      "Project": 591,
      "bus": 592,
      "ies": 593,
      "lt": 594,
      "sent": 595,
      "once": 596,
      "young": 597,
      "lic": 598,
      "small": 599,
      "cri": 600,
      "chair": 601,
      "get": 602,
      "pass": 603,
      "too": 604,
      "qui": 605,
      "As": 606,
      "Miss": 607,
      "ions": 608,
      "ourse": 609,
      "comm": 610,
      "Watson": 611,
      "arm": 612,
      "coun": 613,
      "des": 614,
      "par": 615,
      "take": 616,
      "ugh": 617,
      "inst": 618,
      "ange": 619,
      "seen": 620,
      "without": 621,
      "few": 622,
      "open": 623,
      "lady": 624,
      "fl": 625,
      "ful": 626,
      "ple": 627,
      "myself": 628,
      "answ": 629,
      "ign": 630,
      "cre": 631,
      "cur": 632,
      "gg": 633,
      "make": 634,
      "yet": 635,
      "set": 636,
      "doubt": 637,
      "ame": 638,
      "sit": 639,
      "til": 640,
      "interest": 641,
      "business": 642,
      "dra": 643,
      "form": 644,
      "until": 645,
      "tic": 646,
      "woman": 647,
      "these": 648,
      "himself": 649,
      "place": 650,
      "hands": 651,
      "gent": 652,
      "though": 653,
      "ready": 654,
      "sat": 655,
      "sing": 656,
      "still": 657,
      "lice": 658,
      "quest": 659,
      "ways": 660,
      "press": 661,
      "wait": 662,
      "ily": 663,
      "igh": 664,
      "men": 665,
      "mar": 666,
      "wn": 667,
      "hel": 668,
      "air": 669,
      "fer": 670,
      "vis": 671,
      "ery": 672,
      "fort": 673,
      "sure": 674,
      "seemed": 675,
      "great": 676,
      "cent": 677,
      "cried": 678,
      "ek": 679,
      "att": 680,
      "ash": 681,
      "ction": 682,
      "Bo": 683,
      "ather": 684,
      "em": 685,
      "far": 686,
      "sid": 687,
      "sir": 688,
      "three": 689,
      "ature": 690,
      "used": 691,
      "ath": 692,
      "done": 693,
      "dist": 694,
      "full": 695,
      "ason": 696,
      "years": 697,
      "Now": 698,
      "fact": 699,
      "gi": 700,
      "part": 701,
      "row": 702,
      "uc": 703,
      "while": 704,
      "wish": 705,
      "something": 706,
      "remarked": 707,
      "possible": 708,
      "certain": 709,
      "lay": 710,
      "haps": 711,
      "met": 712,
      "ute": 713,
      "col": 714,
      "rather": 715,
      "bro": 716,
      "eed": 717,
      "low": 718,
      "mind": 719,
      "name": 720,
      "try": 721,
      "av": 722,
      "cess": 723,
      "course": 724,
      "mber": 725,
      "walk": 726,
      "those": 727,
      "eng": 728,
      "half": 729,
      "got": 730,
      "Street": 731,
      "Ro": 732,
      "So": 733,
      "give": 734,
      "pu": 735,
      "ped": 736,
      "sur": 737,
      "arge": 738,
      "wife": 739,
      "ween": 740,
      "ular": 741,
      "dro": 742,
      "si": 743,
      "vid": 744,
      "shed": 745,
      "fect": 746,
      "pen": 747,
      "ten": 748,
      "enough": 749,
      "having": 750,
      "follow": 751,
      "gentle": 752,
      "knew": 753,
      "whe": 754,
      "read": 755,
      "reason": 756,
      "always": 757,
      "They": 758,
      "When": 759,
      "obser": 760,
      "letter": 761,
      "His": 762,
      "der": 763,
      "dark": 764,
      "sil": 765,
      "happ": 766,
      "beg": 767,
      "same": 768,
      "between": 769,
      "answered": 770,
      "dden": 771,
      "hur": 772,
      "hour": 773,
      "land": 774,
      "tak": 775,
      "thy": 776,
      "ings": 777,
      "police": 778,
      "trade": 779,
      "cannot": 780,
      "home": 781,
      "How": 782,
      "fin": 783,
      "ious": 784,
      "sin": 785,
      "ross": 786,
      "plain": 787,
      "On": 788,
      "ice": 789,
      "oner": 790,
      "ister": 791,
      "also": 792,
      "sudden": 793,
      "cont": 794,
      "looking": 795,
      "against": 796,
      "To": 797,
      "bank": 798,
      "ctor": 799,
      "fron": 800,
      "hind": 801,
      "ither": 802,
      "ised": 803,
      "exam": 804,
      "black": 805,
      "front": 806,
      "Fr": 807,
      "ail": 808,
      "cu": 809,
      "hat": 810,
      "tre": 811,
      "table": 812,
      "ene": 813,
      "told": 814,
      "start": 815,
      "ched": 816,
      "aced": 817,
      "lie": 818,
      "aph": 819,
      "consid": 820,
      "dear": 821,
      "anything": 822,
      "looked": 823,
      "understand": 824,
      "help": 825,
      "gu": 826,
      "hor": 827,
      "spo": 828,
      "offi": 829,
      "life": 830,
      "laugh": 831,
      "brought": 832,
      "hardly": 833,
      "bu": 834,
      "main": 835,
      "behind": 836,
      "riage": 837,
      "within": 838,
      "oney": 839,
      "fire": 840,
      "present": 841,
      "glanc": 842,
      "better": 843,
      "break": 844,
      "Ar": 845,
      "di": 846,
      "mon": 847,
      "sup": 848,
      "sign": 849,
      "ted": 850,
      "want": 851,
      "really": 852,
      "instant": 853,
      "question": 854,
      "band": 855,
      "ded": 856,
      "fam": 857,
      "money": 858,
      "hear": 859,
      "leave": 860,
      "already": 861,
      "amp": 862,
      "near": 863,
      "cond": 864,
      "conf": 865,
      "perhaps": 866,
      "strong": 867,
      "words": 868,
      "consider": 869,
      "Your": 870,
      "dri": 871,
      "ele": 872,
      "gave": 873,
      "ild": 874,
      "miss": 875,
      "sed": 876,
      "street": 877,
      "utes": 878,
      "cover": 879,
      "ird": 880,
      "show": 881,
      "indeed": 882,
      "cause": 883,
      "strange": 884,
      "minutes": 885,
      "paper": 886,
      "solute": 887,
      "gentleman": 888,
      "don": 889,
      "eas": 890,
      "four": 891,
      "wat": 892,
      "ates": 893,
      "being": 894,
      "cop": 895,
      "week": 896,
      "whole": 897,
      "ations": 898,
      "aker": 899,
      "days": 900,
      "papers": 901,
      "At": 902,
      "Car": 903,
      "Do": 904,
      "Mc": 905,
      "che": 906,
      "ged": 907,
      "mer": 908,
      "sle": 909,
      "thre": 910,
      "posit": 911,
      "cted": 912,
      "Mrs": 913,
      "vill": 914,
      "dif": 915,
      "run": 916,
      "rest": 917,
      "ently": 918,
      "sult": 919,
      "cket": 920,
      "exce": 921,
      "anger": 922,
      "whether": 923,
      "!’": 924,
      "Baker": 925,
      "Lond": 926,
      "aid": 927,
      "cha": 928,
      "fre": 929,
      "gone": 930,
      "inc": 931,
      "coat": 932,
      "aged": 933,
      "moment": 934,
      "deep": 935,
      "yourself": 936,
      "both": 937,
      "pped": 938,
      "country": 939,
      "London": 940,
      "En": 941,
      "Lord": 942,
      "Ruc": 943,
      "ee": 944,
      "fing": 945,
      "high": 946,
      "ined": 947,
      "another": 948,
      "ited": 949,
      "stair": 950,
      "uring": 951,
      "ably": 952,
      "fear": 953,
      "vious": 954,
      "passed": 955,
      "quiet": 956,
      "Rucast": 957,
      "00": 958,
      "Pr": 959,
      "care": 960,
      "tri": 961,
      "lot": 962,
      "many": 963,
      "person": 964,
      "law": 965,
      "compan": 966,
      "Carthy": 967,
      "McCarthy": 968,
      "Here": 969,
      "Sim": 970,
      "cut": 971,
      "det": 972,
      "fast": 973,
      "ith": 974,
      "kn": 975,
      "kind": 976,
      "large": 977,
      "pri": 978,
      "sound": 979,
      "ton": 980,
      "ting": 981,
      "why": 982,
      "belie": 983,
      "soon": 984,
      "does": 985,
      "gether": 986,
      "whom": 987,
      "fair": 988,
      "ished": 989,
      "import": 990,
      "copy": 991,
      "Simon": 992,
      "HE": 993,
      "Les": 994,
      "One": 995,
      "cr": 996,
      "clock": 997,
      "ding": 998,
      "ial": 999,
      "late": 1000,
      "prom": 1001,
      "together": 1002,
      "lled": 1003,
      "member": 1004,
      "stru": 1005,
      "ches": 1006,
      "char": 1007,
      "ured": 1008,
      "absolute": 1009,
      "wood": 1010,
      "wards": 1011,
      "since": 1012,
      "Lestrade": 1013,
      "An": 1014,
      "dire": 1015,
      "ener": 1016,
      "ense": 1017,
      "return": 1018,
      "remain": 1019,
      "heart": 1020,
      "sever": 1021,
      "keep": 1022,
      "cked": 1023,
      "ession": 1024,
      "Why": 1025,
      "tem": 1026,
      "opened": 1027,
      "evening": 1028,
      "suddenly": 1029,
      "Rucastle": 1030,
      "cli": 1031,
      "cab": 1032,
      "cul": 1033,
      "da": 1034,
      "les": 1035,
      "ran": 1036,
      "talk": 1037,
      "ating": 1038,
      "reach": 1039,
      "returned": 1040,
      "aring": 1041,
      "least": 1042,
      "across": 1043,
      "note": 1044,
      "sho": 1045,
      "pose": 1046,
      "five": 1047,
      "rushed": 1048,
      "ground": 1049,
      "ronic": 1050,
      "appeared": 1051,
      "draw": 1052,
      "given": 1053,
      "either": 1054,
      "spr": 1055,
      "rece": 1056,
      "state": 1057,
      "utter": 1058,
      "save": 1059,
      "feel": 1060,
      "fellow": 1061,
      "itting": 1062,
      "iling": 1063,
      "hope": 1064,
      "ical": 1065,
      "stood": 1066,
      "story": 1067,
      "waiting": 1068,
      "facts": 1069,
      "colour": 1070,
      "believe": 1071,
      "Co": 1072,
      "during": 1073,
      "evid": 1074,
      "flo": 1075,
      "itor": 1076,
      "ken": 1077,
      "smo": 1078,
      "sister": 1079,
      "yes": 1080,
      "arr": 1081,
      "ention": 1082,
      "suc": 1083,
      "laid": 1084,
      "graph": 1085,
      "pleas": 1086,
      "companion": 1087,
      "client": 1088,
      "Br": 1089,
      "For": 1090,
      "God": 1091,
      "mad": 1092,
      "pur": 1093,
      "sitting": 1094,
      "ens": 1095,
      "white": 1096,
      "stone": 1097,
      "secre": 1098,
      "entered": 1099,
      "soci": 1100,
      "allow": 1101,
      "among": 1102,
      "felt": 1103,
      "death": 1104,
      "prof": 1105,
      "else": 1106,
      "singular": 1107,
      "fully": 1108,
      "surpr": 1109,
      "elect": 1110,
      "position": 1111,
      "Engl": 1112,
      "known": 1113,
      "Ah": 1114,
      "bod": 1115,
      "cry": 1116,
      "each": 1117,
      "ff": 1118,
      "fall": 1119,
      "hu": 1120,
      "ience": 1121,
      "lan": 1122,
      "list": 1123,
      "pay": 1124,
      "port": 1125,
      "vo": 1126,
      "ident": 1127,
      "vert": 1128,
      "forward": 1129,
      "liar": 1130,
      "sum": 1131,
      "need": 1132,
      "going": 1133,
      "foot": 1134,
      "rooms": 1135,
      "assist": 1136,
      "obvious": 1137,
      "works": 1138,
      "writ": 1139,
      "corner": 1140,
      "certainly": 1141,
      "contin": 1142,
      "Pray": 1143,
      "Ho": 1144,
      "With": 1145,
      "bar": 1146,
      "best": 1147,
      "mine": 1148,
      "sight": 1149,
      "remember": 1150,
      "mean": 1151,
      "seven": 1152,
      "became": 1153,
      "address": 1154,
      "imag": 1155,
      "ague": 1156,
      "pocket": 1157,
      "itten": 1158,
      "prob": 1159,
      "occur": 1160,
      "crime": 1161,
      "visitor": 1162,
      "stairs": 1163,
      "floor": 1164,
      "Dr": 1165,
      "Very": 1166,
      "cap": 1167,
      "ew": 1168,
      "ece": 1169,
      "lves": 1170,
      "mas": 1171,
      "maid": 1172,
      "oh": 1173,
      "past": 1174,
      "sk": 1175,
      "swe": 1176,
      "val": 1177,
      "vant": 1178,
      "ones": 1179,
      "ese": 1180,
      "second": 1181,
      "child": 1182,
      "imes": 1183,
      "short": 1184,
      "abo": 1185,
      "ety": 1186,
      "dead": 1187,
      "exc": 1188,
      "hold": 1189,
      "quick": 1190,
      "avy": 1191,
      "six": 1192,
      "family": 1193,
      "covered": 1194,
      "several": 1195,
      "Ha": 1196,
      "bird": 1197,
      "ces": 1198,
      "ga": 1199,
      "gri": 1200,
      "gir": 1201,
      "ia": 1202,
      "mur": 1203,
      "ring": 1204,
      "ror": 1205,
      "sl": 1206,
      "sli": 1207,
      "usu": 1208,
      "vil": 1209,
      "ering": 1210,
      "rec": 1211,
      "ref": 1212,
      "rel": 1213,
      "ret": 1214,
      "heavy": 1215,
      "ster": 1216,
      "ribut": 1217,
      "acter": 1218,
      "onel": 1219,
      "agree": 1220,
      "train": 1221,
      "true": 1222,
      "things": 1223,
      "anyone": 1224,
      "ople": 1225,
      "spect": 1226,
      "spector": 1227,
      "called": 1228,
      "taken": 1229,
      "threw": 1230,
      "electronic": 1231,
      "By": 1232,
      "THE": 1233,
      "aut": 1234,
      "bes": 1235,
      "cy": 1236,
      "hus": 1237,
      "ick": 1238,
      "king": 1239,
      "lamp": 1240,
      "nat": 1241,
      "ned": 1242,
      "pull": 1243,
      "inary": 1244,
      "assa": 1245,
      "tograph": 1246,
      "whis": 1247,
      "stri": 1248,
      "road": 1249,
      "rible": 1250,
      "advert": 1251,
      "manner": 1252,
      "ames": 1253,
      "sub": 1254,
      "sugg": 1255,
      "ago": 1256,
      "feet": 1257,
      "indi": 1258,
      "people": 1259,
      "explain": 1260,
      "seems": 1261,
      "coming": 1262,
      "proble": 1263,
      "hotograph": 1264,
      "cial": 1265,
      "eye": 1266,
      "written": 1267,
      "walked": 1268,
      "character": 1269,
      "imagine": 1270,
      "girl": 1271,
      "husband": 1272,
      "Cla": 1273,
      "Ind": 1274,
      "blic": 1275,
      "danger": 1276,
      "ead": 1277,
      "free": 1278,
      "ling": 1279,
      "mak": 1280,
      "ood": 1281,
      "photograph": 1282,
      "rid": 1283,
      "thes": 1284,
      "bell": 1285,
      "alone": 1286,
      "lost": 1287,
      "love": 1288,
      "ired": 1289,
      "onet": 1290,
      "goose": 1291,
      "play": 1292,
      "ments": 1293,
      "vice": 1294,
      "bring": 1295,
      "locked": 1296,
      "box": 1297,
      "umber": 1298,
      "throw": 1299,
      "likely": 1300,
      "steps": 1301,
      "marriage": 1302,
      "hurried": 1303,
      "spoke": 1304,
      "body": 1305,
      "Clair": 1306,
      "Ch": 1307,
      "Doc": 1308,
      "Joh": 1309,
      "Ma": 1310,
      "RE": 1311,
      "aw": 1312,
      "bit": 1313,
      "bri": 1314,
      "bright": 1315,
      "cus": 1316,
      "gy": 1317,
      "gar": 1318,
      "gra": 1319,
      "lad": 1320,
      "nor": 1321,
      "ply": 1322,
      "sy": 1323,
      "une": 1324,
      "vol": 1325,
      "wond": 1326,
      "oud": 1327,
      "ative": 1328,
      "result": 1329,
      "held": 1330,
      "sear": 1331,
      "rose": 1332,
      "impress": 1333,
      "cold": 1334,
      "aces": 1335,
      "ung": 1336,
      "quar": 1337,
      "itted": 1338,
      "view": 1339,
      "attered": 1340,
      "grey": 1341,
      "ption": 1342,
      "dressed": 1343,
      "windows": 1344,
      "appearance": 1345,
      "count": 1346,
      "fortun": 1347,
      "public": 1348,
      "drove": 1349,
      "letters": 1350,
      "office": 1351,
      "easy": 1352,
      "detail": 1353,
      "recei": 1354,
      "Doctor": 1355,
      "John": 1356,
      "Ad": 1357,
      "Found": 1358,
      "Good": 1359,
      "Of": 1360,
      "ced": 1361,
      "event": 1362,
      "iz": 1363,
      "ler": 1364,
      "line": 1365,
      "mid": 1366,
      "none": 1367,
      "pow": 1368,
      "simp": 1369,
      "times": 1370,
      "ining": 1371,
      "oran": 1372,
      "chance": 1373,
      "safe": 1374,
      "trust": 1375,
      "quare": 1376,
      "fig": 1377,
      "ficul": 1378,
      "laim": 1379,
      "cases": 1380,
      "ordinary": 1381,
      "speak": 1382,
      "coronet": 1383,
      "close": 1384,
      "standing": 1385,
      "common": 1386,
      "ughter": 1387,
      "married": 1388,
      "Roy": 1389,
      "followed": 1390,
      "began": 1391,
      "dedu": 1392,
      "difficul": 1393,
      "finger": 1394,
      "daughter": 1395,
      "success": 1396,
      "profession": 1397,
      "above": 1398,
      "All": 1399,
      "EN": 1400,
      "Hor": 1401,
      "King": 1402,
      "Turn": 1403,
      "au": 1404,
      "cir": 1405,
      "gain": 1406,
      "hy": 1407,
      "jo": 1408,
      "pain": 1409,
      "passa": 1410,
      "sort": 1411,
      "slow": 1412,
      "twent": 1413,
      "ught": 1414,
      "xt": 1415,
      "yed": 1416,
      "ising": 1417,
      "town": 1418,
      "lear": 1419,
      "beaut": 1420,
      "ries": 1421,
      "coll": 1422,
      "account": 1423,
      "shot": 1424,
      "outside": 1425,
      "keen": 1426,
      "uncle": 1427,
      "expe": 1428,
      "boy": 1429,
      "blue": 1430,
      "cious": 1431,
      "order": 1432,
      "Not": 1433,
      "older": 1434,
      "pair": 1435,
      "ancy": 1436,
      "venture": 1437,
      "effect": 1438,
      "flu": 1439,
      "attention": 1440,
      "ashion": 1441,
      "silence": 1442,
      "started": 1443,
      "breakfast": 1444,
      "struck": 1445,
      "absolutely": 1446,
      "Foundation": 1447,
      "Wil": 1448,
      "ax": 1449,
      "blo": 1450,
      "dr": 1451,
      "eld": 1452,
      "eper": 1453,
      "fashion": 1454,
      "gard": 1455,
      "ip": 1456,
      "mil": 1457,
      "nature": 1458,
      "tw": 1459,
      "wed": 1460,
      "wall": 1461,
      "thur": 1462,
      "ins": 1463,
      "inspector": 1464,
      "outh": 1465,
      "ony": 1466,
      "hea": 1467,
      "ley": 1468,
      "cell": 1469,
      "terms": 1470,
      "wel": 1471,
      "shar": 1472,
      "poor": 1473,
      "key": 1474,
      "ney": 1475,
      "ended": 1476,
      "idea": 1477,
      "affair": 1478,
      "glass": 1479,
      "smer": 1480,
      "serious": 1481,
      "drawn": 1482,
      "happened": 1483,
      "glancing": 1484,
      "Arthur": 1485,
      "considerable": 1486,
      "lott": 1487,
      "important": 1488,
      "tempt": 1489,
      "sprang": 1490,
      "secret": 1491,
      "Hosmer": 1492,
      "beside": 1493,
      "advertise": 1494,
      "fortunate": 1495,
      "figure": 1496,
      "Roylott": 1497,
      "passage": 1498,
      "Amer": 1499,
      "Let": 1500,
      "Un": 1501,
      "bow": 1502,
      "bly": 1503,
      "cup": 1504,
      "hund": 1505,
      "ian": 1506,
      "lim": 1507,
      "mis": 1508,
      "van": 1509,
      "thin": 1510,
      "inno": 1511,
      "ater": 1512,
      "real": 1513,
      "ream": 1514,
      "leg": 1515,
      "meet": 1516,
      "means": 1517,
      "station": 1518,
      "rop": 1519,
      "tern": 1520,
      "comes": 1521,
      "irty": 1522,
      "ager": 1523,
      "post": 1524,
      "fee": 1525,
      "next": 1526,
      "mother": 1527,
      "deter": 1528,
      "gold": 1529,
      "extr": 1530,
      "exper": 1531,
      "iled": 1532,
      "plan": 1533,
      "raid": 1534,
      "tel": 1535,
      "viol": 1536,
      "action": 1537,
      "comple": 1538,
      "carried": 1539,
      "carriage": 1540,
      "closed": 1541,
      "clothes": 1542,
      "distribut": 1543,
      "observed": 1544,
      "happy": 1545,
      "culiar": 1546,
      "glanced": 1547,
      "water": 1548,
      "occurred": 1549,
      "Maj": 1550,
      "Turner": 1551,
      "twenty": 1552,
      "blood": 1553,
      "Ameri": 1554,
      "hundred": 1555,
      "James": 1556,
      "Mary": 1557,
      "Po": 1558,
      "Sto": 1559,
      "bur": 1560,
      "claim": 1561,
      "du": 1562,
      "sn": 1563,
      "shad": 1564,
      "ying": 1565,
      "ase": 1566,
      "hall": 1567,
      "stery": 1568,
      "ution": 1569,
      "ourt": 1570,
      "sun": 1571,
      "doing": 1572,
      "feature": 1573,
      "peculiar": 1574,
      "contr": 1575,
      "concl": 1576,
      "gel": 1577,
      "whose": 1578,
      "shaw": 1579,
      "afraid": 1580,
      "prac": 1581,
      "board": 1582,
      "dread": 1583,
      "object": 1584,
      "carry": 1585,
      "ots": 1586,
      "points": 1587,
      "stepfather": 1588,
      "interesting": 1589,
      "broad": 1590,
      "Some": 1591,
      "Frank": 1592,
      "Angel": 1593,
      "writing": 1594,
      "continu": 1595,
      "usual": 1596,
      "natur": 1597,
      "problem": 1598,
      "Wilson": 1599,
      "wedding": 1600,
      "extra": 1601,
      "From": 1602,
      "Have": 1603,
      "Le": 1604,
      "Qu": 1605,
      "Su": 1606,
      "Windi": 1607,
      "bour": 1608,
      "gener": 1609,
      "lit": 1610,
      "mere": 1611,
      "plo": 1612,
      "ses": 1613,
      "sal": 1614,
      "ye": 1615,
      "inion": 1616,
      "inct": 1617,
      "inqu": 1618,
      "incl": 1619,
      "erry": 1620,
      "ati": 1621,
      "atch": 1622,
      "ased": 1623,
      "towards": 1624,
      "arri": 1625,
      "ition": 1626,
      "ste": 1627,
      "lying": 1628,
      "mystery": 1629,
      "almost": 1630,
      "shown": 1631,
      "unter": 1632,
      "tive": 1633,
      "trou": 1634,
      "seeing": 1635,
      "placed": 1636,
      "caught": 1637,
      "Where": 1638,
      "opinion": 1639,
      "pris": 1640,
      "book": 1641,
      "earth": 1642,
      "matters": 1643,
      "headed": 1644,
      "firm": 1645,
      "remarkable": 1646,
      "everything": 1647,
      "ourselves": 1648,
      "descri": 1649,
      "gged": 1650,
      "hours": 1651,
      "curi": 1652,
      "laughed": 1653,
      "month": 1654,
      "confess": 1655,
      "drive": 1656,
      "showed": 1657,
      "sleep": 1658,
      "ville": 1659,
      "fresh": 1660,
      "quietly": 1661,
      "England": 1662,
      "voice": 1663,
      "wonder": 1664,
      "advertisement": 1665,
      "Windibank": 1666,
      "Hunter": 1667,
      "II": 1668,
      "Mon": 1669,
      "OF": 1670,
      "furn": 1671,
      "ger": 1672,
      "ief": 1673,
      "ker": 1674,
      "kne": 1675,
      "mach": 1676,
      "pit": 1677,
      "ual": 1678,
      "uck": 1679,
      "won": 1680,
      "wand": 1681,
      "zz": 1682,
      "ann": 1683,
      "attempt": 1684,
      "ared": 1685,
      "change": 1686,
      "charge": 1687,
      "advice": 1688,
      "ford": 1689,
      "lod": 1690,
      "oured": 1691,
      "neigh": 1692,
      "aint": 1693,
      "usion": 1694,
      "Thank": 1695,
      "appro": 1696,
      "conne": 1697,
      "tru": 1698,
      "deal": 1699,
      "fied": 1700,
      "others": 1701,
      "Stoner": 1702,
      "casion": 1703,
      "wrong": 1704,
      "pipe": 1705,
      "occasion": 1706,
      "partic": 1707,
      "sett": 1708,
      "single": 1709,
      "observe": 1710,
      "silent": 1711,
      "copyright": 1712,
      "direction": 1713,
      "reached": 1714,
      "details": 1715,
      "received": 1716,
      "simple": 1717,
      "experience": 1718,
      "complete": 1719,
      "extraordinary": 1720,
      "neighbour": 1721,
      "particular": 1722,
      "Bri": 1723,
      "Hather": 1724,
      "Holder": 1725,
      "Ne": 1726,
      "Per": 1727,
      "Was": 1728,
      "bad": 1729,
      "cou": 1730,
      "eBo": 1731,
      "fright": 1732,
      "gas": 1733,
      "ium": 1734,
      "mist": 1735,
      "ping": 1736,
      "rene": 1737,
      "sof": 1738,
      "sor": 1739,
      "swi": 1740,
      "sence": 1741,
      "slight": 1742,
      "ww": 1743,
      "inj": 1744,
      "oul": 1745,
      "ator": 1746,
      "edge": 1747,
      "isto": 1748,
      "arrow": 1749,
      "itself": 1750,
      "ller": 1751,
      "velo": 1752,
      "ceed": 1753,
      "vers": 1754,
      "rich": 1755,
      "along": 1756,
      "formed": 1757,
      "acc": 1758,
      "lips": 1759,
      "weather": 1760,
      "dog": 1761,
      "fell": 1762,
      "appoint": 1763,
      "conce": 1764,
      "esty": 1765,
      "ility": 1766,
      "perfect": 1767,
      "world": 1768,
      "Who": 1769,
      "States": 1770,
      "glad": 1771,
      "blow": 1772,
      "acted": 1773,
      "morrow": 1774,
      "company": 1775,
      "afterwards": 1776,
      "vesti": 1777,
      "ount": 1778,
      "news": 1779,
      "corre": 1780,
      "piece": 1781,
      "bedroom": 1782,
      "appears": 1783,
      "emplo": 1784,
      "laughing": 1785,
      "suppose": 1786,
      "differ": 1787,
      "chamber": 1788,
      "remained": 1789,
      "listened": 1790,
      "murder": 1791,
      "whisper": 1792,
      "suggest": 1793,
      "search": 1794,
      "slowly": 1795,
      "Majesty": 1796,
      "Hatherley": 1797,
      "Neville": 1798,
      "eBook": 1799,
      "Did": 1800,
      "ER": 1801,
      "Is": 1802,
      "Our": 1803,
      "Open": 1804,
      "cru": 1805,
      "dut": 1806,
      "fro": 1807,
      "ile": 1808,
      "number": 1809,
      "pal": 1810,
      "raph": 1811,
      "sw": 1812,
      "tion": 1813,
      "war": 1814,
      "xed": 1815,
      "thor": 1816,
      "ination": 1817,
      "investi": 1818,
      "ende": 1819,
      "tom": 1820,
      "refer": 1821,
      "hem": 1822,
      "lead": 1823,
      "because": 1824,
      "cho": 1825,
      "noon": 1826,
      "entire": 1827,
      "adm": 1828,
      "adv": 1829,
      "force": 1830,
      "acqu": 1831,
      "susp": 1832,
      "ages": 1833,
      "agraph": 1834,
      "doctor": 1835,
      "apped": 1836,
      "conv": 1837,
      "concer": 1838,
      "geese": 1839,
      "ext": 1840,
      "seem": 1841,
      "someone": 1842,
      "field": 1843,
      "ending": 1844,
      "glance": 1845,
      "brown": 1846,
      "cigar": 1847,
      "anged": 1848,
      "drew": 1849,
      "isely": 1850,
      "Nothing": 1851,
      "afternoon": 1852,
      "possi": 1853,
      "paragraph": 1854,
      "fortune": 1855,
      "taking": 1856,
      "official": 1857,
      "instantly": 1858,
      "mission": 1859,
      "weeks": 1860,
      "feeling": 1861,
      "surprised": 1862,
      "master": 1863,
      "agreement": 1864,
      "pulled": 1865,
      "quarter": 1866,
      "miles": 1867,
      "sharp": 1868,
      "innocent": 1869,
      "determin": 1870,
      "dreadful": 1871,
      "Quite": 1872,
      "machine": 1873,
      "investig": 1874,
      "AR": 1875,
      "Al": 1876,
      "Col": 1877,
      "City": 1878,
      "Ge": 1879,
      "Ger": 1880,
      "Irene": 1881,
      "bac": 1882,
      "burn": 1883,
      "dest": 1884,
      "glo": 1885,
      "je": 1886,
      "later": 1887,
      "pet": 1888,
      "tou": 1889,
      "yard": 1890,
      "ze": 1891,
      "—”": 1892,
      "thod": 1893,
      "thum": 1894,
      "thick": 1895,
      "theor": 1896,
      "associ": 1897,
      "itness": 1898,
      "method": 1899,
      "rope": 1900,
      "wice": 1901,
      "lies": 1902,
      "shutter": 1903,
      "ship": 1904,
      "suf": 1905,
      "using": 1906,
      "extre": 1907,
      "atever": 1908,
      "pret": 1909,
      "shoulders": 1910,
      "bride": 1911,
      "inted": 1912,
      "smiling": 1913,
      "type": 1914,
      "pale": 1915,
      "paid": 1916,
      "dressing": 1917,
      "double": 1918,
      "ventil": 1919,
      "cleared": 1920,
      "armchair": 1921,
      "formation": 1922,
      "waited": 1923,
      "centre": 1924,
      "ashed": 1925,
      "Bos": 1926,
      "ength": 1927,
      "dropped": 1928,
      "following": 1929,
      "examined": 1930,
      "build": 1931,
      "Arch": 1932,
      "importance": 1933,
      "wooden": 1934,
      "shook": 1935,
      "evidence": 1936,
      "surprise": 1937,
      "lane": 1938,
      "assistant": 1939,
      "Indeed": 1940,
      "making": 1941,
      "impression": 1942,
      "events": 1943,
      "power": 1944,
      "United": 1945,
      "arrived": 1946,
      "approach": 1947,
      "Perhaps": 1948,
      "whispered": 1949,
      "Openshaw": 1950,
      "endeav": 1951,
      "entirely": 1952,
      "suspic": 1953,
      "determined": 1954,
      "Geor": 1955,
      "German": 1956,
      "18": 1957,
      "Ab": 1958,
      "Be": 1959,
      "Her": 1960,
      "OR": 1961,
      "Pe": 1962,
      "Sco": 1963,
      "Square": 1964,
      "bra": 1965,
      "cal": 1966,
      "dle": 1967,
      "fur": 1968,
      "ich": 1969,
      "ls": 1970,
      "narr": 1971,
      "ph": 1972,
      "ts": 1973,
      "tall": 1974,
      "ually": 1975,
      "third": 1976,
      "thirty": 1977,
      "ertain": 1978,
      "anx": 1979,
      "eding": 1980,
      "top": 1981,
      "res": 1982,
      "arrest": 1983,
      "llent": 1984,
      "lea": 1985,
      "stret": 1986,
      "vel": 1987,
      "ents": 1988,
      "live": 1989,
      "neither": 1990,
      "till": 1991,
      "consult": 1992,
      "trave": 1993,
      "yours": 1994,
      "expen": 1995,
      "sheet": 1996,
      "combe": 1997,
      "caused": 1998,
      "gled": 1999,
      "ishment": 2000,
      "early": 2001,
      "turning": 2002,
      "didn": 2003,
      "servant": 2004,
      "says": 2005,
      "minal": 2006,
      "uding": 2007,
      "answer": 2008,
      "situ": 2009,
      "satis": 2010,
      "Bohem": 2011,
      "engaged": 2012,
      "Road": 2013,
      "finally": 2014,
      "Toller": 2015,
      "watch": 2016,
      "excellent": 2017,
      "incident": 2018,
      "000": 2019,
      "coloured": 2020,
      "Come": 2021,
      "smoke": 2022,
      "record": 2023,
      "Adler": 2024,
      "beautif": 2025,
      "garden": 2026,
      "heavi": 2027,
      "cellar": 2028,
      "yellow": 2029,
      "truth": 2030,
      "swift": 2031,
      "istol": 2032,
      "Colonel": 2033,
      "thumb": 2034,
      "extreme": 2035,
      "ventilator": 2036,
      "Boscombe": 2037,
      "AD": 2038,
      "AN": 2039,
      "Just": 2040,
      "aver": 2041,
      "bor": 2042,
      "bent": 2043,
      "bber": 2044,
      "card": 2045,
      "cum": 2046,
      "court": 2047,
      "eight": 2048,
      "faced": 2049,
      "fancy": 2050,
      "hon": 2051,
      "nine": 2052,
      "narrow": 2053,
      "send": 2054,
      "sense": 2055,
      "vac": 2056,
      "vour": 2057,
      "vate": 2058,
      "wro": 2059,
      "erary": 2060,
      "ane": 2061,
      "ening": 2062,
      "envelo": 2063,
      "remo": 2064,
      "ars": 2065,
      "ham": 2066,
      "whist": 2067,
      "lean": 2068,
      "stain": 2069,
      "stra": 2070,
      "seat": 2071,
      "ows": 2072,
      "chin": 2073,
      "noble": 2074,
      "cept": 2075,
      "add": 2076,
      "terrible": 2077,
      "keeper": 2078,
      "ties": 2079,
      "cons": 2080,
      "track": 2081,
      "trans": 2082,
      "que": 2083,
      "express": 2084,
      "ately": 2085,
      "worn": 2086,
      "presence": 2087,
      "shoulder": 2088,
      "prov": 2089,
      "intro": 2090,
      "marks": 2091,
      "umn": 2092,
      "ledge": 2093,
      "friends": 2094,
      "scene": 2095,
      "scream": 2096,
      "uded": 2097,
      "clearly": 2098,
      "colonel": 2099,
      "broke": 2100,
      "walking": 2101,
      "pushed": 2102,
      "darkness": 2103,
      "begin": 2104,
      "died": 2105,
      "fami": 2106,
      "promise": 2107,
      "pleasant": 2108,
      "Brad": 2109,
      "society": 2110,
      "probably": 2111,
      "subject": 2112,
      "middle": 2113,
      "difficult": 2114,
      "professional": 2115,
      "features": 2116,
      "continued": 2117,
      "inquir": 2118,
      "Monday": 2119,
      "frightened": 2120,
      "appointment": 2121,
      "different": 2122,
      "George": 2123,
      "Scot": 2124,
      "wrote": 2125,
      "envelope": 2126,
      ".,": 2127,
      "Con": 2128,
      "Certain": 2129,
      "LE": 2130,
      "LI": 2131,
      "Lit": 2132,
      "Moran": 2133,
      "Never": 2134,
      "bag": 2135,
      "bound": 2136,
      "equ": 2137,
      "fle": 2138,
      "fac": 2139,
      "groom": 2140,
      "hous": 2141,
      "hum": 2142,
      "ied": 2143,
      "lar": 2144,
      "lens": 2145,
      "ni": 2146,
      "nice": 2147,
      "ral": 2148,
      "sme": 2149,
      "tried": 2150,
      "uff": 2151,
      "inside": 2152,
      "astic": 2153,
      "reg": 2154,
      "respect": 2155,
      "andal": 2156,
      "often": 2157,
      "org": 2158,
      "arms": 2159,
      "ital": 2160,
      "itation": 2161,
      "whatever": 2162,
      "chur": 2163,
      "chief": 2164,
      "roof": 2165,
      "wild": 2166,
      "ides": 2167,
      "adventure": 2168,
      "immen": 2169,
      "impossible": 2170,
      "terday": 2171,
      "access": 2172,
      "shout": 2173,
      "amed": 2174,
      "amid": 2175,
      "sume": 2176,
      "indic": 2177,
      "unfortunate": 2178,
      "trap": 2179,
      "delic": 2180,
      "gems": 2181,
      "exact": 2182,
      "explan": 2183,
      "therefore": 2184,
      "raise": 2185,
      "raised": 2186,
      "ously": 2187,
      "isted": 2188,
      "proof": 2189,
      "hood": 2190,
      "knowledge": 2191,
      "boots": 2192,
      "rush": 2193,
      "clue": 2194,
      "cloud": 2195,
      "earn": 2196,
      "anging": 2197,
      "gras": 2198,
      "els": 2199,
      "path": 2200,
      "solved": 2201,
      "solution": 2202,
      "effort": 2203,
      "commun": 2204,
      "visit": 2205,
      "distur": 2206,
      "distinct": 2207,
      "Ross": 2208,
      "reasoning": 2209,
      "hurry": 2210,
      "trademark": 2211,
      "example": 2212,
      "horse": 2213,
      "horror": 2214,
      "horrible": 2215,
      "spoken": 2216,
      "signs": 2217,
      "nearly": 2218,
      "private": 2219,
      "English": 2220,
      "human": 2221,
      "excuse": 2222,
      "slip": 2223,
      "slipped": 2224,
      "throwing": 2225,
      "deduce": 2226,
      "ENT": 2227,
      "Horner": 2228,
      "expected": 2229,
      "natural": 2230,
      "League": 2231,
      "months": 2232,
      "building": 2233,
      "Archive": 2234,
      "Peter": 2235,
      "situation": 2236,
      "heavily": 2237,
      "honour": 2238,
      "Certainly": 2239,
      "Literary": 2240,
      "houses": 2241,
      "church": 2242,
      "immense": 2243,
      "Alice": 2244,
      "Bes": 2245,
      "Doran": 2246,
      "Ex": 2247,
      "Las": 2248,
      "Merry": 2249,
      "Prec": 2250,
      "Re": 2251,
      "Ry": 2252,
      "Read": 2253,
      "Yet": 2254,
      "bs": 2255,
      "bill": 2256,
      "cure": 2257,
      "cross": 2258,
      "ell": 2259,
      "eager": 2260,
      "fat": 2261,
      "fut": 2262,
      "fine": 2263,
      "gather": 2264,
      "hop": 2265,
      "ier": 2266,
      "iable": 2267,
      "lor": 2268,
      "pend": 2269,
      "ren": 2270,
      "ris": 2271,
      "s_": 2272,
      "var": 2273,
      "zed": 2274,
      "zen": 2275,
      "inches": 2276,
      "anci": 2277,
      "edly": 2278,
      "reco": 2279,
      "reck": 2280,
      "itions": 2281,
      "hab": 2282,
      "stay": 2283,
      "stable": 2284,
      "secur": 2285,
      "begg": 2286,
      "ceased": 2287,
      "ric": 2288,
      "som": 2289,
      "sole": 2290,
      "advant": 2291,
      "alive": 2292,
      "forth": 2293,
      "lived": 2294,
      "iron": 2295,
      "wear": 2296,
      "weary": 2297,
      "urg": 2298,
      "ury": 2299,
      "shri": 2300,
      "shire": 2301,
      "shining": 2302,
      "posed": 2303,
      "kept": 2304,
      "necess": 2305,
      "unt": 2306,
      "tice": 2307,
      "traces": 2308,
      "fool": 2309,
      "favour": 2310,
      "fift": 2311,
      "worth": 2312,
      "prevent": 2313,
      "precious": 2314,
      "opium": 2315,
      "provid": 2316,
      "handed": 2317,
      "lawn": 2318,
      "knows": 2319,
      "looks": 2320,
      "ection": 2321,
      "marked": 2322,
      "ump": 2323,
      "bled": 2324,
      "ordered": 2325,
      "serve": 2326,
      "thrust": 2327,
      "grew": 2328,
      "wrist": 2329,
      "ances": 2330,
      "occup": 2331,
      "criminal": 2332,
      "deser": 2333,
      "creature": 2334,
      "interested": 2335,
      "empt": 2336,
      "uced": 2337,
      "wished": 2338,
      "broken": 2339,
      "finite": 2340,
      "banker": 2341,
      "guard": 2342,
      "missing": 2343,
      "streets": 2344,
      "donations": 2345,
      "running": 2346,
      "exceeding": 2347,
      "fingers": 2348,
      "laws": 2349,
      "statement": 2350,
      "evidently": 2351,
      "madam": 2352,
      "purpose": 2353,
      "probable": 2354,
      "results": 2355,
      "learn": 2356,
      "American": 2357,
      "practice": 2358,
      "trouble": 2359,
      "employ": 2360,
      "admir": 2361,
      "convinc": 2362,
      "possibly": 2363,
      "investigation": 2364,
      "pretty": 2365,
      "narrative": 2366,
      "swiftly": 2367,
      "cumst": 2368,
      "straight": 2369,
      "Bradstreet": 2370,
      "inquiry": 2371,
      "communic": 2372,
      "Lascar": 2373,
      "Merryweather": 2374,
      "Precisely": 2375,
      "Ryder": 2376,
      "future": 2377,
      "fifty": 2378,
      "Cor": 2379,
      "Count": 2380,
      "ED": 2381,
      "ES": 2382,
      "Flor": 2383,
      "IN": 2384,
      "IS": 2385,
      "Jones": 2386,
      "Lo": 2387,
      "Lod": 2388,
      "Pa": 2389,
      "Sir": 2390,
      "Still": 2391,
      "Will": 2392,
      "ah": 2393,
      "bing": 2394,
      "bene": 2395,
      "crow": 2396,
      "dim": 2397,
      "date": 2398,
      "evil": 2399,
      "fit": 2400,
      "gn": 2401,
      "gro": 2402,
      "harm": 2403,
      "ie": 2404,
      "jour": 2405,
      "jud": 2406,
      "lin": 2407,
      "link": 2408,
      "mag": 2409,
      "mouth": 2410,
      "os": 2411,
      "pent": 2412,
      "page": 2413,
      "rap": 2414,
      "rist": 2415,
      "rough": 2416,
      "ratt": 2417,
      "snow": 2418,
      "soul": 2419,
      "test": 2420,
      "ulic": 2421,
      "west": 2422,
      "influ": 2423,
      "information": 2424,
      "erk": 2425,
      "ata": 2426,
      "ities": 2427,
      "lling": 2428,
      "memor": 2429,
      "stud": 2430,
      "seiz": 2431,
      "secure": 2432,
      "beat": 2433,
      "roy": 2434,
      "rolled": 2435,
      "upstairs": 2436,
      "cost": 2437,
      "lose": 2438,
      "accept": 2439,
      "sake": 2440,
      "therland": 2441,
      "dozen": 2442,
      "ctions": 2443,
      "button": 2444,
      "unless": 2445,
      "moon": 2446,
      "motion": 2447,
      "fold": 2448,
      "permission": 2449,
      "compl": 2450,
      "fixed": 2451,
      "aston": 2452,
      "acked": 2453,
      "presume": 2454,
      "ult": 2455,
      "prote": 2456,
      "vial": 2457,
      "hot": 2458,
      "hotel": 2459,
      "bot": 2460,
      "clu": 2461,
      "clean": 2462,
      "strength": 2463,
      "tained": 2464,
      "spond": 2465,
      "corrid": 2466,
      "pointed": 2467,
      "scandal": 2468,
      "passing": 2469,
      "passion": 2470,
      "commiss": 2471,
      "opening": 2472,
      "draulic": 2473,
      "emer": 2474,
      "column": 2475,
      "examination": 2476,
      "wanted": 2477,
      "questioning": 2478,
      "condu": 2479,
      "easily": 2480,
      "cheek": 2481,
      "slee": 2482,
      "threat": 2483,
      "frequ": 2484,
      "deeply": 2485,
      "returning": 2486,
      "drawing": 2487,
      "fallen": 2488,
      "huge": 2489,
      "lantern": 2490,
      "assistance": 2491,
      "value": 2492,
      "Christ": 2493,
      "custo": 2494,
      "sym": 2495,
      "gained": 2496,
      "hydraulic": 2497,
      "expect": 2498,
      "Stoke": 2499,
      "contrary": 2500,
      "Sutherland": 2501,
      "prisoner": 2502,
      "curious": 2503,
      "zzled": 2504,
      "aintance": 2505,
      "connection": 2506,
      "neighbourhood": 2507,
      "Briony": 2508,
      "couple": 2509,
      "perfectly": 2510,
      "correct": 2511,
      "thorough": 2512,
      "acquaintance": 2513,
      "associated": 2514,
      "further": 2515,
      "stretched": 2516,
      "Bohemia": 2517,
      "beautiful": 2518,
      "Scotland": 2519,
      "explanation": 2520,
      "Peterson": 2521,
      "exceedingly": 2522,
      "Lodge": 2523,
      "influence": 2524,
      "corridor": 2525,
      "AG": 2526,
      "Cob": 2527,
      "Hen": 2528,
      "Lic": 2529,
      "Sud": 2530,
      "See": 2531,
      "TH": 2532,
      "Winches": 2533,
      "Yard": 2534,
      "apo": 2535,
      "cred": 2536,
      "crop": 2537,
      "drun": 2538,
      "data": 2539,
      "fain": 2540,
      "gings": 2541,
      "hes": 2542,
      "hung": 2543,
      "len": 2544,
      "latter": 2545,
      "loun": 2546,
      "pound": 2547,
      "pave": 2548,
      "pati": 2549,
      "rain": 2550,
      "sand": 2551,
      "sens": 2552,
      "square": 2553,
      "tail": 2554,
      "twice": 2555,
      "vous": 2556,
      "vague": 2557,
      "thous": 2558,
      "erce": 2559,
      "atic": 2560,
      "ences": 2561,
      "asc": 2562,
      "requ": 2563,
      "esman": 2564,
      "inging": 2565,
      "iture": 2566,
      "become": 2567,
      "robber": 2568,
      "ceiling": 2569,
      "aded": 2570,
      "alth": 2571,
      "although": 2572,
      "immed": 2573,
      "copi": 2574,
      "loss": 2575,
      "lip": 2576,
      "irt": 2577,
      "notic": 2578,
      "notice": 2579,
      "ables": 2580,
      "managed": 2581,
      "olk": 2582,
      "suit": 2583,
      "agged": 2584,
      "herself": 2585,
      "neck": 2586,
      "cture": 2587,
      "usions": 2588,
      "These": 2589,
      "convers": 2590,
      "devil": 2591,
      "depend": 2592,
      "pers": 2593,
      "wore": 2594,
      "sham": 2595,
      "handker": 2596,
      "bert": 2597,
      "urely": 2598,
      "pray": 2599,
      "intention": 2600,
      "ears": 2601,
      "doors": 2602,
      "angry": 2603,
      "thrown": 2604,
      "disappearance": 2605,
      "saying": 2606,
      "write": 2607,
      "pping": 2608,
      "spent": 2609,
      "spite": 2610,
      "longer": 2611,
      "coroner": 2612,
      "pips": 2613,
      "picked": 2614,
      "denly": 2615,
      "farther": 2616,
      "metal": 2617,
      "engine": 2618,
      "However": 2619,
      "finished": 2620,
      "sinister": 2621,
      "chain": 2622,
      "fastened": 2623,
      "kindly": 2624,
      "grounds": 2625,
      "yesterday": 2626,
      "allowed": 2627,
      "continue": 2628,
      "valu": 2629,
      "Having": 2630,
      "whisk": 2631,
      "sugges": 2632,
      "freely": 2633,
      "makes": 2634,
      "aware": 2635,
      "Horsham": 2636,
      "circumst": 2637,
      "learned": 2638,
      "bowed": 2639,
      "vanished": 2640,
      "America": 2641,
      "Pool": 2642,
      "shadow": 2643,
      "merely": 2644,
      "books": 2645,
      "knees": 2646,
      "announ": 2647,
      "occasionally": 2648,
      "sorry": 2649,
      "duty": 2650,
      "concerned": 2651,
      "jewel": 2652,
      "touch": 2653,
      "methods": 2654,
      "shutters": 2655,
      "About": 2656,
      "anxious": 2657,
      "whistle": 2658,
      "conscious": 2659,
      "Besides": 2660,
      "Reading": 2661,
      "recogn": 2662,
      "shriek": 2663,
      "empty": 2664,
      "beneath": 2665,
      "journey": 2666,
      "memory": 2667,
      "seized": 2668,
      "commission": 2669,
      "conduct": 2670,
      "cheeks": 2671,
      "Christmas": 2672,
      "Henry": 2673,
      "License": 2674,
      "Suddenly": 2675,
      "Winchester": 2676,
      "pavement": 2677,
      "thousand": 2678,
      "immedi": 2679,
      "conversation": 2680,
      "handkerchief": 2681,
      "CT": 2682,
      "Cop": 2683,
      "Ey": 2684,
      "Gri": 2685,
      "Had": 2686,
      "Mor": 2687,
      "None": 2688,
      "ON": 2689,
      "Sh": 2690,
      "Ser": 2691,
      "Two": 2692,
      "UN": 2693,
      "UT": 2694,
      "Witness": 2695,
      "_s_": 2696,
      "ale": 2697,
      "bure": 2698,
      "cord": 2699,
      "catch": 2700,
      "dying": 2701,
      "fr": 2702,
      "fate": 2703,
      "folk": 2704,
      "ges": 2705,
      "ging": 2706,
      "gest": 2707,
      "gutenberg": 2708,
      "loud": 2709,
      "mass": 2710,
      "ny": 2711,
      "ost": 2712,
      "pli": 2713,
      "pity": 2714,
      "pistol": 2715,
      "rup": 2716,
      "rate": 2717,
      "rising": 2718,
      "sive": 2719,
      "tide": 2720,
      "tax": 2721,
      "ude": 2722,
      "wing": 2723,
      "wound": 2724,
      "zing": 2725,
      "thro": 2726,
      "thus": 2727,
      "ince": 2728,
      "infer": 2729,
      "thed": 2730,
      "istic": 2731,
      "tobac": 2732,
      "rely": 2733,
      "reward": 2734,
      "report": 2735,
      "recovered": 2736,
      "orange": 2737,
      "arti": 2738,
      "itch": 2739,
      "lli": 2740,
      "stag": 2741,
      "stick": 2742,
      "bey": 2743,
      "wash": 2744,
      "ential": 2745,
      "adding": 2746,
      "aled": 2747,
      "alarm": 2748,
      "alley": 2749,
      "loo": 2750,
      "weight": 2751,
      "weak": 2752,
      "saved": 2753,
      "notes": 2754,
      "shru": 2755,
      "manager": 2756,
      "olit": 2757,
      "agent": 2758,
      "pool": 2759,
      "neat": 2760,
      "uni": 2761,
      "cks": 2762,
      "tily": 2763,
      "aper": 2764,
      "apply": 2765,
      "definite": 2766,
      "goes": 2767,
      "gover": 2768,
      "estate": 2769,
      "ilt": 2770,
      "sometimes": 2771,
      "comfort": 2772,
      "fic": 2773,
      "fici": 2774,
      "pled": 2775,
      "places": 2776,
      "ational": 2777,
      "acket": 2778,
      "raw": 2779,
      "shape": 2780,
      "shaking": 2781,
      "inkled": 2782,
      "prove": 2783,
      "proper": 2784,
      "proceed": 2785,
      "Stark": 2786,
      "rum": 2787,
      ".’”": 2788,
      "thank": 2789,
      "blind": 2790,
      "grass": 2791,
      "dream": 2792,
      "obli": 2793,
      "medical": 2794,
      "disappeared": 2795,
      "discovered": 2796,
      "goodness": 2797,
      "newsp": 2798,
      "spir": 2799,
      "heads": 2800,
      "nervous": 2801,
      "minute": 2802,
      "offered": 2803,
      "finding": 2804,
      "Water": 2805,
      "putting": 2806,
      "stepped": 2807,
      "desc": 2808,
      "former": 2809,
      "tical": 2810,
      "gently": 2811,
      "marry": 2812,
      "drop": 2813,
      "bush": 2814,
      "presented": 2815,
      "confid": 2816,
      "villain": 2817,
      "carefully": 2818,
      "trivial": 2819,
      "talking": 2820,
      "uttered": 2821,
      "pleasure": 2822,
      "sweet": 2823,
      "deadly": 2824,
      "holder": 2825,
      "refund": 2826,
      "strike": 2827,
      "explained": 2828,
      "playing": 2829,
      "grave": 2830,
      "ladies": 2831,
      "Adventure": 2832,
      "circle": 2833,
      "keenly": 2834,
      "welve": 2835,
      "affairs": 2836,
      "glasses": 2837,
      "violence": 2838,
      "sunk": 2839,
      "salesman": 2840,
      "prison": 2841,
      "curios": 2842,
      "furniture": 2843,
      "mistak": 2844,
      "sofa": 2845,
      "www": 2846,
      "suggested": 2847,
      "warning": 2848,
      "gloom": 2849,
      "yards": 2850,
      "theory": 2851,
      "endeavoured": 2852,
      "arrested": 2853,
      "leaving": 2854,
      "familiar": 2855,
      "shouted": 2856,
      "habits": 2857,
      "necessary": 2858,
      "convinced": 2859,
      "astonishment": 2860,
      "frequently": 2861,
      "thoroughly": 2862,
      "Coburg": 2863,
      "valuable": 2864,
      "suggestive": 2865,
      "circumstances": 2866,
      "Eyford": 2867,
      "bureau": 2868,
      "curiosity": 2869,
      "**": 2870,
      "1000": 2871,
      "Af": 2872,
      "Bee": 2873,
      "Cal": 2874,
      "Du": 2875,
      "Ja": 2876,
      "Ly": 2877,
      "Lane": 2878,
      "Mar": 2879,
      "May": 2880,
      "Or": 2881,
      "Red": 2882,
      "SE": 2883,
      "Spa": 2884,
      "Sax": 2885,
      "Swand": 2886,
      "URE": 2887,
      "VENT": 2888,
      "aven": 2889,
      "cof": 2890,
      "cart": 2891,
      "dust": 2892,
      "dashed": 2893,
      "fly": 2894,
      "fun": 2895,
      "fled": 2896,
      "flight": 2897,
      "game": 2898,
      "han": 2899,
      "hun": 2900,
      "iety": 2901,
      "lid": 2902,
      "lun": 2903,
      "lined": 2904,
      "mit": 2905,
      "ore": 2906,
      "pat": 2907,
      "pes": 2908,
      "por": 2909,
      "pha": 2910,
      "polit": 2911,
      "rat": 2912,
      "sen": 2913,
      "sad": 2914,
      "sion": 2915,
      "sim": 2916,
      "spl": 2917,
      "tu": 2918,
      "tin": 2919,
      "tal": 2920,
      "tap": 2921,
      "tinted": 2922,
      "twelve": 2923,
      "ume": 2924,
      "uld": 2925,
      "ush": 2926,
      "warm": 2927,
      "inci": 2928,
      "inner": 2929,
      "oubt": 2930,
      "ench": 2931,
      "assure": 2932,
      "tory": 2933,
      "repe": 2934,
      "reput": 2935,
      "recent": 2936,
      "revol": 2937,
      "regard": 2938,
      "itney": 2939,
      "habit": 2940,
      "stall": 2941,
      "stout": 2942,
      "states": 2943,
      "stream": 2944,
      "selves": 2945,
      "bez": 2946,
      "bear": 2947,
      "below": 2948,
      "bearing": 2949,
      "chest": 2950,
      "chuck": 2951,
      "veil": 2952,
      "idge": 2953,
      "nose": 2954,
      "noise": 2955,
      "river": 2956,
      "sold": 2957,
      "myster": 2958,
      "imate": 2959,
      "terri": 2960,
      "terror": 2961,
      "upper": 2962,
      "cock": 2963,
      "loc": 2964,
      "logy": 2965,
      "living": 2966,
      "lives": 2967,
      "lief": 2968,
      "weap": 2969,
      "ouring": 2970,
      "pois": 2971,
      "mesby": 2972,
      "unte": 2973,
      "unning": 2974,
      "unusual": 2975,
      "conven": 2976,
      "conject": 2977,
      "trous": 2978,
      "somewhat": 2979,
      "fierce": 2980,
      "Which": 2981,
      "Whitney": 2982,
      "teen": 2983,
      "prefer": 2984,
      "protr": 2985,
      "Star": 2986,
      "brand": 2987,
      "rug": 2988,
      "clay": 2989,
      "market": 2990,
      "bling": 2991,
      "angle": 2992,
      "gram": 2993,
      "clever": 2994,
      "served": 2995,
      "series": 2996,
      "household": 2997,
      "ully": 2998,
      "winding": 2999,
      "spare": 3000,
      "stop": 3001,
      "stopped": 3002,
      "cloak": 3003,
      "possession": 3004,
      "waist": 3005,
      "solve": 3006,
      "clearing": 3007,
      "brea": 3008,
      "breath": 3009,
      "busy": 3010,
      "license": 3011,
      "command": 3012,
      "committed": 3013,
      "desire": 3014,
      "despair": 3015,
      "instru": 3016,
      "forming": 3017,
      "pressed": 3018,
      "pressing": 3019,
      "helor": 3020,
      "Boone": 3021,
      "distance": 3022,
      "gives": 3023,
      "gips": 3024,
      "party": 3025,
      "parted": 3026,
      "brother": 3027,
      "trying": 3028,
      "vidual": 3029,
      "reasons": 3030,
      "plainly": 3031,
      "trees": 3032,
      "startled": 3033,
      "breaking": 3034,
      "mono": 3035,
      "driven": 3036,
      "missed": 3037,
      "check": 3038,
      "exception": 3039,
      "careful": 3040,
      "detect": 3041,
      "crack": 3042,
      "ials": 3043,
      "prompt": 3044,
      "temper": 3045,
      "receive": 3046,
      "succeed": 3047,
      "please": 3048,
      "pockets": 3049,
      "sky": 3050,
      "children": 3051,
      "usually": 3052,
      "individual": 3053,
      "brilli": 3054,
      "grace": 3055,
      "commonplace": 3056,
      "difficulty": 3057,
      "beauty": 3058,
      "twisted": 3059,
      "walls": 3060,
      "vanish": 3061,
      "burst": 3062,
      "duce": 3063,
      "shade": 3064,
      "conclusion": 3065,
      "conclusions": 3066,
      "carrying": 3067,
      "naturally": 3068,
      "general": 3069,
      "including": 3070,
      "description": 3071,
      "furnished": 3072,
      "lodge": 3073,
      "lodgings": 3074,
      "connected": 3075,
      "settled": 3076,
      "soft": 3077,
      "frock": 3078,
      "suffici": 3079,
      "suspicion": 3080,
      "servants": 3081,
      "ADVENT": 3082,
      "expression": 3083,
      "provide": 3084,
      "beginning": 3085,
      "smell": 3086,
      "disturb": 3087,
      "ancies": 3088,
      "Coroner": 3089,
      "Countess": 3090,
      "Flora": 3091,
      "Look": 3092,
      "pentine": 3093,
      "royal": 3094,
      "bottom": 3095,
      "emerged": 3096,
      "sympa": 3097,
      "credit": 3098,
      "patient": 3099,
      "noticed": 3100,
      "Copper": 3101,
      "Grimesby": 3102,
      "Serpentine": 3103,
      "tobacco": 3104,
      "shrugged": 3105,
      "property": 3106,
      "Waterloo": 3107,
      "mistaken": 3108,
      "Beeches": 3109,
      "Jabez": 3110,
      "Spauld": 3111,
      "Swandam": 3112,
      "coffee": 3113,
      "oubtedly": 3114,
      "weapon": 3115,
      "brilliant": 3116,
      "sufficient": 3117,
      "ADVENTURE": 3118,
      "Spaulding": 3119,
      "),": 3120,
      "11": 3121,
      "15": 3122,
      "22": 3123,
      "30": 3124,
      "Ass": 3125,
      "Burn": 3126,
      "Breck": 3127,
      "Clay": 3128,
      "Court": 3129,
      "De": 3130,
      "Don": 3131,
      "Dun": 3132,
      "Eu": 3133,
      "Every": 3134,
      "Even": 3135,
      "Farm": 3136,
      "Hum": 3137,
      "IT": 3138,
      "Lady": 3139,
      "Lee": 3140,
      "Oak": 3141,
      "Padding": 3142,
      "RO": 3143,
      "ST": 3144,
      "Section": 3145,
      "Tell": 3146,
      "Up": 3147,
      "West": 3148,
      "_L": 3149,
      "_d": 3150,
      "bon": 3151,
      "bla": 3152,
      "bbed": 3153,
      "blot": 3154,
      "bility": 3155,
      "bbing": 3156,
      "cand": 3157,
      "cast": 3158,
      "cunning": 3159,
      "dow": 3160,
      "dam": 3161,
      "dried": 3162,
      "dull": 3163,
      "dated": 3164,
      "ej": 3165,
      "ech": 3166,
      "east": 3167,
      "fli": 3168,
      "fant": 3169,
      "gen": 3170,
      "hast": 3171,
      "hanging": 3172,
      "jury": 3173,
      "jacket": 3174,
      "ked": 3175,
      "kno": 3176,
      "lu": 3177,
      "lone": 3178,
      "lab": 3179,
      "lord": 3180,
      "mat": 3181,
      "mous": 3182,
      "match": 3183,
      "net": 3184,
      "oee": 3185,
      "pan": 3186,
      "pun": 3187,
      "pence": 3188,
      "paced": 3189,
      "sill": 3190,
      "scho": 3191,
      "tar": 3192,
      "tted": 3193,
      "uries": 3194,
      "wri": 3195,
      "witness": 3196,
      "yer": 3197,
      "ina": 3198,
      "inv": 3199,
      "init": 3200,
      "intell": 3201,
      "inqui": 3202,
      "inrid": 3203,
      "ergy": 3204,
      "ana": 3205,
      "anim": 3206,
      "angled": 3207,
      "atur": 3208,
      "attr": 3209,
      "eder": 3210,
      "ises": 3211,
      "aside": 3212,
      "asure": 3213,
      "toss": 3214,
      "reat": 3215,
      "reve": 3216,
      "replace": 3217,
      "request": 3218,
      "resid": 3219,
      "reath": 3220,
      "retained": 3221,
      "escap": 3222,
      "orig": 3223,
      "arse": 3224,
      "stones": 3225,
      "sell": 3226,
      "sequ": 3227,
      "separ": 3228,
      "youth": 3229,
      "belong": 3230,
      "becomes": 3231,
      "changed": 3232,
      "veyed": 3233,
      "iday": 3234,
      "idable": 3235,
      "nod": 3236,
      "forgot": 3237,
      "forced": 3238,
      "whip": 3239,
      "log": 3240,
      "lover": 3241,
      "loose": 3242,
      "acy": 3243,
      "acul": 3244,
      "shing": 3245,
      "shut": 3246,
      "shop": 3247,
      "ability": 3248,
      "amount": 3249,
      "unpleasant": 3250,
      "move": 3251,
      "moist": 3252,
      "pew": 3253,
      "peep": 3254,
      "tie": 3255,
      "tips": 3256,
      "appar": 3257,
      "essential": 3258,
      "contain": 3259,
      "owner": 3260,
      "trad": 3261,
      "trace": 3262,
      "dev": 3263,
      "delight": 3264,
      "debt": 3265,
      "defect": 3266,
      "exist": 3267,
      "somewhere": 3268,
      "wouldn": 3269,
      "filled": 3270,
      "plans": 3271,
      "cape": 3272,
      "women": 3273,
      "tee": 3274,
      "pread": 3275,
      "previous": 3276,
      "presum": 3277,
      "downstairs": 3278,
      "vens": 3279,
      "process": 3280,
      "propri": 3281,
      "forever": 3282,
      "forehead": 3283,
      "hole": 3284,
      "affect": 3285,
      "glimp": 3286,
      "printed": 3287,
      "princi": 3288,
      "brain": 3289,
      "thinking": 3290,
      "ruin": 3291,
      "cles": 3292,
      "clut": 3293,
      "clad": 3294,
      "clergy": 3295,
      "backward": 3296,
      "grin": 3297,
      "grate": 3298,
      "actually": 3299,
      "smile": 3300,
      "working": 3301,
      "disgu": 3302,
      "discover": 3303,
      "comply": 3304,
      "justice": 3305,
      "spon": 3306,
      "pointing": 3307,
      "cloth": 3308,
      "scattered": 3309,
      "possess": 3310,
      "breast": 3311,
      "getting": 3312,
      "commence": 3313,
      "instead": 3314,
      "formidable": 3315,
      "visible": 3316,
      "fuller": 3317,
      "laying": 3318,
      "lower": 3319,
      "avo": 3320,
      "size": 3321,
      "wheels": 3322,
      "deri": 3323,
      "fined": 3324,
      "Only": 3325,
      "contro": 3326,
      "France": 3327,
      "treat": 3328,
      "guess": 3329,
      "guine": 3330,
      "buy": 3331,
      "supper": 3332,
      "signal": 3333,
      "heartily": 3334,
      "considerably": 3335,
      "driving": 3336,
      "eleven": 3337,
      "village": 3338,
      "except": 3339,
      "highest": 3340,
      "feared": 3341,
      "personal": 3342,
      "lawyer": 3343,
      "fairly": 3344,
      "lately": 3345,
      "woods": 3346,
      "energy": 3347,
      "remains": 3348,
      "Cooee": 3349,
      "Brit": 3350,
      "secrecy": 3351,
      "paying": 3352,
      "barred": 3353,
      "skill": 3354,
      "shortly": 3355,
      "grief": 3356,
      "refused": 3357,
      "problems": 3358,
      "bitter": 3359,
      "volunte": 3360,
      "quarrel": 3361,
      "izes": 3362,
      "successful": 3363,
      "painful": 3364,
      "collar": 3365,
      "shott": 3366,
      "heavens": 3367,
      "limbs": 3368,
      "legs": 3369,
      "violent": 3370,
      "distributing": 3371,
      "described": 3372,
      "knee": 3373,
      "settle": 3374,
      "particularly": 3375,
      "injured": 3376,
      "accident": 3377,
      "correspond": 3378,
      "eBooks": 3379,
      "duties": 3380,
      "reference": 3381,
      "referred": 3382,
      "advise": 3383,
      "Alpha": 3384,
      "bachelor": 3385,
      "suffer": 3386,
      "bridegroom": 3387,
      "approached": 3388,
      "Because": 3389,
      "records": 3390,
      "vacancy": 3391,
      "removed": 3392,
      "leaning": 3393,
      "stains": 3394,
      "larger": 3395,
      "delicate": 3396,
      "exactly": 3397,
      "hopes": 3398,
      "beggar": 3399,
      "advantage": 3400,
      "provided": 3401,
      "crowd": 3402,
      "rapid": 3403,
      "study": 3404,
      "club": 3405,
      "customed": 3406,
      "apology": 3407,
      "sander": 3408,
      "robbery": 3409,
      "copies": 3410,
      "engineer": 3411,
      "whiskers": 3412,
      "immediately": 3413,
      "throat": 3414,
      "stagg": 3415,
      "beyond": 3416,
      "Lysander": 3417,
      "Saxe": 3418,
      "funny": 3419,
      "revolver": 3420,
      "chuckled": 3421,
      "located": 3422,
      "poison": 3423,
      "trousers": 3424,
      "Star_": 3425,
      "brandy": 3426,
      "waistcoat": 3427,
      "gipsies": 3428,
      "detective": 3429,
      "Assizes": 3430,
      "Burnwell": 3431,
      "Breckinrid": 3432,
      "Duncan": 3433,
      "Europe": 3434,
      "Oakshott": 3435,
      "Paddington": 3436,
      "ejacul": 3437,
      "fantastic": 3438,
      "school": 3439,
      "initials": 3440,
      "inquiries": 3441,
      "origin": 3442,
      "glimpse": 3443,
      "clergyman": 3444,
      "Breckinridge": 3445,
      "AL": 3446,
      "AT": 3447,
      "Are": 3448,
      "Aust": 3449,
      "Bet": 3450,
      "BER": 3451,
      "DE": 3452,
      "Dund": 3453,
      "Give": 3454,
      "Kind": 3455,
      "NO": 3456,
      "Nort": 3457,
      "OL": 3458,
      "OU": 3459,
      "Satur": 3460,
      "Twice": 3461,
      "Und": 3462,
      "Vic": 3463,
      "Valley": 3464,
      "Wed": 3465,
      "YOU": 3466,
      "aire": 3467,
      "ball": 3468,
      "bund": 3469,
      "bull": 3470,
      "big": 3471,
      "buncle": 3472,
      "cat": 3473,
      "cise": 3474,
      "city": 3475,
      "camp": 3476,
      "dy": 3477,
      "dad": 3478,
      "dig": 3479,
      "dirty": 3480,
      "duced": 3481,
      "eign": 3482,
      "fu": 3483,
      "fy": 3484,
      "fond": 3485,
      "fring": 3486,
      "foul": 3487,
      "gun": 3488,
      "gown": 3489,
      "gate": 3490,
      "gang": 3491,
      "hide": 3492,
      "ky": 3493,
      "kitch": 3494,
      "lap": 3495,
      "ma": 3496,
      "mn": 3497,
      "mus": 3498,
      "mmed": 3499,
      "mered": 3500,
      "mured": 3501,
      "mitted": 3502,
      "othing": 3503,
      "pæ": 3504,
      "pin": 3505,
      "plic": 3506,
      "rand": 3507,
      "rent": 3508,
      "slo": 3509,
      "squ": 3510,
      "sank": 3511,
      "scar": 3512,
      "tut": 3513,
      "tur": 3514,
      "tend": 3515,
      "task": 3516,
      "tree": 3517,
      "uous": 3518,
      "uary": 3519,
      "vation": 3520,
      "wit": 3521,
      "wise": 3522,
      "xton": 3523,
      "yle": 3524,
      "—“": 3525,
      "thief": 3526,
      "iny": 3527,
      "income": 3528,
      "incre": 3529,
      "erg": 3530,
      "onto": 3531,
      "ency": 3532,
      "isk": 3533,
      "isco": 3534,
      "tori": 3535,
      "ress": 3536,
      "reply": 3537,
      "escape": 3538,
      "itude": 3539,
      "heels": 3540,
      "leather": 3541,
      "meant": 3542,
      "stem": 3543,
      "staring": 3544,
      "stared": 3545,
      "sel": 3546,
      "seated": 3547,
      "belief": 3548,
      "owe": 3549,
      "owing": 3550,
      "charm": 3551,
      "chase": 3552,
      "vereign": 3553,
      "enter": 3554,
      "sovereign": 3555,
      "als": 3556,
      "altar": 3557,
      "forty": 3558,
      "forget": 3559,
      "ters": 3560,
      "loy": 3561,
      "loved": 3562,
      "accompl": 3563,
      "accustomed": 3564,
      "liber": 3565,
      "liance": 3566,
      "saf": 3567,
      "shone": 3568,
      "shattered": 3569,
      "absur": 3570,
      "etah": 3571,
      "mantel": 3572,
      "amiable": 3573,
      "sund": 3574,
      "poses": 3575,
      "fection": 3576,
      "inder": 3577,
      "unity": 3578,
      "aret": 3579,
      "mood": 3580,
      "peace": 3581,
      "pelled": 3582,
      "tied": 3583,
      "apart": 3584,
      "apsed": 3585,
      "const": 3586,
      "conveyed": 3587,
      "Its": 3588,
      "traced": 3589,
      "dec": 3590,
      "deed": 3591,
      "decl": 3592,
      "bye": 3593,
      "ils": 3594,
      "ilar": 3595,
      "oked": 3596,
      "fail": 3597,
      "faith": 3598,
      "failed": 3599,
      "persu": 3600,
      "complain": 3601,
      "compelled": 3602,
      "caution": 3603,
      "omin": 3604,
      "tele": 3605,
      "whence": 3606,
      "ify": 3607,
      "premis": 3608,
      "preserve": 3609,
      "willing": 3610,
      "oused": 3611,
      "share": 3612,
      "mention": 3613,
      "proved": 3614,
      "bery": 3615,
      "foreseen": 3616,
      "foresight": 3617,
      "Station": 3618,
      "knowing": 3619,
      "itement": 3620,
      "gling": 3621,
      "glim": 3622,
      "bran": 3623,
      "brow": 3624,
      "brows": 3625,
      "brisk": 3626,
      "boot": 3627,
      "assured": 3628,
      "rule": 3629,
      "undoubtedly": 3630,
      "angu": 3631,
      "grat": 3632,
      "smiled": 3633,
      "obtain": 3634,
      "moral": 3635,
      "asking": 3636,
      "sideboard": 3637,
      "disposition": 3638,
      "stranger": 3639,
      "agement": 3640,
      "useful": 3641,
      "speech": 3642,
      "founded": 3643,
      "spend": 3644,
      "spark": 3645,
      "nerves": 3646,
      "lessly": 3647,
      "telling": 3648,
      "remarks": 3649,
      "implic": 3650,
      "pawn": 3651,
      "closing": 3652,
      "clopæ": 3653,
      "pick": 3654,
      "picture": 3655,
      "scent": 3656,
      "Inspector": 3657,
      "interview": 3658,
      "stands": 3659,
      "thoughts": 3660,
      "calling": 3661,
      "sentence": 3662,
      "county": 3663,
      "instinct": 3664,
      "fles": 3665,
      "ignor": 3666,
      "curled": 3667,
      "greater": 3668,
      "greatest": 3669,
      "attend": 3670,
      "Both": 3671,
      "giving": 3672,
      "parts": 3673,
      "certainty": 3674,
      "broker": 3675,
      "Robert": 3676,
      "gentlemen": 3677,
      "readily": 3678,
      "reasoner": 3679,
      "observation": 3680,
      "takes": 3681,
      "examine": 3682,
      "examining": 3683,
      "French": 3684,
      "offices": 3685,
      "buried": 3686,
      "presently": 3687,
      "dia": 3688,
      "wants": 3689,
      "consideration": 3690,
      "showing": 3691,
      "watched": 3692,
      "cheer": 3693,
      "cheetah": 3694,
      "positive": 3695,
      "agedy": 3696,
      "trick": 3697,
      "copying": 3698,
      "cris": 3699,
      "Any": 3700,
      "direct": 3701,
      "director": 3702,
      "keeping": 3703,
      "talked": 3704,
      "shoes": 3705,
      "shock": 3706,
      "drawer": 3707,
      "spring": 3708,
      "evident": 3709,
      "Bristol": 3710,
      "portion": 3711,
      "writer": 3712,
      "remembered": 3713,
      "swear": 3714,
      "swept": 3715,
      "excitement": 3716,
      "holding": 3717,
      "gazing": 3718,
      "grip": 3719,
      "grizzled": 3720,
      "murmured": 3721,
      "refuse": 3722,
      "retired": 3723,
      "characteristic": 3724,
      "dangerous": 3725,
      "bringing": 3726,
      "custom": 3727,
      "north": 3728,
      "system": 3729,
      "impressed": 3730,
      "powers": 3731,
      "closely": 3732,
      "deduction": 3733,
      "joy": 3734,
      "drink": 3735,
      "misfortune": 3736,
      "legal": 3737,
      "posted": 3738,
      "distribution": 3739,
      "Stoper": 3740,
      "practical": 3741,
      "salary": 3742,
      "inclined": 3743,
      "Brixton": 3744,
      "gasped": 3745,
      "conceal": 3746,
      "cruel": 3747,
      "swinging": 3748,
      "advance": 3749,
      "fields": 3750,
      "burned": 3751,
      "touched": 3752,
      "theories": 3753,
      "typewritten": 3754,
      "endeavouring": 3755,
      "188": 3756,
      "leaves": 3757,
      "travelled": 3758,
      "expense": 3759,
      "extremely": 3760,
      "remove": 3761,
      "screamed": 3762,
      "equally": 3763,
      "niece": 3764,
      "nicely": 3765,
      "indicated": 3766,
      "clouds": 3767,
      "earnest": 3768,
      "grasp": 3769,
      "efforts": 3770,
      "distinctly": 3771,
      "security": 3772,
      "solemn": 3773,
      "dimly": 3774,
      "lines": 3775,
      "beaten": 3776,
      "buttoned": 3777,
      "protected": 3778,
      "threatened": 3779,
      "drunk": 3780,
      "fainted": 3781,
      "hesit": 3782,
      "pounds": 3783,
      "require": 3784,
      "shrieked": 3785,
      "loudly": 3786,
      "massive": 3787,
      "comfortable": 3788,
      "obliged": 3789,
      "spirits": 3790,
      "gravely": 3791,
      "Duke": 3792,
      "hansom": 3793,
      "hunting": 3794,
      "lunch": 3795,
      "repeated": 3796,
      "convenience": 3797,
      "breathing": 3798,
      "sympathy": 3799,
      "_Lone": 3800,
      "lonely": 3801,
      "analy": 3802,
      "devot": 3803,
      "avoid": 3804,
      "staggered": 3805,
      "Austral": 3806,
      "Kindly": 3807,
      "Norton": 3808,
      "Saturday": 3809,
      "kitchen": 3810,
      "absurd": 3811,
      "mantelpiece": 3812,
      "premises": 3813,
      "pawnbroker": 3814,
      ",—": 3815,
      "10": 3816,
      "50": 3817,
      "90": 3818,
      "Am": 3819,
      "Aloy": 3820,
      "BE": 3821,
      "Bal": 3822,
      "Ball": 3823,
      "Bank": 3824,
      "CK": 3825,
      "Could": 3826,
      "Cap": 3827,
      "Com": 3828,
      "Fin": 3829,
      "Far": 3830,
      "Fow": 3831,
      "Get": 3832,
      "Gra": 3833,
      "HOL": 3834,
      "IV": 3835,
      "JE": 3836,
      "Jack": 3837,
      "Lead": 3838,
      "Men": 3839,
      "Might": 3840,
      "Mill": 3841,
      "MES": 3842,
      "Most": 3843,
      "Nor": 3844,
      "Out": 3845,
      "Pond": 3846,
      "PRO": 3847,
      "Sur": 3848,
      "Sav": 3849,
      "South": 3850,
      "Surely": 3851,
      "TY": 3852,
      "Tot": 3853,
      "VI": 3854,
      "Vin": 3855,
      "War": 3856,
      "Would": 3857,
      "bi": 3858,
      "bal": 3859,
      "bul": 3860,
      "block": 3861,
      "bought": 3862,
      "cere": 3863,
      "cour": 3864,
      "cence": 3865,
      "dare": 3866,
      "dered": 3867,
      "due": 3868,
      "daring": 3869,
      "drug": 3870,
      "eat": 3871,
      "egg": 3872,
      "emotion": 3873,
      "fal": 3874,
      "fare": 3875,
      "fitted": 3876,
      "fancies": 3877,
      "gap": 3878,
      "garet": 3879,
      "har": 3880,
      "ior": 3881,
      "iam": 3882,
      "ica": 3883,
      "jok": 3884,
      "jum": 3885,
      "kes": 3886,
      "knot": 3887,
      "lust": 3888,
      "limp": 3889,
      "luck": 3890,
      "length": 3891,
      "langu": 3892,
      "mi": 3893,
      "ming": 3894,
      "mly": 3895,
      "mill": 3896,
      "mask": 3897,
      "mail": 3898,
      "non": 3899,
      "nes": 3900,
      "nies": 3901,
      "names": 3902,
      "named": 3903,
      "oper": 3904,
      "pul": 3905,
      "park": 3906,
      "pill": 3907,
      "rise": 3908,
      "rings": 3909,
      "sne": 3910,
      "sink": 3911,
      "stor": 3912,
      "sallow": 3913,
      "south": 3914,
      "tong": 3915,
      "tint": 3916,
      "ug": 3917,
      "uish": 3918,
      "va": 3919,
      "intr": 3920,
      "inex": 3921,
      "invent": 3922,
      "error": 3923,
      "anno": 3924,
      "antic": 3925,
      "outher": 3926,
      "atus": 3927,
      "attic": 3928,
      "editions": 3929,
      "edges": 3930,
      "enhall": 3931,
      "enthus": 3932,
      "ism": 3933,
      "issu": 3934,
      "asha": 3935,
      "asle": 3936,
      "aster": 3937,
      "ascertain": 3938,
      "tore": 3939,
      "rey": 3940,
      "reed": 3941,
      "regre": 3942,
      "recall": 3943,
      "represent": 3944,
      "espe": 3945,
      "ors": 3946,
      "arat": 3947,
      "itary": 3948,
      "height": 3949,
      "health": 3950,
      "whim": 3951,
      "stro": 3952,
      "status": 3953,
      "sea": 3954,
      "sem": 3955,
      "sele": 3956,
      "seld": 3957,
      "season": 3958,
      "ching": 3959,
      "chim": 3960,
      "chill": 3961,
      "chronic": 3962,
      "wicked": 3963,
      "ceive": 3964,
      "entity": 3965,
      "rig": 3966,
      "soothing": 3967,
      "adi": 3968,
      "altern": 3969,
      "iment": 3970,
      "cocked": 3971,
      "allic": 3972,
      "loaf": 3973,
      "local": 3974,
      "actor": 3975,
      "weed": 3976,
      "weigh": 3977,
      "shirt": 3978,
      "abl": 3979,
      "eting": 3980,
      "ours": 3981,
      "suic": 3982,
      "agitation": 3983,
      "poster": 3984,
      "ctim": 3985,
      "uses": 3986,
      "unable": 3987,
      "unction": 3988,
      "unknown": 3989,
      "unlocked": 3990,
      "ckled": 3991,
      "Those": 3992,
      "convi": 3993,
      "congrat": 3994,
      "tragedy": 3995,
      "delay": 3996,
      "excl": 3997,
      "exped": 3998,
      "establ": 3999,
      "shelf": 4000,
      "oundrel": 4001,
      "Heaven": 4002,
      "fault": 4003,
      "perple": 4004,
      "fill": 4005,
      "plat": 4006,
      "plent": 4007,
      "plant": 4008,
      "plumber": 4009,
      "worse": 4010,
      "prepar": 4011,
      "precaution": 4012,
      "ulate": 4013,
      "ulster": 4014,
      "ists": 4015,
      "istribut": 4016,
      "shake": 4017,
      "oppo": 4018,
      "otherwise": 4019,
      "victim": 4020,
      "hollow": 4021,
      "pride": 4022,
      "brass": 4023,
      "boat": 4024,
      "bore": 4025,
      "intimate": 4026,
      "clas": 4027,
      "illed": 4028,
      "ectual": 4029,
      "umbled": 4030,
      "bler": 4031,
      "cially": 4032,
      "cigaret": 4033,
      "acting": 4034,
      "actions": 4035,
      "obst": 4036,
      "medium": 4037,
      "orders": 4038,
      "worked": 4039,
      "discus": 4040,
      "discoloured": 4041,
      "disappointment": 4042,
      "mud": 4043,
      "comprom": 4044,
      "compliance": 4045,
      "elbow": 4046,
      "green": 4047,
      "newly": 4048,
      "speed": 4049,
      "special": 4050,
      "wrapped": 4051,
      "pple": 4052,
      "carpet": 4053,
      "carbuncle": 4054,
      "stock": 4055,
      "impati": 4056,
      "everyone": 4057,
      "btle": 4058,
      "scoundrel": 4059,
      "Information": 4060,
      "solid": 4061,
      "cripple": 4062,
      "instance": 4063,
      "ggle": 4064,
      "doubts": 4065,
      "format": 4066,
      "tically": 4067,
      "questions": 4068,
      "vision": 4069,
      "surely": 4070,
      "faction": 4071,
      "wishes": 4072,
      "metallic": 4073,
      "walks": 4074,
      "engthen": 4075,
      "puzzled": 4076,
      "surround": 4077,
      "sius": 4078,
      "pennies": 4079,
      "wheel": 4080,
      "reading": 4081,
      "silk": 4082,
      "hurt": 4083,
      "landlord": 4084,
      "contact": 4085,
      "Franc": 4086,
      "Friday": 4087,
      "enemy": 4088,
      "laughter": 4089,
      "mony": 4090,
      "support": 4091,
      "supply": 4092,
      "signature": 4093,
      "deduced": 4094,
      "strongly": 4095,
      "driver": 4096,
      "donate": 4097,
      "fourth": 4098,
      "fourteen": 4099,
      "slept": 4100,
      "sleeper": 4101,
      "runs": 4102,
      "frey": 4103,
      "deepest": 4104,
      "Ency": 4105,
      "fears": 4106,
      "kindness": 4107,
      "price": 4108,
      "promised": 4109,
      "strug": 4110,
      "struggle": 4111,
      "hearty": 4112,
      "severe": 4113,
      "cabman": 4114,
      "smoo": 4115,
      "arranged": 4116,
      "Godfrey": 4117,
      "pursu": 4118,
      "listen": 4119,
      "summon": 4120,
      "needed": 4121,
      "Hotel": 4122,
      "meaning": 4123,
      "capable": 4124,
      "capital": 4125,
      "skin": 4126,
      "excited": 4127,
      "quickly": 4128,
      "birds": 4129,
      "gazed": 4130,
      "slam": 4131,
      "striking": 4132,
      "Indian": 4133,
      "thesis": 4134,
      "lovely": 4135,
      "hurriedly": 4136,
      "China": 4137,
      "bricks": 4138,
      "brightly": 4139,
      "volume": 4140,
      "wondering": 4141,
      "eventually": 4142,
      "midnight": 4143,
      "trusted": 4144,
      "author": 4145,
      "colle": 4146,
      "collection": 4147,
      "dragged": 4148,
      "elder": 4149,
      "milk": 4150,
      "keys": 4151,
      "seriously": 4152,
      "innocence": 4153,
      "determine": 4154,
      "golden": 4155,
      "distribute": 4156,
      "snake": 4157,
      "snuff": 4158,
      "contrast": 4159,
      "continually": 4160,
      "Such": 4161,
      "generally": 4162,
      "atives": 4163,
      "wonderful": 4164,
      "III": 4165,
      "pitch": 4166,
      "annah": 4167,
      "attempts": 4168,
      "completely": 4169,
      "particulars": 4170,
      "couch": 4171,
      "mistake": 4172,
      "injuries": 4173,
      "murderer": 4174,
      "frost": 4175,
      "palm": 4176,
      "cigars": 4177,
      "possibility": 4178,
      "quarters": 4179,
      "burning": 4180,
      "suspicious": 4181,
      "brave": 4182,
      "icherry": 4183,
      "anxiety": 4184,
      "expenses": 4185,
      "satisfied": 4186,
      "satisfaction": 4187,
      "watching": 4188,
      "incidents": 4189,
      "averse": 4190,
      "leaned": 4191,
      "addition": 4192,
      "tracks": 4193,
      "families": 4194,
      "register": 4195,
      "respectable": 4196,
      "adventures": 4197,
      "delicacy": 4198,
      "rushing": 4199,
      "grasped": 4200,
      "advantages": 4201,
      "foolish": 4202,
      "providing": 4203,
      "deserted": 4204,
      "communicate": 4205,
      "William": 4206,
      "groan": 4207,
      "rattled": 4208,
      "folded": 4209,
      "sleeve": 4210,
      "sleeves": 4211,
      "lounging": 4212,
      "sensational": 4213,
      "announce": 4214,
      "announced": 4215,
      "recognised": 4216,
      "gesture": 4217,
      "plied": 4218,
      "rupt": 4219,
      "reported": 4220,
      "unique": 4221,
      "governess": 4222,
      "blinds": 4223,
      "newspaper": 4224,
      "bushes": 4225,
      "confidence": 4226,
      "After": 4227,
      "similar": 4228,
      "tapping": 4229,
      "mysterious": 4230,
      "terribly": 4231,
      "conjecture": 4232,
      "protruding": 4233,
      "_d_": 4234,
      "bonnet": 4235,
      "genial": 4236,
      "lux": 4237,
      "panel": 4238,
      "intellectual": 4239,
      "attracted": 4240,
      "tossed": 4241,
      "escaped": 4242,
      "peeped": 4243,
      "apparently": 4244,
      "trades": 4245,
      "existence": 4246,
      "disguise": 4247,
      "rapidly": 4248,
      "original": 4249,
      "Dundee": 4250,
      "Victori": 4251,
      "bundle": 4252,
      "fringe": 4253,
      "music": 4254,
      "plicable": 4255,
      "safety": 4256,
      "sundial": 4257,
      "telegram": 4258,
      "clopædia": 4259,
      "earnestly": 4260,
      "Aloysius": 4261,
      "Ballarat": 4262,
      "Fowler": 4263,
      "HOLMES": 4264,
      "Leadenhall": 4265,
      "Millar": 4266,
      "Pondicherry": 4267,
      "Surrey": 4268,
      "Savannah": 4269,
      "Vincent": 4270,
      "ceremony": 4271,
      "sneer": 4272,
      "enthusi": 4273,
      "ashamed": 4274,
      "asleep": 4275,
      "especially": 4276,
      "seldom": 4277,
      "chimney": 4278,
      "suicide": 4279,
      "conviction": 4280,
      "expedition": 4281,
      "discuss": 4282,
      "Encyclopædia": 4283,
      "Victoria": 4284,
      "12": 4285,
      "100": 4286,
      "AC": 4287,
      "Aven": 4288,
      "BO": 4289,
      "Bl": 4290,
      "Bey": 4291,
      "Berk": 4292,
      "Cr": 4293,
      "Can": 4294,
      "During": 4295,
      "DIS": 4296,
      "Ed": 4297,
      "Ferg": 4298,
      "Gener": 4299,
      "GUT": 4300,
      "Great": 4301,
      "Has": 4302,
      "Hall": 4303,
      "House": 4304,
      "Hud": 4305,
      "Hugh": 4306,
      "Hamp": 4307,
      "Isa": 4308,
      "Jan": 4309,
      "Jem": 4310,
      "Kate": 4311,
      "LO": 4312,
      "MY": 4313,
      "Man": 4314,
      "Mou": 4315,
      "Many": 4316,
      "New": 4317,
      "Ox": 4318,
      "Par": 4319,
      "Park": 4320,
      "RI": 4321,
      "RAN": 4322,
      "RLO": 4323,
      "SC": 4324,
      "Sw": 4325,
      "SHE": 4326,
      "Ter": 4327,
      "Tem": 4328,
      "UE": 4329,
      "WI": 4330,
      "Were": 4331,
      "WAR": 4332,
      "_The": 4333,
      "_Encyclopædia": 4334,
      "ald": 4335,
      "ban": 4336,
      "bid": 4337,
      "bare": 4338,
      "bby": 4339,
      "bask": 4340,
      "babo": 4341,
      "biz": 4342,
      "cam": 4343,
      "cous": 4344,
      "cort": 4345,
      "ccent": 4346,
      "dish": 4347,
      "dwell": 4348,
      "dign": 4349,
      "dash": 4350,
      "dates": 4351,
      "dinner": 4352,
      "eccent": 4353,
      "fow": 4354,
      "fere": 4355,
      "fight": 4356,
      "fra": 4357,
      "fish": 4358,
      "ffing": 4359,
      "fran": 4360,
      "faint": 4361,
      "fasc": 4362,
      "fists": 4363,
      "gor": 4364,
      "gal": 4365,
      "gam": 4366,
      "gig": 4367,
      "glove": 4368,
      "gham": 4369,
      "hol": 4370,
      "hang": 4371,
      "ifor": 4372,
      "ife": 4373,
      "iece": 4374,
      "jump": 4375,
      "lur": 4376,
      "lash": 4377,
      "lining": 4378,
      "mou": 4379,
      "mason": 4380,
      "mical": 4381,
      "mater": 4382,
      "mile": 4383,
      "muttered": 4384,
      "nut": 4385,
      "nur": 4386,
      "ners": 4387,
      "oil": 4388,
      "pac": 4389,
      "pare": 4390,
      "pack": 4391,
      "pink": 4392,
      "pired": 4393,
      "purely": 4394,
      "ré": 4395,
      "rin": 4396,
      "rab": 4397,
      "ram": 4398,
      "rust": 4399,
      "rack": 4400,
      "rang": 4401,
      "rase": 4402,
      "radi": 4403,
      "sis": 4404,
      "sac": 4405,
      "site": 4406,
      "sical": 4407,
      "ta": 4408,
      "tro": 4409,
      "tun": 4410,
      "ture": 4411,
      "tured": 4412,
      "text": 4413,
      "tale": 4414,
      "tangled": 4415,
      "vor": 4416,
      "vain": 4417,
      "vul": 4418,
      "vage": 4419,
      "vity": 4420,
      "wis": 4421,
      "wake": 4422,
      "”—": 4423,
      "inquest": 4424,
      "informed": 4425,
      "invar": 4426,
      "inconvenience": 4427,
      "erable": 4428,
      "erced": 4429,
      "errand": 4430,
      "oup": 4431,
      "ougham": 4432,
      "ons": 4433,
      "oned": 4434,
      "online": 4435,
      "educ": 4436,
      "editary": 4437,
      "enor": 4438,
      "eness": 4439,
      "isn": 4440,
      "istr": 4441,
      "asy": 4442,
      "ases": 4443,
      "asing": 4444,
      "resent": 4445,
      "recomm": 4446,
      "recover": 4447,
      "repair": 4448,
      "reaction": 4449,
      "respond": 4450,
      "respon": 4451,
      "escort": 4452,
      "inguish": 4453,
      "orn": 4454,
      "arre": 4455,
      "iters": 4456,
      "hable": 4457,
      "llable": 4458,
      "whar": 4459,
      "legged": 4460,
      "level": 4461,
      "stir": 4462,
      "stare": 4463,
      "stage": 4464,
      "stated": 4465,
      "secut": 4466,
      "bee": 4467,
      "beard": 4468,
      "bears": 4469,
      "cher": 4470,
      "choked": 4471,
      "rocket": 4472,
      "royed": 4473,
      "waste": 4474,
      "wire": 4475,
      "wides": 4476,
      "widow": 4477,
      "iding": 4478,
      "novel": 4479,
      "entions": 4480,
      "entering": 4481,
      "rious": 4482,
      "solic": 4483,
      "sooner": 4484,
      "ads": 4485,
      "ading": 4486,
      "ali": 4487,
      "alter": 4488,
      "althy": 4489,
      "forbid": 4490,
      "imbe": 4491,
      "imper": 4492,
      "impl": 4493,
      "imprison": 4494,
      "upward": 4495,
      "cool": 4496,
      "coach": 4497,
      "allusion": 4498,
      "loom": 4499,
      "loop": 4500,
      "loves": 4501,
      "acle": 4502,
      "acious": 4503,
      "active": 4504,
      "liest": 4505,
      "libr": 4506,
      "wet": 4507,
      "webs": 4508,
      "sailing": 4509,
      "savage": 4510,
      "shine": 4511,
      "shold": 4512,
      "shiny": 4513,
      "aband": 4514,
      "abstr": 4515,
      "absor": 4516,
      "absence": 4517,
      "etr": 4518,
      "ource": 4519,
      "aming": 4520,
      "ament": 4521,
      "amped": 4522,
      "suspect": 4523,
      "subtle": 4524,
      "aging": 4525,
      "agency": 4526,
      "posure": 4527,
      "pothesis": 4528,
      "dom": 4529,
      "fees": 4530,
      "feather": 4531,
      "hereditary": 4532,
      "ctive": 4533,
      "indul": 4534,
      "uson": 4535,
      "usive": 4536,
      "uncertain": 4537,
      "unhappy": 4538,
      "unnatural": 4539,
      "unconscious": 4540,
      "unnecessary": 4541,
      "unforeseen": 4542,
      "arest": 4543,
      "moved": 4544,
      "moving": 4545,
      "motive": 4546,
      "peering": 4547,
      "Three": 4548,
      "tire": 4549,
      "tight": 4550,
      "apers": 4551,
      "apiece": 4552,
      "confirm": 4553,
      "consequ": 4554,
      "confined": 4555,
      "tray": 4556,
      "dem": 4557,
      "dece": 4558,
      "deli": 4559,
      "deposit": 4560,
      "devo": 4561,
      "deeper": 4562,
      "develo": 4563,
      "deceased": 4564,
      "yourselves": 4565,
      "quet": 4566,
      "goss": 4567,
      "geon": 4568,
      "exer": 4569,
      "exposure": 4570,
      "seek": 4571,
      "Helen": 4572,
      "perform": 4573,
      "perpet": 4574,
      "perceive": 4575,
      "comb": 4576,
      "pless": 4577,
      "rail": 4578,
      "iff": 4579,
      "preced": 4580,
      "preposter": 4581,
      "ends": 4582,
      "anywhere": 4583,
      "aked": 4584,
      "shag": 4585,
      "shaken": 4586,
      "oped": 4587,
      "oping": 4588,
      "opport": 4589,
      "protest": 4590,
      "produce": 4591,
      "handsome": 4592,
      "forefinger": 4593,
      "vile": 4594,
      "vices": 4595,
      "epend": 4596,
      "lace": 4597,
      "Streath": 4598,
      "overcoat": 4599,
      "aff": 4600,
      "affection": 4601,
      "print": 4602,
      "bru": 4603,
      "bridge": 4604,
      "brougham": 4605,
      "thinks": 4606,
      "asser": 4607,
      "ruef": 4608,
      "rubber": 4609,
      "rubbing": 4610,
      "clang": 4611,
      "clapped": 4612,
      "clerk": 4613,
      "unders": 4614,
      "bland": 4615,
      "bles": 4616,
      "bless": 4617,
      "blunt": 4618,
      "cience": 4619,
      "civil": 4620,
      "backed": 4621,
      "angers": 4622,
      "grant": 4623,
      "group": 4624,
      "themselves": 4625,
      "service": 4626,
      "services": 4627,
      "torn": 4628,
      "jected": 4629,
      "discre": 4630,
      "display": 4631,
      "disclaim": 4632,
      "disappoint": 4633,
      "displaying": 4634,
      "disgrace": 4635,
      "strain": 4636,
      "straint": 4637,
      "fted": 4638,
      "lights": 4639,
      "comput": 4640,
      "compass": 4641,
      "complet": 4642,
      "elastic": 4643,
      "greeting": 4644,
      "nights": 4645,
      "vesend": 4646,
      "ounce": 4647,
      "ached": 4648,
      "newcom": 4649,
      "ullo": 4650,
      "wrinkled": 4651,
      "oting": 4652,
      "stories": 4653,
      "irect": 4654,
      "impul": 4655,
      "anced": 4656,
      "pile": 4657,
      "pierced": 4658,
      "friendly": 4659,
      "scraw": 4660,
      "Inn": 4661,
      "interfere": 4662,
      "dense": 4663,
      "finds": 4664,
      "waved": 4665,
      "hardened": 4666,
      "lton": 4667,
      "crimes": 4668,
      "getic": 4669,
      "desk": 4670,
      "desper": 4671,
      "fling": 4672,
      "answering": 4673,
      "doubtless": 4674,
      "interests": 4675,
      "draught": 4676,
      "central": 4677,
      "atted": 4678,
      "attened": 4679,
      "ashes": 4680,
      "Boots": 4681,
      "atherhead": 4682,
      "sides": 4683,
      "distinguish": 4684,
      "partner": 4685,
      "engagement": 4686,
      "puffing": 4687,
      "survi": 4688,
      "surgeon": 4689,
      "sick": 4690,
      "penc": 4691,
      "tenham": 4692,
      "observer": 4693,
      "observing": 4694,
      "silver": 4695,
      "begun": 4696,
      "landlady": 4697,
      "landau": 4698,
      "policeman": 4699,
      "homely": 4700,
      "contents": 4701,
      "Frisco": 4702,
      "treated": 4703,
      "treasure": 4704,
      "starting": 4705,
      "considered": 4706,
      "guide": 4707,
      "guilt": 4708,
      "horses": 4709,
      "built": 4710,
      "fireplace": 4711,
      "glances": 4712,
      "monot": 4713,
      "hearing": 4714,
      "conditions": 4715,
      "confession": 4716,
      "confeder": 4717,
      "shows": 4718,
      "easier": 4719,
      "copper": 4720,
      "chemical": 4721,
      "threshold": 4722,
      "moments": 4723,
      "highly": 4724,
      "Rucastles": 4725,
      "trifle": 4726,
      "trifling": 4727,
      "personally": 4728,
      "companions": 4729,
      "Hereford": 4730,
      "knife": 4731,
      "sounds": 4732,
      "promises": 4733,
      "directed": 4734,
      "energetic": 4735,
      "returns": 4736,
      "templ": 4737,
      "uttering": 4738,
      "utterly": 4739,
      "Covent": 4740,
      "smoking": 4741,
      "smoked": 4742,
      "arrange": 4743,
      "Bridge": 4744,
      "purposes": 4745,
      "whitewash": 4746,
      "ffed": 4747,
      "footfall": 4748,
      "bars": 4749,
      "visitors": 4750,
      "maiden": 4751,
      "skir": 4752,
      "gale": 4753,
      "gaze": 4754,
      "gaiters": 4755,
      "stern": 4756,
      "trained": 4757,
      "pulling": 4758,
      "roads": 4759,
      "submitted": 4760,
      "India": 4761,
      "boxes": 4762,
      "brimmed": 4763,
      "garments": 4764,
      "gravel": 4765,
      "searched": 4766,
      "receipt": 4767,
      "safely": 4768,
      "deductions": 4769,
      "ENBER": 4770,
      "hypothesis": 4771,
      "join": 4772,
      "collect": 4773,
      "flush": 4774,
      "flushed": 4775,
      "dram": 4776,
      "twist": 4777,
      "twinkled": 4778,
      "cellent": 4779,
      "sharply": 4780,
      "figures": 4781,
      "cupboard": 4782,
      "miserable": 4783,
      "postmark": 4784,
      "violin": 4785,
      "distributed": 4786,
      "Major": 4787,
      "Post": 4788,
      "snar": 4789,
      "boards": 4790,
      "Leatherhead": 4791,
      "generations": 4792,
      "included": 4793,
      "stein": 4794,
      "steel": 4795,
      "troubles": 4796,
      "describe": 4797,
      "confessed": 4798,
      "pitiable": 4799,
      "wander": 4800,
      "wandered": 4801,
      "zzle": 4802,
      "occasional": 4803,
      "neighbours": 4804,
      "mistress": 4805,
      "richer": 4806,
      "accord": 4807,
      "accused": 4808,
      "crum": 4809,
      "swung": 4810,
      "choose": 4811,
      "convul": 4812,
      "extended": 4813,
      "paragraphs": 4814,
      "destroyed": 4815,
      "associate": 4816,
      "typewriting": 4817,
      "approaching": 4818,
      "Absolute": 4819,
      "phrase": 4820,
      "resist": 4821,
      "expensive": 4822,
      "Bohemian": 4823,
      "beautifully": 4824,
      "ANY": 4825,
      "borne": 4826,
      "stained": 4827,
      "introspect": 4828,
      "introduce": 4829,
      "equal": 4830,
      "flew": 4831,
      "largest": 4832,
      "disturbed": 4833,
      "hurrying": 4834,
      "Excellent": 4835,
      "Really": 4836,
      "crossed": 4837,
      "eagerly": 4838,
      "fatal": 4839,
      "hoped": 4840,
      "risk": 4841,
      "risen": 4842,
      "staying": 4843,
      "begging": 4844,
      "sombre": 4845,
      "occupation": 4846,
      "occupant": 4847,
      "criminals": 4848,
      "admirably": 4849,
      "communication": 4850,
      "crowded": 4851,
      "judge": 4852,
      "linen": 4853,
      "links": 4854,
      "rattle": 4855,
      "accepted": 4856,
      "compliment": 4857,
      "protect": 4858,
      "drunken": 4859,
      "consciousness": 4860,
      "recognise": 4861,
      "commissionaire": 4862,
      "Morcar": 4863,
      "inferences": 4864,
      "article": 4865,
      "articles": 4866,
      "govern": 4867,
      "newspapers": 4868,
      "formerly": 4869,
      "***": 4870,
      "Califor": 4871,
      "March": 4872,
      "lids": 4873,
      "splash": 4874,
      "tinent": 4875,
      "warmly": 4876,
      "exceptional": 4877,
      "succeeded": 4878,
      "skylight": 4879,
      "disturbance": 4880,
      "knock": 4881,
      "labour": 4882,
      "matches": 4883,
      "invest": 4884,
      "animal": 4885,
      "separate": 4886,
      "nodded": 4887,
      "forgotten": 4888,
      "logical": 4889,
      "delighted": 4890,
      "debts": 4891,
      "teeth": 4892,
      "principal": 4893,
      "clutched": 4894,
      "grateful": 4895,
      "control": 4896,
      "guinea": 4897,
      "British": 4898,
      "volunteers": 4899,
      "ejaculated": 4900,
      "Between": 4901,
      "DEAR": 4902,
      "Under": 4903,
      "Wednes": 4904,
      "hideous": 4905,
      "increased": 4906,
      "charming": 4907,
      "liberty": 4908,
      "apartment": 4909,
      "mentioned": 4910,
      "beryls": 4911,
      "flesh": 4912,
      "solemnly": 4913,
      "requirements": 4914,
      "analysis": 4915,
      "devoted": 4916,
      "Balmoral": 4917,
      "Finally": 4918,
      "Gravesend": 4919,
      "JECT": 4920,
      "PROJECT": 4921,
      "Tottenham": 4922,
      "bulky": 4923,
      "false": 4924,
      "joking": 4925,
      "tongue": 4926,
      "outhern": 4927,
      "regretted": 4928,
      "congratulate": 4929,
      "perplex": 4930,
      "platform": 4931,
      "plenty": 4932,
      "plantation": 4933,
      "cigarette": 4934,
      "wheeler": 4935,
      "smooth": 4936,
      "colleague": 4937,
      "elderly": 4938,
      "tradesmen": 4939,
      "Avenue": 4940,
      "Beyond": 4941,
      "Berkshire": 4942,
      "Crown": 4943,
      "Ferguson": 4944,
      "General": 4945,
      "GUTENBER": 4946,
      "Hudson": 4947,
      "Hampshire": 4948,
      "January": 4949,
      "Moulton": 4950,
      "Oxford": 4951,
      "RLOCK": 4952,
      "SHERLOCK": 4953,
      "Temple": 4954,
      "WARRAN": 4955,
      "basket": 4956,
      "baboon": 4957,
      "bizarre": 4958,
      "dishon": 4959,
      "dignity": 4960,
      "eccentric": 4961,
      "gigantic": 4962,
      "material": 4963,
      "sacri": 4964,
      "enormous": 4965,
      "widespread": 4966,
      "website": 4967,
      "abstracted": 4968,
      "preposterous": 4969,
      "Streatham": 4970,
      "completed": 4971,
      "whitewashed": 4972,
      "Californ": 4973,
      "Wednesday": 4974,
      "GUTENBERG": 4975,
      "14": 4976,
      "27": 4977,
      "200": 4978,
      "3r": 4979,
      "60": 4980,
      "69": 4981,
      "6_d_": 4982,
      "84": 4983,
      "85": 4984,
      "9th": 4985,
      "AB": 4986,
      "AM": 4987,
      "Again": 4988,
      "Back": 4989,
      "BUT": 4990,
      "CE": 4991,
      "Ced": 4992,
      "Cus": 4993,
      "Crow": 4994,
      "Chur": 4995,
      "Cross": 4996,
      "Des": 4997,
      "DAM": 4998,
      "EM": 4999
    },
    "merges": [
      [
        "t",
        "h"
      ],
      [
        "i",
        "n"
      ],
      [
        "e",
        "r"
      ],
      [
        "a",
        "n"
      ],
      [
        "th",
        "e"
      ],
      [
        "o",
        "u"
      ],
      [
        "a",
        "t"
      ],
      [
        "o",
        "n"
      ],
      [
        "e",
        "d"
      ],
      [
        "e",
        "n"
      ],
      [
        "i",
        "s"
      ],
      [
        "a",
        "s"
      ],
      [
        "t",
        "o"
      ],
      [
        "r",
        "e"
      ],
      [
        "an",
        "d"
      ],
      [
        "o",
        "f"
      ],
      [
        "e",
        "s"
      ],
      [
        "in",
        "g"
      ],
      [
        "o",
        "r"
      ],
      [
        "a",
        "r"
      ],
      [
        "i",
        "t"
      ],
      [
        "h",
        "e"
      ],
      [
        "h",
        "a"
      ],
      [
        "l",
        "l"
      ],
      [
        "w",
        "h"
      ],
      [
        "l",
        "e"
      ],
      [
        "m",
        "e"
      ],
      [
        "s",
        "t"
      ],
      [
        "s",
        "e"
      ],
      [
        "y",
        "ou"
      ],
      [
        "b",
        "e"
      ],
      [
        "o",
        "w"
      ],
      [
        "c",
        "h"
      ],
      [
        "v",
        "e"
      ],
      [
        "th",
        "at"
      ],
      [
        "r",
        "o"
      ],
      [
        "w",
        "as"
      ],
      [
        "w",
        "i"
      ],
      [
        "i",
        "d"
      ],
      [
        "l",
        "y"
      ],
      [
        "n",
        "o"
      ],
      [
        "l",
        "d"
      ],
      [
        "c",
        "e"
      ],
      [
        "v",
        "er"
      ],
      [
        "g",
        "h"
      ],
      [
        "er",
        "e"
      ],
      [
        "u",
        "t"
      ],
      [
        "h",
        "is"
      ],
      [
        ".",
        "”"
      ],
      [
        "en",
        "t"
      ],
      [
        "a",
        "y"
      ],
      [
        "r",
        "i"
      ],
      [
        "s",
        "o"
      ],
      [
        "a",
        "d"
      ],
      [
        "m",
        "y"
      ],
      [
        "a",
        "l"
      ],
      [
        "f",
        "or"
      ],
      [
        "wi",
        "th"
      ],
      [
        "i",
        "on"
      ],
      [
        "i",
        "m"
      ],
      [
        "t",
        "er"
      ],
      [
        "ha",
        "ve"
      ],
      [
        "u",
        "p"
      ],
      [
        "c",
        "o"
      ],
      [
        "a",
        "ll"
      ],
      [
        "ou",
        "ld"
      ],
      [
        "ha",
        "d"
      ],
      [
        "wh",
        "i"
      ],
      [
        "l",
        "o"
      ],
      [
        "gh",
        "t"
      ],
      [
        "a",
        "c"
      ],
      [
        "l",
        "i"
      ],
      [
        "i",
        "r"
      ],
      [
        "w",
        "e"
      ],
      [
        "s",
        "a"
      ],
      [
        "no",
        "t"
      ],
      [
        "whi",
        "ch"
      ],
      [
        "u",
        "r"
      ],
      [
        "n",
        "d"
      ],
      [
        "on",
        "e"
      ],
      [
        "s",
        "h"
      ],
      [
        "th",
        "er"
      ],
      [
        "a",
        "b"
      ],
      [
        "ou",
        "t"
      ],
      [
        "e",
        "t"
      ],
      [
        "m",
        "an"
      ],
      [
        "o",
        "l"
      ],
      [
        "ou",
        "r"
      ],
      [
        "a",
        "m"
      ],
      [
        "s",
        "u"
      ],
      [
        "a",
        "g"
      ],
      [
        "ro",
        "m"
      ],
      [
        "p",
        "o"
      ],
      [
        "d",
        "o"
      ],
      [
        "f",
        "e"
      ],
      [
        "h",
        "er"
      ],
      [
        "k",
        "e"
      ],
      [
        "n",
        "e"
      ],
      [
        "c",
        "t"
      ],
      [
        "b",
        "ut"
      ],
      [
        "?",
        "”"
      ],
      [
        "in",
        "d"
      ],
      [
        "a",
        "in"
      ],
      [
        "h",
        "im"
      ],
      [
        "m",
        "es"
      ],
      [
        "u",
        "s"
      ],
      [
        "u",
        "n"
      ],
      [
        "f",
        "rom"
      ],
      [
        "sa",
        "id"
      ],
      [
        "c",
        "k"
      ],
      [
        "ver",
        "y"
      ],
      [
        "a",
        "re"
      ],
      [
        "m",
        "o"
      ],
      [
        ",",
        "”"
      ],
      [
        "p",
        "e"
      ],
      [
        "T",
        "h"
      ],
      [
        "up",
        "on"
      ],
      [
        "t",
        "i"
      ],
      [
        "H",
        "ol"
      ],
      [
        "Hol",
        "mes"
      ],
      [
        "a",
        "p"
      ],
      [
        "es",
        "s"
      ],
      [
        "c",
        "on"
      ],
      [
        "I",
        "t"
      ],
      [
        "ow",
        "n"
      ],
      [
        "th",
        "is"
      ],
      [
        "t",
        "r"
      ],
      [
        "d",
        "e"
      ],
      [
        "ar",
        "d"
      ],
      [
        "you",
        "r"
      ],
      [
        "T",
        "he"
      ],
      [
        "q",
        "u"
      ],
      [
        "g",
        "o"
      ],
      [
        "be",
        "en"
      ],
      [
        "g",
        "e"
      ],
      [
        "n",
        "ow"
      ],
      [
        "u",
        "st"
      ],
      [
        "e",
        "x"
      ],
      [
        "s",
        "s"
      ],
      [
        "es",
        "t"
      ],
      [
        "o",
        "d"
      ],
      [
        "b",
        "y"
      ],
      [
        "wh",
        "o"
      ],
      [
        "se",
        "e"
      ],
      [
        "it",
        "t"
      ],
      [
        "s",
        "he"
      ],
      [
        "th",
        "ere"
      ],
      [
        "f",
        "o"
      ],
      [
        "ou",
        "nd"
      ],
      [
        "i",
        "l"
      ],
      [
        "o",
        "k"
      ],
      [
        "w",
        "ere"
      ],
      [
        "i",
        "ght"
      ],
      [
        "th",
        "ing"
      ],
      [
        "so",
        "me"
      ],
      [
        "H",
        "e"
      ],
      [
        "w",
        "ould"
      ],
      [
        "f",
        "a"
      ],
      [
        "p",
        "er"
      ],
      [
        "w",
        "ay"
      ],
      [
        "co",
        "m"
      ],
      [
        "M",
        "r"
      ],
      [
        "f",
        "i"
      ],
      [
        "p",
        "l"
      ],
      [
        "as",
        "t"
      ],
      [
        "l",
        "f"
      ],
      [
        "at",
        "e"
      ],
      [
        "c",
        "a"
      ],
      [
        "w",
        "o"
      ],
      [
        "w",
        "or"
      ],
      [
        "Y",
        "ou"
      ],
      [
        "at",
        "ion"
      ],
      [
        "h",
        "as"
      ],
      [
        "c",
        "ould"
      ],
      [
        "wh",
        "at"
      ],
      [
        "ac",
        "k"
      ],
      [
        "o",
        "m"
      ],
      [
        "r",
        "a"
      ],
      [
        "W",
        "h"
      ],
      [
        "in",
        "to"
      ],
      [
        "t",
        "e"
      ],
      [
        "wh",
        "en"
      ],
      [
        "i",
        "f"
      ],
      [
        "p",
        "re"
      ],
      [
        "u",
        "l"
      ],
      [
        "en",
        "d"
      ],
      [
        "wi",
        "ll"
      ],
      [
        "c",
        "an"
      ],
      [
        "l",
        "itt"
      ],
      [
        "an",
        "y"
      ],
      [
        "litt",
        "le"
      ],
      [
        "id",
        "e"
      ],
      [
        "“",
        "‘"
      ],
      [
        "ab",
        "le"
      ],
      [
        "ou",
        "s"
      ],
      [
        "is",
        "t"
      ],
      [
        "a",
        "k"
      ],
      [
        "ar",
        "k"
      ],
      [
        "s",
        "ha"
      ],
      [
        "ou",
        "gh"
      ],
      [
        "in",
        "k"
      ],
      [
        "an",
        "t"
      ],
      [
        "o",
        "p"
      ],
      [
        "d",
        "own"
      ],
      [
        "on",
        "g"
      ],
      [
        "sh",
        "ould"
      ],
      [
        "v",
        "en"
      ],
      [
        "the",
        "n"
      ],
      [
        "ur",
        "n"
      ],
      [
        "m",
        "ent"
      ],
      [
        "p",
        "ro"
      ],
      [
        "se",
        "lf"
      ],
      [
        "ro",
        "om"
      ],
      [
        "h",
        "and"
      ],
      [
        "b",
        "er"
      ],
      [
        "o",
        "ther"
      ],
      [
        "fo",
        "re"
      ],
      [
        "u",
        "re"
      ],
      [
        "W",
        "e"
      ],
      [
        "v",
        "i"
      ],
      [
        "e",
        "p"
      ],
      [
        "s",
        "on"
      ],
      [
        "l",
        "a"
      ],
      [
        "S",
        "t"
      ],
      [
        "h",
        "o"
      ],
      [
        "b",
        "le"
      ],
      [
        "o",
        "ver"
      ],
      [
        "m",
        "ay"
      ],
      [
        "a",
        "f"
      ],
      [
        "h",
        "ow"
      ],
      [
        "i",
        "c"
      ],
      [
        "A",
        "nd"
      ],
      [
        "k",
        "now"
      ],
      [
        "e",
        "ver"
      ],
      [
        "it",
        "e"
      ],
      [
        "i",
        "ve"
      ],
      [
        "g",
        "l"
      ],
      [
        "d",
        "ay"
      ],
      [
        "en",
        "ce"
      ],
      [
        "is",
        "h"
      ],
      [
        "p",
        "r"
      ],
      [
        "r",
        "y"
      ],
      [
        "er",
        "s"
      ],
      [
        "b",
        "r"
      ],
      [
        "in",
        "e"
      ],
      [
        "lo",
        "ck"
      ],
      [
        "b",
        "o"
      ],
      [
        "ar",
        "t"
      ],
      [
        "th",
        "ink"
      ],
      [
        "at",
        "ter"
      ],
      [
        "as",
        "s"
      ],
      [
        "lo",
        "ok"
      ],
      [
        "B",
        "ut"
      ],
      [
        "an",
        "ce"
      ],
      [
        "r",
        "u"
      ],
      [
        "ad",
        "e"
      ],
      [
        "in",
        "t"
      ],
      [
        "a",
        "ke"
      ],
      [
        ".",
        "’"
      ],
      [
        "Th",
        "ere"
      ],
      [
        "ca",
        "me"
      ],
      [
        "c",
        "l"
      ],
      [
        "e",
        "ar"
      ],
      [
        "mo",
        "re"
      ],
      [
        "i",
        "ll"
      ],
      [
        "m",
        "ust"
      ],
      [
        "ri",
        "ed"
      ],
      [
        "th",
        "an"
      ],
      [
        "t",
        "urn"
      ],
      [
        "sha",
        "ll"
      ],
      [
        "ri",
        "ght"
      ],
      [
        "ab",
        "out"
      ],
      [
        "c",
        "as"
      ],
      [
        "e",
        "ct"
      ],
      [
        "m",
        "ark"
      ],
      [
        "be",
        "fore"
      ],
      [
        "co",
        "me"
      ],
      [
        "u",
        "m"
      ],
      [
        "u",
        "nd"
      ],
      [
        "b",
        "l"
      ],
      [
        "n",
        "ing"
      ],
      [
        "c",
        "i"
      ],
      [
        "ad",
        "y"
      ],
      [
        "all",
        "y"
      ],
      [
        "on",
        "ly"
      ],
      [
        "ti",
        "me"
      ],
      [
        "do",
        "or"
      ],
      [
        "b",
        "ack"
      ],
      [
        "v",
        "ed"
      ],
      [
        "an",
        "g"
      ],
      [
        "g",
        "r"
      ],
      [
        "ou",
        "ght"
      ],
      [
        "ac",
        "t"
      ],
      [
        "d",
        "id"
      ],
      [
        "s",
        "m"
      ],
      [
        "the",
        "m"
      ],
      [
        "d",
        "re"
      ],
      [
        "o",
        "b"
      ],
      [
        "is",
        "s"
      ],
      [
        "a",
        "ve"
      ],
      [
        "m",
        "ed"
      ],
      [
        "er",
        "ed"
      ],
      [
        "m",
        "or"
      ],
      [
        "as",
        "k"
      ],
      [
        "or",
        "d"
      ],
      [
        "c",
        "le"
      ],
      [
        "is",
        "e"
      ],
      [
        "m",
        "atter"
      ],
      [
        "s",
        "er"
      ],
      [
        "the",
        "y"
      ],
      [
        "l",
        "ed"
      ],
      [
        "s",
        "ide"
      ],
      [
        "u",
        "e"
      ],
      [
        "to",
        "r"
      ],
      [
        "t",
        "wo"
      ],
      [
        "th",
        "r"
      ],
      [
        "or",
        "t"
      ],
      [
        "wor",
        "k"
      ],
      [
        "ou",
        "se"
      ],
      [
        "re",
        "e"
      ],
      [
        "j",
        "ect"
      ],
      [
        "d",
        "is"
      ],
      [
        "en",
        "ed"
      ],
      [
        "ar",
        "y"
      ],
      [
        "N",
        "o"
      ],
      [
        "Th",
        "en"
      ],
      [
        "st",
        "r"
      ],
      [
        "v",
        "ing"
      ],
      [
        "!",
        "”"
      ],
      [
        "f",
        "t"
      ],
      [
        "li",
        "ght"
      ],
      [
        "e",
        "y"
      ],
      [
        "m",
        "u"
      ],
      [
        "li",
        "ke"
      ],
      [
        "fa",
        "ce"
      ],
      [
        "com",
        "p"
      ],
      [
        "e",
        "l"
      ],
      [
        "g",
        "re"
      ],
      [
        "h",
        "ouse"
      ],
      [
        "n",
        "ight"
      ],
      [
        "ag",
        "e"
      ],
      [
        "r",
        "ed"
      ],
      [
        "u",
        "se"
      ],
      [
        "an",
        "s"
      ],
      [
        "ha",
        "ir"
      ],
      [
        "af",
        "ter"
      ],
      [
        "v",
        "es"
      ],
      [
        "it",
        "y"
      ],
      [
        "ou",
        "n"
      ],
      [
        "go",
        "od"
      ],
      [
        "a",
        "ch"
      ],
      [
        "p",
        "t"
      ],
      [
        "ne",
        "w"
      ],
      [
        "j",
        "ust"
      ],
      [
        "p",
        "s"
      ],
      [
        "u",
        "ll"
      ],
      [
        "wh",
        "ere"
      ],
      [
        "m",
        "ight"
      ],
      [
        "s",
        "ay"
      ],
      [
        "w",
        "ind"
      ],
      [
        "mu",
        "ch"
      ],
      [
        "an",
        "k"
      ],
      [
        "le",
        "t"
      ],
      [
        "ag",
        "ain"
      ],
      [
        "i",
        "g"
      ],
      [
        "s",
        "pe"
      ],
      [
        "mo",
        "st"
      ],
      [
        "Wh",
        "at"
      ],
      [
        "f",
        "ound"
      ],
      [
        "t",
        "ain"
      ],
      [
        "w",
        "r"
      ],
      [
        "it",
        "s"
      ],
      [
        "we",
        "ll"
      ],
      [
        "p",
        "p"
      ],
      [
        "s",
        "p"
      ],
      [
        "cas",
        "e"
      ],
      [
        "c",
        "ar"
      ],
      [
        "he",
        "ad"
      ],
      [
        "o",
        "se"
      ],
      [
        "he",
        "ard"
      ],
      [
        "ll",
        "ow"
      ],
      [
        "su",
        "ch"
      ],
      [
        "l",
        "ong"
      ],
      [
        "n",
        "er"
      ],
      [
        "o",
        "t"
      ],
      [
        "on",
        "d"
      ],
      [
        "re",
        "et"
      ],
      [
        "be",
        "t"
      ],
      [
        "a",
        "way"
      ],
      [
        "m",
        "ade"
      ],
      [
        "s",
        "to"
      ],
      [
        "f",
        "ir"
      ],
      [
        "w",
        "ard"
      ],
      [
        "c",
        "or"
      ],
      [
        "l",
        "ess"
      ],
      [
        "t",
        "y"
      ],
      [
        "te",
        "ll"
      ],
      [
        "e",
        "ven"
      ],
      [
        "h",
        "ere"
      ],
      [
        "i",
        "re"
      ],
      [
        "o",
        "ld"
      ],
      [
        "re",
        "mark"
      ],
      [
        ",",
        "’"
      ],
      [
        "m",
        "in"
      ],
      [
        "im",
        "p"
      ],
      [
        "fa",
        "ther"
      ],
      [
        "Y",
        "es"
      ],
      [
        "e",
        "very"
      ],
      [
        "p",
        "a"
      ],
      [
        "po",
        "int"
      ],
      [
        "We",
        "ll"
      ],
      [
        "an",
        "c"
      ],
      [
        "und",
        "er"
      ],
      [
        "at",
        "ed"
      ],
      [
        "Th",
        "at"
      ],
      [
        "mor",
        "ning"
      ],
      [
        "c",
        "lo"
      ],
      [
        "m",
        "s"
      ],
      [
        "p",
        "i"
      ],
      [
        "dre",
        "ss"
      ],
      [
        "b",
        "t"
      ],
      [
        "f",
        "ri"
      ],
      [
        "al",
        "k"
      ],
      [
        "M",
        "y"
      ],
      [
        "how",
        "ever"
      ],
      [
        "wind",
        "ow"
      ],
      [
        "fri",
        "end"
      ],
      [
        "S",
        "her"
      ],
      [
        "Sher",
        "lock"
      ],
      [
        "S",
        "he"
      ],
      [
        "s",
        "c"
      ],
      [
        "the",
        "ir"
      ],
      [
        "po",
        "ss"
      ],
      [
        "I",
        "n"
      ],
      [
        "b",
        "ed"
      ],
      [
        "y",
        "ear"
      ],
      [
        "in",
        "ter"
      ],
      [
        "of",
        "f"
      ],
      [
        "ut",
        "en"
      ],
      [
        "ne",
        "ver"
      ],
      [
        "d",
        "ou"
      ],
      [
        "d",
        "en"
      ],
      [
        "w",
        "ent"
      ],
      [
        "ber",
        "g"
      ],
      [
        "uten",
        "berg"
      ],
      [
        "f",
        "ind"
      ],
      [
        "l",
        "ast"
      ],
      [
        "o",
        "c"
      ],
      [
        "r",
        "on"
      ],
      [
        "v",
        "ent"
      ],
      [
        "sa",
        "w"
      ],
      [
        "ap",
        "pe"
      ],
      [
        "p",
        "ap"
      ],
      [
        "st",
        "and"
      ],
      [
        "thr",
        "ough"
      ],
      [
        "P",
        "ro"
      ],
      [
        "n",
        "ess"
      ],
      [
        "le",
        "ft"
      ],
      [
        "no",
        "thing"
      ],
      [
        "appe",
        "ar"
      ],
      [
        "W",
        "at"
      ],
      [
        "a",
        "ce"
      ],
      [
        "w",
        "a"
      ],
      [
        "qu",
        "ite"
      ],
      [
        "O",
        "h"
      ],
      [
        "u",
        "d"
      ],
      [
        "th",
        "ought"
      ],
      [
        "to",
        "ok"
      ],
      [
        "so",
        "l"
      ],
      [
        "ask",
        "ed"
      ],
      [
        "wor",
        "d"
      ],
      [
        "I",
        "f"
      ],
      [
        "e",
        "f"
      ],
      [
        "i",
        "ble"
      ],
      [
        "n",
        "g"
      ],
      [
        "p",
        "ut"
      ],
      [
        "st",
        "ep"
      ],
      [
        "turn",
        "ed"
      ],
      [
        "ey",
        "es"
      ],
      [
        "?",
        "’"
      ],
      [
        "T",
        "his"
      ],
      [
        "c",
        "er"
      ],
      [
        "cle",
        "ar"
      ],
      [
        "fir",
        "st"
      ],
      [
        "G",
        "utenberg"
      ],
      [
        "b",
        "re"
      ],
      [
        "c",
        "all"
      ],
      [
        "h",
        "ard"
      ],
      [
        "r",
        "ound"
      ],
      [
        "in",
        "ess"
      ],
      [
        "Pro",
        "ject"
      ],
      [
        "b",
        "us"
      ],
      [
        "i",
        "es"
      ],
      [
        "l",
        "t"
      ],
      [
        "s",
        "ent"
      ],
      [
        "on",
        "ce"
      ],
      [
        "you",
        "ng"
      ],
      [
        "li",
        "c"
      ],
      [
        "sm",
        "all"
      ],
      [
        "c",
        "ri"
      ],
      [
        "c",
        "hair"
      ],
      [
        "g",
        "et"
      ],
      [
        "p",
        "ass"
      ],
      [
        "to",
        "o"
      ],
      [
        "qu",
        "i"
      ],
      [
        "A",
        "s"
      ],
      [
        "M",
        "iss"
      ],
      [
        "ion",
        "s"
      ],
      [
        "our",
        "se"
      ],
      [
        "com",
        "m"
      ],
      [
        "Wat",
        "son"
      ],
      [
        "ar",
        "m"
      ],
      [
        "c",
        "oun"
      ],
      [
        "d",
        "es"
      ],
      [
        "p",
        "ar"
      ],
      [
        "t",
        "ake"
      ],
      [
        "u",
        "gh"
      ],
      [
        "in",
        "st"
      ],
      [
        "an",
        "ge"
      ],
      [
        "se",
        "en"
      ],
      [
        "with",
        "out"
      ],
      [
        "fe",
        "w"
      ],
      [
        "op",
        "en"
      ],
      [
        "l",
        "ady"
      ],
      [
        "f",
        "l"
      ],
      [
        "f",
        "ul"
      ],
      [
        "p",
        "le"
      ],
      [
        "my",
        "self"
      ],
      [
        "ans",
        "w"
      ],
      [
        "ig",
        "n"
      ],
      [
        "c",
        "re"
      ],
      [
        "c",
        "ur"
      ],
      [
        "g",
        "g"
      ],
      [
        "m",
        "ake"
      ],
      [
        "y",
        "et"
      ],
      [
        "se",
        "t"
      ],
      [
        "dou",
        "bt"
      ],
      [
        "a",
        "me"
      ],
      [
        "s",
        "it"
      ],
      [
        "ti",
        "l"
      ],
      [
        "inter",
        "est"
      ],
      [
        "bus",
        "iness"
      ],
      [
        "d",
        "ra"
      ],
      [
        "for",
        "m"
      ],
      [
        "un",
        "til"
      ],
      [
        "ti",
        "c"
      ],
      [
        "wo",
        "man"
      ],
      [
        "the",
        "se"
      ],
      [
        "him",
        "self"
      ],
      [
        "pl",
        "ace"
      ],
      [
        "hand",
        "s"
      ],
      [
        "g",
        "ent"
      ],
      [
        "th",
        "ough"
      ],
      [
        "re",
        "ady"
      ],
      [
        "s",
        "at"
      ],
      [
        "s",
        "ing"
      ],
      [
        "st",
        "ill"
      ],
      [
        "li",
        "ce"
      ],
      [
        "qu",
        "est"
      ],
      [
        "way",
        "s"
      ],
      [
        "pre",
        "ss"
      ],
      [
        "wa",
        "it"
      ],
      [
        "i",
        "ly"
      ],
      [
        "i",
        "gh"
      ],
      [
        "m",
        "en"
      ],
      [
        "m",
        "ar"
      ],
      [
        "w",
        "n"
      ],
      [
        "he",
        "l"
      ],
      [
        "a",
        "ir"
      ],
      [
        "f",
        "er"
      ],
      [
        "v",
        "is"
      ],
      [
        "er",
        "y"
      ],
      [
        "for",
        "t"
      ],
      [
        "su",
        "re"
      ],
      [
        "see",
        "med"
      ],
      [
        "gre",
        "at"
      ],
      [
        "c",
        "ent"
      ],
      [
        "c",
        "ried"
      ],
      [
        "e",
        "k"
      ],
      [
        "at",
        "t"
      ],
      [
        "as",
        "h"
      ],
      [
        "ct",
        "ion"
      ],
      [
        "B",
        "o"
      ],
      [
        "a",
        "ther"
      ],
      [
        "e",
        "m"
      ],
      [
        "f",
        "ar"
      ],
      [
        "s",
        "id"
      ],
      [
        "s",
        "ir"
      ],
      [
        "th",
        "ree"
      ],
      [
        "at",
        "ure"
      ],
      [
        "us",
        "ed"
      ],
      [
        "a",
        "th"
      ],
      [
        "d",
        "one"
      ],
      [
        "d",
        "ist"
      ],
      [
        "f",
        "ull"
      ],
      [
        "as",
        "on"
      ],
      [
        "year",
        "s"
      ],
      [
        "N",
        "ow"
      ],
      [
        "f",
        "act"
      ],
      [
        "g",
        "i"
      ],
      [
        "p",
        "art"
      ],
      [
        "r",
        "ow"
      ],
      [
        "u",
        "c"
      ],
      [
        "whi",
        "le"
      ],
      [
        "w",
        "ish"
      ],
      [
        "some",
        "thing"
      ],
      [
        "remark",
        "ed"
      ],
      [
        "poss",
        "ible"
      ],
      [
        "cer",
        "tain"
      ],
      [
        "l",
        "ay"
      ],
      [
        "ha",
        "ps"
      ],
      [
        "me",
        "t"
      ],
      [
        "ut",
        "e"
      ],
      [
        "co",
        "l"
      ],
      [
        "ra",
        "ther"
      ],
      [
        "b",
        "ro"
      ],
      [
        "e",
        "ed"
      ],
      [
        "l",
        "ow"
      ],
      [
        "m",
        "ind"
      ],
      [
        "n",
        "ame"
      ],
      [
        "tr",
        "y"
      ],
      [
        "a",
        "v"
      ],
      [
        "c",
        "ess"
      ],
      [
        "c",
        "ourse"
      ],
      [
        "m",
        "ber"
      ],
      [
        "w",
        "alk"
      ],
      [
        "th",
        "ose"
      ],
      [
        "en",
        "g"
      ],
      [
        "ha",
        "lf"
      ],
      [
        "go",
        "t"
      ],
      [
        "St",
        "reet"
      ],
      [
        "R",
        "o"
      ],
      [
        "S",
        "o"
      ],
      [
        "g",
        "ive"
      ],
      [
        "p",
        "u"
      ],
      [
        "p",
        "ed"
      ],
      [
        "s",
        "ur"
      ],
      [
        "ar",
        "ge"
      ],
      [
        "wi",
        "fe"
      ],
      [
        "we",
        "en"
      ],
      [
        "ul",
        "ar"
      ],
      [
        "d",
        "ro"
      ],
      [
        "s",
        "i"
      ],
      [
        "v",
        "id"
      ],
      [
        "sh",
        "ed"
      ],
      [
        "fe",
        "ct"
      ],
      [
        "p",
        "en"
      ],
      [
        "t",
        "en"
      ],
      [
        "en",
        "ough"
      ],
      [
        "ha",
        "ving"
      ],
      [
        "fo",
        "llow"
      ],
      [
        "gent",
        "le"
      ],
      [
        "k",
        "new"
      ],
      [
        "w",
        "he"
      ],
      [
        "re",
        "ad"
      ],
      [
        "re",
        "ason"
      ],
      [
        "al",
        "ways"
      ],
      [
        "The",
        "y"
      ],
      [
        "Wh",
        "en"
      ],
      [
        "ob",
        "ser"
      ],
      [
        "let",
        "ter"
      ],
      [
        "H",
        "is"
      ],
      [
        "d",
        "er"
      ],
      [
        "d",
        "ark"
      ],
      [
        "s",
        "il"
      ],
      [
        "ha",
        "pp"
      ],
      [
        "be",
        "g"
      ],
      [
        "sa",
        "me"
      ],
      [
        "bet",
        "ween"
      ],
      [
        "answ",
        "ered"
      ],
      [
        "d",
        "den"
      ],
      [
        "h",
        "ur"
      ],
      [
        "h",
        "our"
      ],
      [
        "l",
        "and"
      ],
      [
        "t",
        "ak"
      ],
      [
        "th",
        "y"
      ],
      [
        "ing",
        "s"
      ],
      [
        "po",
        "lice"
      ],
      [
        "tr",
        "ade"
      ],
      [
        "can",
        "not"
      ],
      [
        "ho",
        "me"
      ],
      [
        "H",
        "ow"
      ],
      [
        "f",
        "in"
      ],
      [
        "i",
        "ous"
      ],
      [
        "s",
        "in"
      ],
      [
        "ro",
        "ss"
      ],
      [
        "pl",
        "ain"
      ],
      [
        "O",
        "n"
      ],
      [
        "i",
        "ce"
      ],
      [
        "on",
        "er"
      ],
      [
        "is",
        "ter"
      ],
      [
        "al",
        "so"
      ],
      [
        "su",
        "dden"
      ],
      [
        "con",
        "t"
      ],
      [
        "look",
        "ing"
      ],
      [
        "again",
        "st"
      ],
      [
        "T",
        "o"
      ],
      [
        "b",
        "ank"
      ],
      [
        "c",
        "tor"
      ],
      [
        "f",
        "ron"
      ],
      [
        "h",
        "ind"
      ],
      [
        "i",
        "ther"
      ],
      [
        "is",
        "ed"
      ],
      [
        "ex",
        "am"
      ],
      [
        "bl",
        "ack"
      ],
      [
        "fron",
        "t"
      ],
      [
        "F",
        "r"
      ],
      [
        "a",
        "il"
      ],
      [
        "c",
        "u"
      ],
      [
        "h",
        "at"
      ],
      [
        "t",
        "re"
      ],
      [
        "t",
        "able"
      ],
      [
        "en",
        "e"
      ],
      [
        "to",
        "ld"
      ],
      [
        "st",
        "art"
      ],
      [
        "ch",
        "ed"
      ],
      [
        "ac",
        "ed"
      ],
      [
        "li",
        "e"
      ],
      [
        "ap",
        "h"
      ],
      [
        "con",
        "sid"
      ],
      [
        "de",
        "ar"
      ],
      [
        "any",
        "thing"
      ],
      [
        "look",
        "ed"
      ],
      [
        "under",
        "stand"
      ],
      [
        "hel",
        "p"
      ],
      [
        "g",
        "u"
      ],
      [
        "h",
        "or"
      ],
      [
        "s",
        "po"
      ],
      [
        "of",
        "fi"
      ],
      [
        "li",
        "fe"
      ],
      [
        "la",
        "ugh"
      ],
      [
        "br",
        "ought"
      ],
      [
        "hard",
        "ly"
      ],
      [
        "b",
        "u"
      ],
      [
        "m",
        "ain"
      ],
      [
        "be",
        "hind"
      ],
      [
        "ri",
        "age"
      ],
      [
        "with",
        "in"
      ],
      [
        "one",
        "y"
      ],
      [
        "fi",
        "re"
      ],
      [
        "pre",
        "sent"
      ],
      [
        "gl",
        "anc"
      ],
      [
        "bet",
        "ter"
      ],
      [
        "bre",
        "ak"
      ],
      [
        "A",
        "r"
      ],
      [
        "d",
        "i"
      ],
      [
        "m",
        "on"
      ],
      [
        "s",
        "up"
      ],
      [
        "s",
        "ign"
      ],
      [
        "t",
        "ed"
      ],
      [
        "w",
        "ant"
      ],
      [
        "re",
        "ally"
      ],
      [
        "inst",
        "ant"
      ],
      [
        "quest",
        "ion"
      ],
      [
        "b",
        "and"
      ],
      [
        "d",
        "ed"
      ],
      [
        "f",
        "am"
      ],
      [
        "m",
        "oney"
      ],
      [
        "he",
        "ar"
      ],
      [
        "le",
        "ave"
      ],
      [
        "al",
        "ready"
      ],
      [
        "am",
        "p"
      ],
      [
        "ne",
        "ar"
      ],
      [
        "con",
        "d"
      ],
      [
        "con",
        "f"
      ],
      [
        "per",
        "haps"
      ],
      [
        "str",
        "ong"
      ],
      [
        "word",
        "s"
      ],
      [
        "consid",
        "er"
      ],
      [
        "Y",
        "our"
      ],
      [
        "d",
        "ri"
      ],
      [
        "e",
        "le"
      ],
      [
        "g",
        "ave"
      ],
      [
        "i",
        "ld"
      ],
      [
        "m",
        "iss"
      ],
      [
        "s",
        "ed"
      ],
      [
        "st",
        "reet"
      ],
      [
        "ut",
        "es"
      ],
      [
        "co",
        "ver"
      ],
      [
        "ir",
        "d"
      ],
      [
        "sh",
        "ow"
      ],
      [
        "ind",
        "eed"
      ],
      [
        "ca",
        "use"
      ],
      [
        "str",
        "ange"
      ],
      [
        "min",
        "utes"
      ],
      [
        "pap",
        "er"
      ],
      [
        "sol",
        "ute"
      ],
      [
        "gentle",
        "man"
      ],
      [
        "d",
        "on"
      ],
      [
        "e",
        "as"
      ],
      [
        "f",
        "our"
      ],
      [
        "w",
        "at"
      ],
      [
        "at",
        "es"
      ],
      [
        "be",
        "ing"
      ],
      [
        "co",
        "p"
      ],
      [
        "we",
        "ek"
      ],
      [
        "who",
        "le"
      ],
      [
        "ation",
        "s"
      ],
      [
        "ak",
        "er"
      ],
      [
        "day",
        "s"
      ],
      [
        "pap",
        "ers"
      ],
      [
        "A",
        "t"
      ],
      [
        "C",
        "ar"
      ],
      [
        "D",
        "o"
      ],
      [
        "M",
        "c"
      ],
      [
        "c",
        "he"
      ],
      [
        "g",
        "ed"
      ],
      [
        "m",
        "er"
      ],
      [
        "s",
        "le"
      ],
      [
        "th",
        "re"
      ],
      [
        "po",
        "sit"
      ],
      [
        "ct",
        "ed"
      ],
      [
        "Mr",
        "s"
      ],
      [
        "vi",
        "ll"
      ],
      [
        "d",
        "if"
      ],
      [
        "r",
        "un"
      ],
      [
        "re",
        "st"
      ],
      [
        "ent",
        "ly"
      ],
      [
        "su",
        "lt"
      ],
      [
        "ck",
        "et"
      ],
      [
        "ex",
        "ce"
      ],
      [
        "ang",
        "er"
      ],
      [
        "whe",
        "ther"
      ],
      [
        "!",
        "’"
      ],
      [
        "B",
        "aker"
      ],
      [
        "L",
        "ond"
      ],
      [
        "a",
        "id"
      ],
      [
        "c",
        "ha"
      ],
      [
        "f",
        "re"
      ],
      [
        "g",
        "one"
      ],
      [
        "in",
        "c"
      ],
      [
        "co",
        "at"
      ],
      [
        "ag",
        "ed"
      ],
      [
        "mo",
        "ment"
      ],
      [
        "de",
        "ep"
      ],
      [
        "your",
        "self"
      ],
      [
        "bo",
        "th"
      ],
      [
        "pp",
        "ed"
      ],
      [
        "coun",
        "try"
      ],
      [
        "Lond",
        "on"
      ],
      [
        "E",
        "n"
      ],
      [
        "L",
        "ord"
      ],
      [
        "R",
        "uc"
      ],
      [
        "e",
        "e"
      ],
      [
        "f",
        "ing"
      ],
      [
        "h",
        "igh"
      ],
      [
        "in",
        "ed"
      ],
      [
        "an",
        "other"
      ],
      [
        "it",
        "ed"
      ],
      [
        "st",
        "air"
      ],
      [
        "ur",
        "ing"
      ],
      [
        "ab",
        "ly"
      ],
      [
        "fe",
        "ar"
      ],
      [
        "vi",
        "ous"
      ],
      [
        "pass",
        "ed"
      ],
      [
        "qui",
        "et"
      ],
      [
        "Ruc",
        "ast"
      ],
      [
        "0",
        "0"
      ],
      [
        "P",
        "r"
      ],
      [
        "c",
        "are"
      ],
      [
        "t",
        "ri"
      ],
      [
        "lo",
        "t"
      ],
      [
        "man",
        "y"
      ],
      [
        "per",
        "son"
      ],
      [
        "la",
        "w"
      ],
      [
        "comp",
        "an"
      ],
      [
        "Car",
        "thy"
      ],
      [
        "Mc",
        "Carthy"
      ],
      [
        "H",
        "ere"
      ],
      [
        "S",
        "im"
      ],
      [
        "c",
        "ut"
      ],
      [
        "d",
        "et"
      ],
      [
        "f",
        "ast"
      ],
      [
        "i",
        "th"
      ],
      [
        "k",
        "n"
      ],
      [
        "k",
        "ind"
      ],
      [
        "l",
        "arge"
      ],
      [
        "p",
        "ri"
      ],
      [
        "s",
        "ound"
      ],
      [
        "t",
        "on"
      ],
      [
        "t",
        "ing"
      ],
      [
        "wh",
        "y"
      ],
      [
        "be",
        "lie"
      ],
      [
        "so",
        "on"
      ],
      [
        "do",
        "es"
      ],
      [
        "ge",
        "ther"
      ],
      [
        "who",
        "m"
      ],
      [
        "fa",
        "ir"
      ],
      [
        "ish",
        "ed"
      ],
      [
        "imp",
        "ort"
      ],
      [
        "cop",
        "y"
      ],
      [
        "Sim",
        "on"
      ],
      [
        "H",
        "E"
      ],
      [
        "L",
        "es"
      ],
      [
        "O",
        "ne"
      ],
      [
        "c",
        "r"
      ],
      [
        "c",
        "lock"
      ],
      [
        "d",
        "ing"
      ],
      [
        "i",
        "al"
      ],
      [
        "l",
        "ate"
      ],
      [
        "p",
        "rom"
      ],
      [
        "to",
        "gether"
      ],
      [
        "ll",
        "ed"
      ],
      [
        "me",
        "mber"
      ],
      [
        "st",
        "ru"
      ],
      [
        "ch",
        "es"
      ],
      [
        "ch",
        "ar"
      ],
      [
        "ur",
        "ed"
      ],
      [
        "ab",
        "solute"
      ],
      [
        "wo",
        "od"
      ],
      [
        "ward",
        "s"
      ],
      [
        "sin",
        "ce"
      ],
      [
        "Les",
        "trade"
      ],
      [
        "A",
        "n"
      ],
      [
        "d",
        "ire"
      ],
      [
        "en",
        "er"
      ],
      [
        "en",
        "se"
      ],
      [
        "re",
        "turn"
      ],
      [
        "re",
        "main"
      ],
      [
        "he",
        "art"
      ],
      [
        "se",
        "ver"
      ],
      [
        "ke",
        "ep"
      ],
      [
        "ck",
        "ed"
      ],
      [
        "ess",
        "ion"
      ],
      [
        "Wh",
        "y"
      ],
      [
        "te",
        "m"
      ],
      [
        "op",
        "ened"
      ],
      [
        "even",
        "ing"
      ],
      [
        "sudden",
        "ly"
      ],
      [
        "Rucast",
        "le"
      ],
      [
        "c",
        "li"
      ],
      [
        "c",
        "ab"
      ],
      [
        "c",
        "ul"
      ],
      [
        "d",
        "a"
      ],
      [
        "l",
        "es"
      ],
      [
        "r",
        "an"
      ],
      [
        "t",
        "alk"
      ],
      [
        "at",
        "ing"
      ],
      [
        "re",
        "ach"
      ],
      [
        "re",
        "turned"
      ],
      [
        "ar",
        "ing"
      ],
      [
        "le",
        "ast"
      ],
      [
        "ac",
        "ross"
      ],
      [
        "not",
        "e"
      ],
      [
        "sh",
        "o"
      ],
      [
        "po",
        "se"
      ],
      [
        "fi",
        "ve"
      ],
      [
        "ru",
        "shed"
      ],
      [
        "gr",
        "ound"
      ],
      [
        "ron",
        "ic"
      ],
      [
        "appear",
        "ed"
      ],
      [
        "dra",
        "w"
      ],
      [
        "gi",
        "ven"
      ],
      [
        "e",
        "ither"
      ],
      [
        "s",
        "pr"
      ],
      [
        "re",
        "ce"
      ],
      [
        "st",
        "ate"
      ],
      [
        "ut",
        "ter"
      ],
      [
        "sa",
        "ve"
      ],
      [
        "fe",
        "el"
      ],
      [
        "fe",
        "llow"
      ],
      [
        "itt",
        "ing"
      ],
      [
        "il",
        "ing"
      ],
      [
        "ho",
        "pe"
      ],
      [
        "ic",
        "al"
      ],
      [
        "sto",
        "od"
      ],
      [
        "sto",
        "ry"
      ],
      [
        "wait",
        "ing"
      ],
      [
        "fact",
        "s"
      ],
      [
        "col",
        "our"
      ],
      [
        "belie",
        "ve"
      ],
      [
        "C",
        "o"
      ],
      [
        "d",
        "uring"
      ],
      [
        "e",
        "vid"
      ],
      [
        "f",
        "lo"
      ],
      [
        "i",
        "tor"
      ],
      [
        "k",
        "en"
      ],
      [
        "s",
        "mo"
      ],
      [
        "s",
        "ister"
      ],
      [
        "y",
        "es"
      ],
      [
        "ar",
        "r"
      ],
      [
        "ent",
        "ion"
      ],
      [
        "su",
        "c"
      ],
      [
        "la",
        "id"
      ],
      [
        "gr",
        "aph"
      ],
      [
        "ple",
        "as"
      ],
      [
        "compan",
        "ion"
      ],
      [
        "cli",
        "ent"
      ],
      [
        "B",
        "r"
      ],
      [
        "F",
        "or"
      ],
      [
        "G",
        "od"
      ],
      [
        "m",
        "ad"
      ],
      [
        "p",
        "ur"
      ],
      [
        "s",
        "itting"
      ],
      [
        "en",
        "s"
      ],
      [
        "wh",
        "ite"
      ],
      [
        "st",
        "one"
      ],
      [
        "se",
        "cre"
      ],
      [
        "ent",
        "ered"
      ],
      [
        "so",
        "ci"
      ],
      [
        "all",
        "ow"
      ],
      [
        "am",
        "ong"
      ],
      [
        "fe",
        "lt"
      ],
      [
        "de",
        "ath"
      ],
      [
        "pr",
        "of"
      ],
      [
        "el",
        "se"
      ],
      [
        "sing",
        "ular"
      ],
      [
        "full",
        "y"
      ],
      [
        "sur",
        "pr"
      ],
      [
        "ele",
        "ct"
      ],
      [
        "posit",
        "ion"
      ],
      [
        "En",
        "gl"
      ],
      [
        "kn",
        "own"
      ],
      [
        "A",
        "h"
      ],
      [
        "b",
        "od"
      ],
      [
        "c",
        "ry"
      ],
      [
        "e",
        "ach"
      ],
      [
        "f",
        "f"
      ],
      [
        "f",
        "all"
      ],
      [
        "h",
        "u"
      ],
      [
        "i",
        "ence"
      ],
      [
        "l",
        "an"
      ],
      [
        "l",
        "ist"
      ],
      [
        "p",
        "ay"
      ],
      [
        "p",
        "ort"
      ],
      [
        "v",
        "o"
      ],
      [
        "id",
        "ent"
      ],
      [
        "ver",
        "t"
      ],
      [
        "for",
        "ward"
      ],
      [
        "li",
        "ar"
      ],
      [
        "su",
        "m"
      ],
      [
        "ne",
        "ed"
      ],
      [
        "go",
        "ing"
      ],
      [
        "fo",
        "ot"
      ],
      [
        "room",
        "s"
      ],
      [
        "ass",
        "ist"
      ],
      [
        "ob",
        "vious"
      ],
      [
        "work",
        "s"
      ],
      [
        "wr",
        "it"
      ],
      [
        "cor",
        "ner"
      ],
      [
        "certain",
        "ly"
      ],
      [
        "cont",
        "in"
      ],
      [
        "Pr",
        "ay"
      ],
      [
        "H",
        "o"
      ],
      [
        "W",
        "ith"
      ],
      [
        "b",
        "ar"
      ],
      [
        "b",
        "est"
      ],
      [
        "m",
        "ine"
      ],
      [
        "s",
        "ight"
      ],
      [
        "re",
        "member"
      ],
      [
        "me",
        "an"
      ],
      [
        "se",
        "ven"
      ],
      [
        "be",
        "came"
      ],
      [
        "ad",
        "dress"
      ],
      [
        "im",
        "ag"
      ],
      [
        "ag",
        "ue"
      ],
      [
        "po",
        "cket"
      ],
      [
        "itt",
        "en"
      ],
      [
        "pro",
        "b"
      ],
      [
        "oc",
        "cur"
      ],
      [
        "cri",
        "me"
      ],
      [
        "vis",
        "itor"
      ],
      [
        "stair",
        "s"
      ],
      [
        "flo",
        "or"
      ],
      [
        "D",
        "r"
      ],
      [
        "V",
        "ery"
      ],
      [
        "c",
        "ap"
      ],
      [
        "e",
        "w"
      ],
      [
        "e",
        "ce"
      ],
      [
        "l",
        "ves"
      ],
      [
        "m",
        "as"
      ],
      [
        "m",
        "aid"
      ],
      [
        "o",
        "h"
      ],
      [
        "p",
        "ast"
      ],
      [
        "s",
        "k"
      ],
      [
        "s",
        "we"
      ],
      [
        "v",
        "al"
      ],
      [
        "v",
        "ant"
      ],
      [
        "on",
        "es"
      ],
      [
        "es",
        "e"
      ],
      [
        "se",
        "cond"
      ],
      [
        "ch",
        "ild"
      ],
      [
        "im",
        "es"
      ],
      [
        "sh",
        "ort"
      ],
      [
        "ab",
        "o"
      ],
      [
        "et",
        "y"
      ],
      [
        "de",
        "ad"
      ],
      [
        "ex",
        "c"
      ],
      [
        "ho",
        "ld"
      ],
      [
        "qui",
        "ck"
      ],
      [
        "av",
        "y"
      ],
      [
        "si",
        "x"
      ],
      [
        "fam",
        "ily"
      ],
      [
        "cover",
        "ed"
      ],
      [
        "sever",
        "al"
      ],
      [
        "H",
        "a"
      ],
      [
        "b",
        "ird"
      ],
      [
        "c",
        "es"
      ],
      [
        "g",
        "a"
      ],
      [
        "g",
        "ri"
      ],
      [
        "g",
        "ir"
      ],
      [
        "i",
        "a"
      ],
      [
        "m",
        "ur"
      ],
      [
        "r",
        "ing"
      ],
      [
        "r",
        "or"
      ],
      [
        "s",
        "l"
      ],
      [
        "s",
        "li"
      ],
      [
        "u",
        "su"
      ],
      [
        "v",
        "il"
      ],
      [
        "er",
        "ing"
      ],
      [
        "re",
        "c"
      ],
      [
        "re",
        "f"
      ],
      [
        "re",
        "l"
      ],
      [
        "re",
        "t"
      ],
      [
        "he",
        "avy"
      ],
      [
        "st",
        "er"
      ],
      [
        "ri",
        "but"
      ],
      [
        "ac",
        "ter"
      ],
      [
        "one",
        "l"
      ],
      [
        "ag",
        "ree"
      ],
      [
        "tr",
        "ain"
      ],
      [
        "tr",
        "ue"
      ],
      [
        "thing",
        "s"
      ],
      [
        "any",
        "one"
      ],
      [
        "op",
        "le"
      ],
      [
        "spe",
        "ct"
      ],
      [
        "spe",
        "ctor"
      ],
      [
        "call",
        "ed"
      ],
      [
        "tak",
        "en"
      ],
      [
        "thre",
        "w"
      ],
      [
        "elect",
        "ronic"
      ],
      [
        "B",
        "y"
      ],
      [
        "T",
        "HE"
      ],
      [
        "a",
        "ut"
      ],
      [
        "b",
        "es"
      ],
      [
        "c",
        "y"
      ],
      [
        "h",
        "us"
      ],
      [
        "i",
        "ck"
      ],
      [
        "k",
        "ing"
      ],
      [
        "l",
        "amp"
      ],
      [
        "n",
        "at"
      ],
      [
        "n",
        "ed"
      ],
      [
        "p",
        "ull"
      ],
      [
        "in",
        "ary"
      ],
      [
        "as",
        "sa"
      ],
      [
        "to",
        "graph"
      ],
      [
        "wh",
        "is"
      ],
      [
        "st",
        "ri"
      ],
      [
        "ro",
        "ad"
      ],
      [
        "ri",
        "ble"
      ],
      [
        "ad",
        "vert"
      ],
      [
        "man",
        "ner"
      ],
      [
        "am",
        "es"
      ],
      [
        "su",
        "b"
      ],
      [
        "su",
        "gg"
      ],
      [
        "ag",
        "o"
      ],
      [
        "fe",
        "et"
      ],
      [
        "ind",
        "i"
      ],
      [
        "pe",
        "ople"
      ],
      [
        "ex",
        "plain"
      ],
      [
        "see",
        "ms"
      ],
      [
        "com",
        "ing"
      ],
      [
        "pro",
        "ble"
      ],
      [
        "ho",
        "tograph"
      ],
      [
        "ci",
        "al"
      ],
      [
        "ey",
        "e"
      ],
      [
        "wr",
        "itten"
      ],
      [
        "walk",
        "ed"
      ],
      [
        "char",
        "acter"
      ],
      [
        "imag",
        "ine"
      ],
      [
        "gir",
        "l"
      ],
      [
        "hus",
        "band"
      ],
      [
        "C",
        "la"
      ],
      [
        "I",
        "nd"
      ],
      [
        "b",
        "lic"
      ],
      [
        "d",
        "anger"
      ],
      [
        "e",
        "ad"
      ],
      [
        "f",
        "ree"
      ],
      [
        "l",
        "ing"
      ],
      [
        "m",
        "ak"
      ],
      [
        "o",
        "od"
      ],
      [
        "p",
        "hotograph"
      ],
      [
        "r",
        "id"
      ],
      [
        "the",
        "s"
      ],
      [
        "be",
        "ll"
      ],
      [
        "al",
        "one"
      ],
      [
        "lo",
        "st"
      ],
      [
        "lo",
        "ve"
      ],
      [
        "ir",
        "ed"
      ],
      [
        "one",
        "t"
      ],
      [
        "go",
        "ose"
      ],
      [
        "pl",
        "ay"
      ],
      [
        "ment",
        "s"
      ],
      [
        "vi",
        "ce"
      ],
      [
        "br",
        "ing"
      ],
      [
        "lock",
        "ed"
      ],
      [
        "bo",
        "x"
      ],
      [
        "um",
        "ber"
      ],
      [
        "thr",
        "ow"
      ],
      [
        "like",
        "ly"
      ],
      [
        "step",
        "s"
      ],
      [
        "mar",
        "riage"
      ],
      [
        "hur",
        "ried"
      ],
      [
        "spo",
        "ke"
      ],
      [
        "bod",
        "y"
      ],
      [
        "Cla",
        "ir"
      ],
      [
        "C",
        "h"
      ],
      [
        "D",
        "oc"
      ],
      [
        "J",
        "oh"
      ],
      [
        "M",
        "a"
      ],
      [
        "R",
        "E"
      ],
      [
        "a",
        "w"
      ],
      [
        "b",
        "it"
      ],
      [
        "b",
        "ri"
      ],
      [
        "b",
        "right"
      ],
      [
        "c",
        "us"
      ],
      [
        "g",
        "y"
      ],
      [
        "g",
        "ar"
      ],
      [
        "g",
        "ra"
      ],
      [
        "l",
        "ad"
      ],
      [
        "n",
        "or"
      ],
      [
        "p",
        "ly"
      ],
      [
        "s",
        "y"
      ],
      [
        "u",
        "ne"
      ],
      [
        "v",
        "ol"
      ],
      [
        "w",
        "ond"
      ],
      [
        "ou",
        "d"
      ],
      [
        "at",
        "ive"
      ],
      [
        "re",
        "sult"
      ],
      [
        "he",
        "ld"
      ],
      [
        "se",
        "ar"
      ],
      [
        "ro",
        "se"
      ],
      [
        "im",
        "press"
      ],
      [
        "co",
        "ld"
      ],
      [
        "ac",
        "es"
      ],
      [
        "un",
        "g"
      ],
      [
        "qu",
        "ar"
      ],
      [
        "itt",
        "ed"
      ],
      [
        "vi",
        "ew"
      ],
      [
        "atter",
        "ed"
      ],
      [
        "gre",
        "y"
      ],
      [
        "pt",
        "ion"
      ],
      [
        "dress",
        "ed"
      ],
      [
        "window",
        "s"
      ],
      [
        "appear",
        "ance"
      ],
      [
        "coun",
        "t"
      ],
      [
        "fort",
        "un"
      ],
      [
        "pu",
        "blic"
      ],
      [
        "dro",
        "ve"
      ],
      [
        "letter",
        "s"
      ],
      [
        "offi",
        "ce"
      ],
      [
        "eas",
        "y"
      ],
      [
        "det",
        "ail"
      ],
      [
        "rece",
        "i"
      ],
      [
        "Doc",
        "tor"
      ],
      [
        "Joh",
        "n"
      ],
      [
        "A",
        "d"
      ],
      [
        "F",
        "ound"
      ],
      [
        "G",
        "ood"
      ],
      [
        "O",
        "f"
      ],
      [
        "c",
        "ed"
      ],
      [
        "e",
        "vent"
      ],
      [
        "i",
        "z"
      ],
      [
        "l",
        "er"
      ],
      [
        "l",
        "ine"
      ],
      [
        "m",
        "id"
      ],
      [
        "n",
        "one"
      ],
      [
        "p",
        "ow"
      ],
      [
        "s",
        "imp"
      ],
      [
        "t",
        "imes"
      ],
      [
        "in",
        "ing"
      ],
      [
        "or",
        "an"
      ],
      [
        "ch",
        "ance"
      ],
      [
        "sa",
        "fe"
      ],
      [
        "tr",
        "ust"
      ],
      [
        "qu",
        "are"
      ],
      [
        "fi",
        "g"
      ],
      [
        "fi",
        "cul"
      ],
      [
        "la",
        "im"
      ],
      [
        "cas",
        "es"
      ],
      [
        "ord",
        "inary"
      ],
      [
        "spe",
        "ak"
      ],
      [
        "cor",
        "onet"
      ],
      [
        "clo",
        "se"
      ],
      [
        "stand",
        "ing"
      ],
      [
        "comm",
        "on"
      ],
      [
        "ugh",
        "ter"
      ],
      [
        "mar",
        "ried"
      ],
      [
        "Ro",
        "y"
      ],
      [
        "follow",
        "ed"
      ],
      [
        "beg",
        "an"
      ],
      [
        "ded",
        "u"
      ],
      [
        "dif",
        "ficul"
      ],
      [
        "fing",
        "er"
      ],
      [
        "da",
        "ughter"
      ],
      [
        "suc",
        "cess"
      ],
      [
        "prof",
        "ession"
      ],
      [
        "abo",
        "ve"
      ],
      [
        "A",
        "ll"
      ],
      [
        "E",
        "N"
      ],
      [
        "H",
        "or"
      ],
      [
        "K",
        "ing"
      ],
      [
        "T",
        "urn"
      ],
      [
        "a",
        "u"
      ],
      [
        "c",
        "ir"
      ],
      [
        "g",
        "ain"
      ],
      [
        "h",
        "y"
      ],
      [
        "j",
        "o"
      ],
      [
        "p",
        "ain"
      ],
      [
        "p",
        "assa"
      ],
      [
        "s",
        "ort"
      ],
      [
        "s",
        "low"
      ],
      [
        "t",
        "went"
      ],
      [
        "u",
        "ght"
      ],
      [
        "x",
        "t"
      ],
      [
        "y",
        "ed"
      ],
      [
        "is",
        "ing"
      ],
      [
        "to",
        "wn"
      ],
      [
        "le",
        "ar"
      ],
      [
        "be",
        "aut"
      ],
      [
        "ri",
        "es"
      ],
      [
        "co",
        "ll"
      ],
      [
        "ac",
        "count"
      ],
      [
        "sh",
        "ot"
      ],
      [
        "out",
        "side"
      ],
      [
        "ke",
        "en"
      ],
      [
        "un",
        "cle"
      ],
      [
        "ex",
        "pe"
      ],
      [
        "bo",
        "y"
      ],
      [
        "bl",
        "ue"
      ],
      [
        "ci",
        "ous"
      ],
      [
        "ord",
        "er"
      ],
      [
        "No",
        "t"
      ],
      [
        "old",
        "er"
      ],
      [
        "pa",
        "ir"
      ],
      [
        "anc",
        "y"
      ],
      [
        "vent",
        "ure"
      ],
      [
        "ef",
        "fect"
      ],
      [
        "fl",
        "u"
      ],
      [
        "att",
        "ention"
      ],
      [
        "ash",
        "ion"
      ],
      [
        "sil",
        "ence"
      ],
      [
        "start",
        "ed"
      ],
      [
        "break",
        "fast"
      ],
      [
        "stru",
        "ck"
      ],
      [
        "absolute",
        "ly"
      ],
      [
        "Found",
        "ation"
      ],
      [
        "W",
        "il"
      ],
      [
        "a",
        "x"
      ],
      [
        "b",
        "lo"
      ],
      [
        "d",
        "r"
      ],
      [
        "e",
        "ld"
      ],
      [
        "e",
        "per"
      ],
      [
        "f",
        "ashion"
      ],
      [
        "g",
        "ard"
      ],
      [
        "i",
        "p"
      ],
      [
        "m",
        "il"
      ],
      [
        "n",
        "ature"
      ],
      [
        "t",
        "w"
      ],
      [
        "w",
        "ed"
      ],
      [
        "w",
        "all"
      ],
      [
        "th",
        "ur"
      ],
      [
        "in",
        "s"
      ],
      [
        "in",
        "spector"
      ],
      [
        "ou",
        "th"
      ],
      [
        "on",
        "y"
      ],
      [
        "he",
        "a"
      ],
      [
        "le",
        "y"
      ],
      [
        "ce",
        "ll"
      ],
      [
        "ter",
        "ms"
      ],
      [
        "we",
        "l"
      ],
      [
        "sh",
        "ar"
      ],
      [
        "po",
        "or"
      ],
      [
        "ke",
        "y"
      ],
      [
        "ne",
        "y"
      ],
      [
        "end",
        "ed"
      ],
      [
        "ide",
        "a"
      ],
      [
        "af",
        "fair"
      ],
      [
        "gl",
        "ass"
      ],
      [
        "sm",
        "er"
      ],
      [
        "ser",
        "ious"
      ],
      [
        "dra",
        "wn"
      ],
      [
        "happ",
        "ened"
      ],
      [
        "glanc",
        "ing"
      ],
      [
        "Ar",
        "thur"
      ],
      [
        "consider",
        "able"
      ],
      [
        "lot",
        "t"
      ],
      [
        "import",
        "ant"
      ],
      [
        "tem",
        "pt"
      ],
      [
        "spr",
        "ang"
      ],
      [
        "secre",
        "t"
      ],
      [
        "Ho",
        "smer"
      ],
      [
        "bes",
        "ide"
      ],
      [
        "advert",
        "ise"
      ],
      [
        "fortun",
        "ate"
      ],
      [
        "fig",
        "ure"
      ],
      [
        "Roy",
        "lott"
      ],
      [
        "passa",
        "ge"
      ],
      [
        "A",
        "mer"
      ],
      [
        "L",
        "et"
      ],
      [
        "U",
        "n"
      ],
      [
        "b",
        "ow"
      ],
      [
        "b",
        "ly"
      ],
      [
        "c",
        "up"
      ],
      [
        "h",
        "und"
      ],
      [
        "i",
        "an"
      ],
      [
        "l",
        "im"
      ],
      [
        "m",
        "is"
      ],
      [
        "v",
        "an"
      ],
      [
        "th",
        "in"
      ],
      [
        "in",
        "no"
      ],
      [
        "at",
        "er"
      ],
      [
        "re",
        "al"
      ],
      [
        "re",
        "am"
      ],
      [
        "le",
        "g"
      ],
      [
        "me",
        "et"
      ],
      [
        "me",
        "ans"
      ],
      [
        "st",
        "ation"
      ],
      [
        "ro",
        "p"
      ],
      [
        "ter",
        "n"
      ],
      [
        "co",
        "mes"
      ],
      [
        "ir",
        "ty"
      ],
      [
        "ag",
        "er"
      ],
      [
        "po",
        "st"
      ],
      [
        "fe",
        "e"
      ],
      [
        "ne",
        "xt"
      ],
      [
        "mo",
        "ther"
      ],
      [
        "de",
        "ter"
      ],
      [
        "go",
        "ld"
      ],
      [
        "ex",
        "tr"
      ],
      [
        "ex",
        "per"
      ],
      [
        "il",
        "ed"
      ],
      [
        "pl",
        "an"
      ],
      [
        "ra",
        "id"
      ],
      [
        "te",
        "l"
      ],
      [
        "vi",
        "ol"
      ],
      [
        "act",
        "ion"
      ],
      [
        "comp",
        "le"
      ],
      [
        "car",
        "ried"
      ],
      [
        "car",
        "riage"
      ],
      [
        "clo",
        "sed"
      ],
      [
        "clo",
        "thes"
      ],
      [
        "dist",
        "ribut"
      ],
      [
        "obser",
        "ved"
      ],
      [
        "happ",
        "y"
      ],
      [
        "cu",
        "liar"
      ],
      [
        "glanc",
        "ed"
      ],
      [
        "wat",
        "er"
      ],
      [
        "occur",
        "red"
      ],
      [
        "Ma",
        "j"
      ],
      [
        "Turn",
        "er"
      ],
      [
        "twent",
        "y"
      ],
      [
        "blo",
        "od"
      ],
      [
        "Amer",
        "i"
      ],
      [
        "hund",
        "red"
      ],
      [
        "J",
        "ames"
      ],
      [
        "M",
        "ary"
      ],
      [
        "P",
        "o"
      ],
      [
        "S",
        "to"
      ],
      [
        "b",
        "ur"
      ],
      [
        "c",
        "laim"
      ],
      [
        "d",
        "u"
      ],
      [
        "s",
        "n"
      ],
      [
        "s",
        "had"
      ],
      [
        "y",
        "ing"
      ],
      [
        "as",
        "e"
      ],
      [
        "ha",
        "ll"
      ],
      [
        "st",
        "ery"
      ],
      [
        "ut",
        "ion"
      ],
      [
        "our",
        "t"
      ],
      [
        "su",
        "n"
      ],
      [
        "do",
        "ing"
      ],
      [
        "fe",
        "ature"
      ],
      [
        "pe",
        "culiar"
      ],
      [
        "con",
        "tr"
      ],
      [
        "con",
        "cl"
      ],
      [
        "ge",
        "l"
      ],
      [
        "who",
        "se"
      ],
      [
        "sha",
        "w"
      ],
      [
        "af",
        "raid"
      ],
      [
        "pr",
        "ac"
      ],
      [
        "bo",
        "ard"
      ],
      [
        "dre",
        "ad"
      ],
      [
        "ob",
        "ject"
      ],
      [
        "car",
        "ry"
      ],
      [
        "ot",
        "s"
      ],
      [
        "point",
        "s"
      ],
      [
        "step",
        "father"
      ],
      [
        "interest",
        "ing"
      ],
      [
        "bro",
        "ad"
      ],
      [
        "So",
        "me"
      ],
      [
        "Fr",
        "ank"
      ],
      [
        "An",
        "gel"
      ],
      [
        "writ",
        "ing"
      ],
      [
        "contin",
        "u"
      ],
      [
        "usu",
        "al"
      ],
      [
        "nat",
        "ur"
      ],
      [
        "proble",
        "m"
      ],
      [
        "Wil",
        "son"
      ],
      [
        "wed",
        "ding"
      ],
      [
        "extr",
        "a"
      ],
      [
        "F",
        "rom"
      ],
      [
        "H",
        "ave"
      ],
      [
        "L",
        "e"
      ],
      [
        "Q",
        "u"
      ],
      [
        "S",
        "u"
      ],
      [
        "W",
        "indi"
      ],
      [
        "b",
        "our"
      ],
      [
        "g",
        "ener"
      ],
      [
        "l",
        "it"
      ],
      [
        "m",
        "ere"
      ],
      [
        "p",
        "lo"
      ],
      [
        "s",
        "es"
      ],
      [
        "s",
        "al"
      ],
      [
        "y",
        "e"
      ],
      [
        "in",
        "ion"
      ],
      [
        "in",
        "ct"
      ],
      [
        "in",
        "qu"
      ],
      [
        "in",
        "cl"
      ],
      [
        "er",
        "ry"
      ],
      [
        "at",
        "i"
      ],
      [
        "at",
        "ch"
      ],
      [
        "as",
        "ed"
      ],
      [
        "to",
        "wards"
      ],
      [
        "ar",
        "ri"
      ],
      [
        "it",
        "ion"
      ],
      [
        "st",
        "e"
      ],
      [
        "ly",
        "ing"
      ],
      [
        "my",
        "stery"
      ],
      [
        "al",
        "most"
      ],
      [
        "sh",
        "own"
      ],
      [
        "un",
        "ter"
      ],
      [
        "ti",
        "ve"
      ],
      [
        "tr",
        "ou"
      ],
      [
        "see",
        "ing"
      ],
      [
        "pl",
        "aced"
      ],
      [
        "ca",
        "ught"
      ],
      [
        "Wh",
        "ere"
      ],
      [
        "op",
        "inion"
      ],
      [
        "pr",
        "is"
      ],
      [
        "bo",
        "ok"
      ],
      [
        "ear",
        "th"
      ],
      [
        "matter",
        "s"
      ],
      [
        "head",
        "ed"
      ],
      [
        "fir",
        "m"
      ],
      [
        "remark",
        "able"
      ],
      [
        "every",
        "thing"
      ],
      [
        "ourse",
        "lves"
      ],
      [
        "des",
        "cri"
      ],
      [
        "gg",
        "ed"
      ],
      [
        "hour",
        "s"
      ],
      [
        "cu",
        "ri"
      ],
      [
        "laugh",
        "ed"
      ],
      [
        "mon",
        "th"
      ],
      [
        "conf",
        "ess"
      ],
      [
        "dri",
        "ve"
      ],
      [
        "show",
        "ed"
      ],
      [
        "sle",
        "ep"
      ],
      [
        "vill",
        "e"
      ],
      [
        "fre",
        "sh"
      ],
      [
        "quiet",
        "ly"
      ],
      [
        "Engl",
        "and"
      ],
      [
        "vo",
        "ice"
      ],
      [
        "wond",
        "er"
      ],
      [
        "advertise",
        "ment"
      ],
      [
        "Windi",
        "bank"
      ],
      [
        "H",
        "unter"
      ],
      [
        "I",
        "I"
      ],
      [
        "M",
        "on"
      ],
      [
        "O",
        "F"
      ],
      [
        "f",
        "urn"
      ],
      [
        "g",
        "er"
      ],
      [
        "i",
        "ef"
      ],
      [
        "k",
        "er"
      ],
      [
        "k",
        "ne"
      ],
      [
        "m",
        "ach"
      ],
      [
        "p",
        "it"
      ],
      [
        "u",
        "al"
      ],
      [
        "u",
        "ck"
      ],
      [
        "w",
        "on"
      ],
      [
        "w",
        "and"
      ],
      [
        "z",
        "z"
      ],
      [
        "an",
        "n"
      ],
      [
        "at",
        "tempt"
      ],
      [
        "ar",
        "ed"
      ],
      [
        "ch",
        "ange"
      ],
      [
        "ch",
        "arge"
      ],
      [
        "ad",
        "vice"
      ],
      [
        "for",
        "d"
      ],
      [
        "lo",
        "d"
      ],
      [
        "our",
        "ed"
      ],
      [
        "ne",
        "igh"
      ],
      [
        "ain",
        "t"
      ],
      [
        "us",
        "ion"
      ],
      [
        "Th",
        "ank"
      ],
      [
        "ap",
        "pro"
      ],
      [
        "con",
        "ne"
      ],
      [
        "tr",
        "u"
      ],
      [
        "de",
        "al"
      ],
      [
        "fi",
        "ed"
      ],
      [
        "other",
        "s"
      ],
      [
        "St",
        "oner"
      ],
      [
        "cas",
        "ion"
      ],
      [
        "wr",
        "ong"
      ],
      [
        "pi",
        "pe"
      ],
      [
        "oc",
        "casion"
      ],
      [
        "par",
        "tic"
      ],
      [
        "set",
        "t"
      ],
      [
        "sing",
        "le"
      ],
      [
        "obser",
        "ve"
      ],
      [
        "sil",
        "ent"
      ],
      [
        "copy",
        "right"
      ],
      [
        "dire",
        "ction"
      ],
      [
        "reach",
        "ed"
      ],
      [
        "detail",
        "s"
      ],
      [
        "recei",
        "ved"
      ],
      [
        "simp",
        "le"
      ],
      [
        "exper",
        "ience"
      ],
      [
        "comple",
        "te"
      ],
      [
        "extra",
        "ordinary"
      ],
      [
        "neigh",
        "bour"
      ],
      [
        "partic",
        "ular"
      ],
      [
        "B",
        "ri"
      ],
      [
        "H",
        "ather"
      ],
      [
        "H",
        "older"
      ],
      [
        "N",
        "e"
      ],
      [
        "P",
        "er"
      ],
      [
        "W",
        "as"
      ],
      [
        "b",
        "ad"
      ],
      [
        "c",
        "ou"
      ],
      [
        "e",
        "Bo"
      ],
      [
        "f",
        "right"
      ],
      [
        "g",
        "as"
      ],
      [
        "i",
        "um"
      ],
      [
        "m",
        "ist"
      ],
      [
        "p",
        "ing"
      ],
      [
        "r",
        "ene"
      ],
      [
        "s",
        "of"
      ],
      [
        "s",
        "or"
      ],
      [
        "s",
        "wi"
      ],
      [
        "s",
        "ence"
      ],
      [
        "s",
        "light"
      ],
      [
        "w",
        "w"
      ],
      [
        "in",
        "j"
      ],
      [
        "ou",
        "l"
      ],
      [
        "at",
        "or"
      ],
      [
        "ed",
        "ge"
      ],
      [
        "is",
        "to"
      ],
      [
        "ar",
        "row"
      ],
      [
        "it",
        "self"
      ],
      [
        "ll",
        "er"
      ],
      [
        "ve",
        "lo"
      ],
      [
        "ce",
        "ed"
      ],
      [
        "ver",
        "s"
      ],
      [
        "ri",
        "ch"
      ],
      [
        "al",
        "ong"
      ],
      [
        "for",
        "med"
      ],
      [
        "ac",
        "c"
      ],
      [
        "li",
        "ps"
      ],
      [
        "we",
        "ather"
      ],
      [
        "do",
        "g"
      ],
      [
        "fe",
        "ll"
      ],
      [
        "ap",
        "point"
      ],
      [
        "con",
        "ce"
      ],
      [
        "est",
        "y"
      ],
      [
        "il",
        "ity"
      ],
      [
        "per",
        "fect"
      ],
      [
        "wor",
        "ld"
      ],
      [
        "Wh",
        "o"
      ],
      [
        "St",
        "ates"
      ],
      [
        "gl",
        "ad"
      ],
      [
        "bl",
        "ow"
      ],
      [
        "act",
        "ed"
      ],
      [
        "mor",
        "row"
      ],
      [
        "comp",
        "any"
      ],
      [
        "after",
        "wards"
      ],
      [
        "ves",
        "ti"
      ],
      [
        "oun",
        "t"
      ],
      [
        "new",
        "s"
      ],
      [
        "cor",
        "re"
      ],
      [
        "pi",
        "ece"
      ],
      [
        "bed",
        "room"
      ],
      [
        "appear",
        "s"
      ],
      [
        "em",
        "plo"
      ],
      [
        "laugh",
        "ing"
      ],
      [
        "sup",
        "pose"
      ],
      [
        "dif",
        "fer"
      ],
      [
        "cha",
        "mber"
      ],
      [
        "remain",
        "ed"
      ],
      [
        "list",
        "ened"
      ],
      [
        "mur",
        "der"
      ],
      [
        "whis",
        "per"
      ],
      [
        "sugg",
        "est"
      ],
      [
        "sear",
        "ch"
      ],
      [
        "slow",
        "ly"
      ],
      [
        "Maj",
        "esty"
      ],
      [
        "Hather",
        "ley"
      ],
      [
        "Ne",
        "ville"
      ],
      [
        "eBo",
        "ok"
      ],
      [
        "D",
        "id"
      ],
      [
        "E",
        "R"
      ],
      [
        "I",
        "s"
      ],
      [
        "O",
        "ur"
      ],
      [
        "O",
        "pen"
      ],
      [
        "c",
        "ru"
      ],
      [
        "d",
        "ut"
      ],
      [
        "f",
        "ro"
      ],
      [
        "i",
        "le"
      ],
      [
        "n",
        "umber"
      ],
      [
        "p",
        "al"
      ],
      [
        "r",
        "aph"
      ],
      [
        "s",
        "w"
      ],
      [
        "t",
        "ion"
      ],
      [
        "w",
        "ar"
      ],
      [
        "x",
        "ed"
      ],
      [
        "th",
        "or"
      ],
      [
        "in",
        "ation"
      ],
      [
        "in",
        "vesti"
      ],
      [
        "en",
        "de"
      ],
      [
        "to",
        "m"
      ],
      [
        "re",
        "fer"
      ],
      [
        "he",
        "m"
      ],
      [
        "le",
        "ad"
      ],
      [
        "be",
        "cause"
      ],
      [
        "ch",
        "o"
      ],
      [
        "no",
        "on"
      ],
      [
        "ent",
        "ire"
      ],
      [
        "ad",
        "m"
      ],
      [
        "ad",
        "v"
      ],
      [
        "for",
        "ce"
      ],
      [
        "ac",
        "qu"
      ],
      [
        "su",
        "sp"
      ],
      [
        "ag",
        "es"
      ],
      [
        "ag",
        "raph"
      ],
      [
        "do",
        "ctor"
      ],
      [
        "ap",
        "ped"
      ],
      [
        "con",
        "v"
      ],
      [
        "con",
        "cer"
      ],
      [
        "ge",
        "ese"
      ],
      [
        "ex",
        "t"
      ],
      [
        "see",
        "m"
      ],
      [
        "some",
        "one"
      ],
      [
        "fi",
        "eld"
      ],
      [
        "end",
        "ing"
      ],
      [
        "gl",
        "ance"
      ],
      [
        "br",
        "own"
      ],
      [
        "ci",
        "gar"
      ],
      [
        "ang",
        "ed"
      ],
      [
        "dre",
        "w"
      ],
      [
        "ise",
        "ly"
      ],
      [
        "No",
        "thing"
      ],
      [
        "after",
        "noon"
      ],
      [
        "poss",
        "i"
      ],
      [
        "par",
        "agraph"
      ],
      [
        "fort",
        "une"
      ],
      [
        "tak",
        "ing"
      ],
      [
        "offi",
        "cial"
      ],
      [
        "instant",
        "ly"
      ],
      [
        "miss",
        "ion"
      ],
      [
        "week",
        "s"
      ],
      [
        "feel",
        "ing"
      ],
      [
        "surpr",
        "ised"
      ],
      [
        "mas",
        "ter"
      ],
      [
        "agree",
        "ment"
      ],
      [
        "pull",
        "ed"
      ],
      [
        "quar",
        "ter"
      ],
      [
        "mil",
        "es"
      ],
      [
        "shar",
        "p"
      ],
      [
        "inno",
        "cent"
      ],
      [
        "deter",
        "min"
      ],
      [
        "dread",
        "ful"
      ],
      [
        "Qu",
        "ite"
      ],
      [
        "mach",
        "ine"
      ],
      [
        "investi",
        "g"
      ],
      [
        "A",
        "R"
      ],
      [
        "A",
        "l"
      ],
      [
        "C",
        "ol"
      ],
      [
        "C",
        "ity"
      ],
      [
        "G",
        "e"
      ],
      [
        "G",
        "er"
      ],
      [
        "I",
        "rene"
      ],
      [
        "b",
        "ac"
      ],
      [
        "b",
        "urn"
      ],
      [
        "d",
        "est"
      ],
      [
        "g",
        "lo"
      ],
      [
        "j",
        "e"
      ],
      [
        "l",
        "ater"
      ],
      [
        "p",
        "et"
      ],
      [
        "t",
        "ou"
      ],
      [
        "y",
        "ard"
      ],
      [
        "z",
        "e"
      ],
      [
        "—",
        "”"
      ],
      [
        "th",
        "od"
      ],
      [
        "th",
        "um"
      ],
      [
        "th",
        "ick"
      ],
      [
        "the",
        "or"
      ],
      [
        "as",
        "soci"
      ],
      [
        "it",
        "ness"
      ],
      [
        "me",
        "thod"
      ],
      [
        "ro",
        "pe"
      ],
      [
        "wi",
        "ce"
      ],
      [
        "li",
        "es"
      ],
      [
        "sh",
        "utter"
      ],
      [
        "sh",
        "ip"
      ],
      [
        "su",
        "f"
      ],
      [
        "us",
        "ing"
      ],
      [
        "ex",
        "tre"
      ],
      [
        "ate",
        "ver"
      ],
      [
        "pre",
        "t"
      ],
      [
        "should",
        "ers"
      ],
      [
        "br",
        "ide"
      ],
      [
        "int",
        "ed"
      ],
      [
        "sm",
        "iling"
      ],
      [
        "ty",
        "pe"
      ],
      [
        "pa",
        "le"
      ],
      [
        "pa",
        "id"
      ],
      [
        "dress",
        "ing"
      ],
      [
        "dou",
        "ble"
      ],
      [
        "vent",
        "il"
      ],
      [
        "clear",
        "ed"
      ],
      [
        "arm",
        "chair"
      ],
      [
        "form",
        "ation"
      ],
      [
        "wait",
        "ed"
      ],
      [
        "cent",
        "re"
      ],
      [
        "ash",
        "ed"
      ],
      [
        "Bo",
        "s"
      ],
      [
        "eng",
        "th"
      ],
      [
        "dro",
        "pped"
      ],
      [
        "follow",
        "ing"
      ],
      [
        "exam",
        "ined"
      ],
      [
        "bu",
        "ild"
      ],
      [
        "Ar",
        "ch"
      ],
      [
        "import",
        "ance"
      ],
      [
        "wood",
        "en"
      ],
      [
        "sho",
        "ok"
      ],
      [
        "evid",
        "ence"
      ],
      [
        "surpr",
        "ise"
      ],
      [
        "lan",
        "e"
      ],
      [
        "assist",
        "ant"
      ],
      [
        "Ind",
        "eed"
      ],
      [
        "mak",
        "ing"
      ],
      [
        "impress",
        "ion"
      ],
      [
        "event",
        "s"
      ],
      [
        "pow",
        "er"
      ],
      [
        "Un",
        "ited"
      ],
      [
        "arri",
        "ved"
      ],
      [
        "appro",
        "ach"
      ],
      [
        "Per",
        "haps"
      ],
      [
        "whisper",
        "ed"
      ],
      [
        "Open",
        "shaw"
      ],
      [
        "ende",
        "av"
      ],
      [
        "entire",
        "ly"
      ],
      [
        "susp",
        "ic"
      ],
      [
        "determin",
        "ed"
      ],
      [
        "Ge",
        "or"
      ],
      [
        "Ger",
        "man"
      ],
      [
        "1",
        "8"
      ],
      [
        "A",
        "b"
      ],
      [
        "B",
        "e"
      ],
      [
        "H",
        "er"
      ],
      [
        "O",
        "R"
      ],
      [
        "P",
        "e"
      ],
      [
        "S",
        "co"
      ],
      [
        "S",
        "quare"
      ],
      [
        "b",
        "ra"
      ],
      [
        "c",
        "al"
      ],
      [
        "d",
        "le"
      ],
      [
        "f",
        "ur"
      ],
      [
        "i",
        "ch"
      ],
      [
        "l",
        "s"
      ],
      [
        "n",
        "arr"
      ],
      [
        "p",
        "h"
      ],
      [
        "t",
        "s"
      ],
      [
        "t",
        "all"
      ],
      [
        "u",
        "ally"
      ],
      [
        "th",
        "ird"
      ],
      [
        "th",
        "irty"
      ],
      [
        "er",
        "tain"
      ],
      [
        "an",
        "x"
      ],
      [
        "ed",
        "ing"
      ],
      [
        "to",
        "p"
      ],
      [
        "re",
        "s"
      ],
      [
        "ar",
        "rest"
      ],
      [
        "ll",
        "ent"
      ],
      [
        "le",
        "a"
      ],
      [
        "st",
        "ret"
      ],
      [
        "ve",
        "l"
      ],
      [
        "ent",
        "s"
      ],
      [
        "li",
        "ve"
      ],
      [
        "ne",
        "ither"
      ],
      [
        "ti",
        "ll"
      ],
      [
        "con",
        "sult"
      ],
      [
        "tr",
        "ave"
      ],
      [
        "your",
        "s"
      ],
      [
        "ex",
        "pen"
      ],
      [
        "she",
        "et"
      ],
      [
        "com",
        "be"
      ],
      [
        "ca",
        "used"
      ],
      [
        "gl",
        "ed"
      ],
      [
        "ish",
        "ment"
      ],
      [
        "ear",
        "ly"
      ],
      [
        "turn",
        "ing"
      ],
      [
        "did",
        "n"
      ],
      [
        "ser",
        "vant"
      ],
      [
        "say",
        "s"
      ],
      [
        "min",
        "al"
      ],
      [
        "ud",
        "ing"
      ],
      [
        "answ",
        "er"
      ],
      [
        "sit",
        "u"
      ],
      [
        "sat",
        "is"
      ],
      [
        "Bo",
        "hem"
      ],
      [
        "eng",
        "aged"
      ],
      [
        "Ro",
        "ad"
      ],
      [
        "fin",
        "ally"
      ],
      [
        "To",
        "ller"
      ],
      [
        "wat",
        "ch"
      ],
      [
        "exce",
        "llent"
      ],
      [
        "inc",
        "ident"
      ],
      [
        "00",
        "0"
      ],
      [
        "colour",
        "ed"
      ],
      [
        "Co",
        "me"
      ],
      [
        "smo",
        "ke"
      ],
      [
        "rec",
        "ord"
      ],
      [
        "Ad",
        "ler"
      ],
      [
        "beaut",
        "if"
      ],
      [
        "gard",
        "en"
      ],
      [
        "hea",
        "vi"
      ],
      [
        "cell",
        "ar"
      ],
      [
        "ye",
        "llow"
      ],
      [
        "tru",
        "th"
      ],
      [
        "swi",
        "ft"
      ],
      [
        "isto",
        "l"
      ],
      [
        "Col",
        "onel"
      ],
      [
        "thum",
        "b"
      ],
      [
        "extre",
        "me"
      ],
      [
        "ventil",
        "ator"
      ],
      [
        "Bos",
        "combe"
      ],
      [
        "A",
        "D"
      ],
      [
        "A",
        "N"
      ],
      [
        "J",
        "ust"
      ],
      [
        "a",
        "ver"
      ],
      [
        "b",
        "or"
      ],
      [
        "b",
        "ent"
      ],
      [
        "b",
        "ber"
      ],
      [
        "c",
        "ard"
      ],
      [
        "c",
        "um"
      ],
      [
        "c",
        "ourt"
      ],
      [
        "e",
        "ight"
      ],
      [
        "f",
        "aced"
      ],
      [
        "f",
        "ancy"
      ],
      [
        "h",
        "on"
      ],
      [
        "n",
        "ine"
      ],
      [
        "n",
        "arrow"
      ],
      [
        "s",
        "end"
      ],
      [
        "s",
        "ense"
      ],
      [
        "v",
        "ac"
      ],
      [
        "v",
        "our"
      ],
      [
        "v",
        "ate"
      ],
      [
        "w",
        "ro"
      ],
      [
        "er",
        "ary"
      ],
      [
        "an",
        "e"
      ],
      [
        "en",
        "ing"
      ],
      [
        "en",
        "velo"
      ],
      [
        "re",
        "mo"
      ],
      [
        "ar",
        "s"
      ],
      [
        "ha",
        "m"
      ],
      [
        "wh",
        "ist"
      ],
      [
        "le",
        "an"
      ],
      [
        "st",
        "ain"
      ],
      [
        "st",
        "ra"
      ],
      [
        "se",
        "at"
      ],
      [
        "ow",
        "s"
      ],
      [
        "ch",
        "in"
      ],
      [
        "no",
        "ble"
      ],
      [
        "ce",
        "pt"
      ],
      [
        "ad",
        "d"
      ],
      [
        "ter",
        "rible"
      ],
      [
        "ke",
        "eper"
      ],
      [
        "ti",
        "es"
      ],
      [
        "con",
        "s"
      ],
      [
        "tr",
        "ack"
      ],
      [
        "tr",
        "ans"
      ],
      [
        "qu",
        "e"
      ],
      [
        "ex",
        "press"
      ],
      [
        "ate",
        "ly"
      ],
      [
        "wor",
        "n"
      ],
      [
        "pre",
        "sence"
      ],
      [
        "should",
        "er"
      ],
      [
        "pro",
        "v"
      ],
      [
        "int",
        "ro"
      ],
      [
        "mark",
        "s"
      ],
      [
        "um",
        "n"
      ],
      [
        "led",
        "ge"
      ],
      [
        "friend",
        "s"
      ],
      [
        "sc",
        "ene"
      ],
      [
        "sc",
        "ream"
      ],
      [
        "ud",
        "ed"
      ],
      [
        "clear",
        "ly"
      ],
      [
        "col",
        "onel"
      ],
      [
        "bro",
        "ke"
      ],
      [
        "walk",
        "ing"
      ],
      [
        "pu",
        "shed"
      ],
      [
        "dark",
        "ness"
      ],
      [
        "beg",
        "in"
      ],
      [
        "di",
        "ed"
      ],
      [
        "fam",
        "i"
      ],
      [
        "prom",
        "ise"
      ],
      [
        "pleas",
        "ant"
      ],
      [
        "Br",
        "ad"
      ],
      [
        "soci",
        "ety"
      ],
      [
        "prob",
        "ably"
      ],
      [
        "sub",
        "ject"
      ],
      [
        "mid",
        "dle"
      ],
      [
        "difficul",
        "t"
      ],
      [
        "profession",
        "al"
      ],
      [
        "feature",
        "s"
      ],
      [
        "continu",
        "ed"
      ],
      [
        "inqu",
        "ir"
      ],
      [
        "Mon",
        "day"
      ],
      [
        "fright",
        "ened"
      ],
      [
        "appoint",
        "ment"
      ],
      [
        "differ",
        "ent"
      ],
      [
        "Geor",
        "ge"
      ],
      [
        "Sco",
        "t"
      ],
      [
        "wro",
        "te"
      ],
      [
        "envelo",
        "pe"
      ],
      [
        ".",
        ","
      ],
      [
        "C",
        "on"
      ],
      [
        "C",
        "ertain"
      ],
      [
        "L",
        "E"
      ],
      [
        "L",
        "I"
      ],
      [
        "L",
        "it"
      ],
      [
        "M",
        "oran"
      ],
      [
        "N",
        "ever"
      ],
      [
        "b",
        "ag"
      ],
      [
        "b",
        "ound"
      ],
      [
        "e",
        "qu"
      ],
      [
        "f",
        "le"
      ],
      [
        "f",
        "ac"
      ],
      [
        "g",
        "room"
      ],
      [
        "h",
        "ous"
      ],
      [
        "h",
        "um"
      ],
      [
        "i",
        "ed"
      ],
      [
        "l",
        "ar"
      ],
      [
        "l",
        "ens"
      ],
      [
        "n",
        "i"
      ],
      [
        "n",
        "ice"
      ],
      [
        "r",
        "al"
      ],
      [
        "s",
        "me"
      ],
      [
        "t",
        "ried"
      ],
      [
        "u",
        "ff"
      ],
      [
        "in",
        "side"
      ],
      [
        "as",
        "tic"
      ],
      [
        "re",
        "g"
      ],
      [
        "re",
        "spect"
      ],
      [
        "and",
        "al"
      ],
      [
        "of",
        "ten"
      ],
      [
        "or",
        "g"
      ],
      [
        "ar",
        "ms"
      ],
      [
        "it",
        "al"
      ],
      [
        "it",
        "ation"
      ],
      [
        "wh",
        "atever"
      ],
      [
        "ch",
        "ur"
      ],
      [
        "ch",
        "ief"
      ],
      [
        "ro",
        "of"
      ],
      [
        "wi",
        "ld"
      ],
      [
        "id",
        "es"
      ],
      [
        "ad",
        "venture"
      ],
      [
        "im",
        "men"
      ],
      [
        "im",
        "possible"
      ],
      [
        "ter",
        "day"
      ],
      [
        "ac",
        "cess"
      ],
      [
        "sh",
        "out"
      ],
      [
        "am",
        "ed"
      ],
      [
        "am",
        "id"
      ],
      [
        "su",
        "me"
      ],
      [
        "ind",
        "ic"
      ],
      [
        "un",
        "fortunate"
      ],
      [
        "tr",
        "ap"
      ],
      [
        "de",
        "lic"
      ],
      [
        "ge",
        "ms"
      ],
      [
        "ex",
        "act"
      ],
      [
        "ex",
        "plan"
      ],
      [
        "there",
        "fore"
      ],
      [
        "ra",
        "ise"
      ],
      [
        "ra",
        "ised"
      ],
      [
        "ous",
        "ly"
      ],
      [
        "ist",
        "ed"
      ],
      [
        "pro",
        "of"
      ],
      [
        "ho",
        "od"
      ],
      [
        "know",
        "ledge"
      ],
      [
        "bo",
        "ots"
      ],
      [
        "ru",
        "sh"
      ],
      [
        "cl",
        "ue"
      ],
      [
        "cl",
        "oud"
      ],
      [
        "ear",
        "n"
      ],
      [
        "ang",
        "ing"
      ],
      [
        "gr",
        "as"
      ],
      [
        "el",
        "s"
      ],
      [
        "pa",
        "th"
      ],
      [
        "sol",
        "ved"
      ],
      [
        "sol",
        "ution"
      ],
      [
        "ef",
        "fort"
      ],
      [
        "comm",
        "un"
      ],
      [
        "vis",
        "it"
      ],
      [
        "dist",
        "ur"
      ],
      [
        "dist",
        "inct"
      ],
      [
        "Ro",
        "ss"
      ],
      [
        "reason",
        "ing"
      ],
      [
        "hur",
        "ry"
      ],
      [
        "trade",
        "mark"
      ],
      [
        "exam",
        "ple"
      ],
      [
        "hor",
        "se"
      ],
      [
        "hor",
        "ror"
      ],
      [
        "hor",
        "rible"
      ],
      [
        "spo",
        "ken"
      ],
      [
        "sign",
        "s"
      ],
      [
        "near",
        "ly"
      ],
      [
        "pri",
        "vate"
      ],
      [
        "Engl",
        "ish"
      ],
      [
        "hu",
        "man"
      ],
      [
        "exc",
        "use"
      ],
      [
        "sli",
        "p"
      ],
      [
        "sli",
        "pped"
      ],
      [
        "throw",
        "ing"
      ],
      [
        "dedu",
        "ce"
      ],
      [
        "EN",
        "T"
      ],
      [
        "Hor",
        "ner"
      ],
      [
        "expe",
        "cted"
      ],
      [
        "natur",
        "al"
      ],
      [
        "Le",
        "ague"
      ],
      [
        "month",
        "s"
      ],
      [
        "build",
        "ing"
[...]
