{
  "version": "1.0",
  "truncation": null,
  "padding": null,
  "added_tokens": [
    {
      "id": 0,
      "content": "[UNK]",
      "single_word": false,
      "lstrip": false,
      "rstrip": false,
      "normalized": false,
      "special": true
    },
    {
      "id": 1,
      "content": "[PAD]",
      "single_word": false,
      "lstrip": false,
      "rstrip": false,
      "normalized": false,
      "special": true
    },
    {
      "id": 2,
      "content": "[CLS]",
      "single_word": false,
      "lstrip": false,
      "rstrip": false,
      "normalized": false,
      "special": true
    },
    {
      "id": 3,
      "content": "[SEP]",
      "single_word": false,
      "lstrip": false,
      "rstrip": false,
      "normalized": false,
      "special": true
    },
    {
      "id": 4,
      "content": "[MASK]",
      "single_word": false,
      "lstrip": false,
      "rstrip": false,
      "normalized": false,
      "special": true
    }
  ],
  "normalizer": null,
  "pre_tokenizer": {
    "type": "Whitespace"
  },
  "post_processor": null,
  "decoder": null,
  "model": {
    "type": "BPE",
    "dropout": null,
    "unk_token": "[UNK]",
    "continuing_subword_prefix": null,
    "end_of_word_suffix": null,
    "fuse_unk": false,
    "byte_fallback": false,
    "ignore_merges": false,
    "vocab": {
      "[UNK]": 0,
      "[PAD]": 1,
      "[CLS]": 2,
      "[SEP]": 3,
      "[MASK]": 4,
      "!": 5,
      "#": 6,
      "$": 7,
      "%": 8,
      "&": 9,
      "'": 10,
      "(": 11,
      ")": 12,
      "*": 13,
      ",": 14,
      "-": 15,
      ".": 16,
      "/": 17,
      "0": 18,
      "1": 19,
      "2": 20,
      "3": 21,
      "4": 22,
      "5": 23,
      "6": 24,
      "7": 25,
      "8": 26,
      "9": 27,
      ":": 28,
      ";": 29,
      "?": 30,
      "A": 31,
      "B": 32,
      "C": 33,
      "D": 34,
      "E": 35,
      "F": 36,
      "G": 37,
      "H": 38,
      "I": 39,
      "J": 40,
      "K": 41,
      "L": 42,
      "M": 43,
      "N": 44,
      "O": 45,
      "P": 46,
      "Q": 47,
      "R": 48,
      "S": 49,
      "T": 50,
      "U": 51,
      "V": 52,
      "W": 53,
      "X": 54,
      "Y": 55,
      "Z": 56,
      "[": 57,
      "]": 58,
      "^": 59,
      "_": 60,
      "a": 61,
      "b": 62,
      "c": 63,
      "d": 64,
      "e": 65,
      "f": 66,
      "g": 67,
      "h": 68,
      "i": 69,
      "j": 70,
      "k": 71,
      "l": 72,
      "m": 73,
      "n": 74,
      "o": 75,
      "p": 76,
      "q": 77,
      "r": 78,
      "s": 79,
      "t": 80,
      "u": 81,
      "v": 82,
      "w": 83,
      "x": 84,
      "y": 85,
      "z": 86,
      "{": 87,
      "}": 88,
      "£": 89,
      "·": 90,
      "à": 91,
      "â": 92,
      "ä": 93,
      "æ": 94,
      "ç": 95,
      "è": 96,
      "é": 97,
      "ê": 98,
      "ë": 99,
      "ï": 100,
      "ô": 101,
      "œ": 102,
      "–": 103,
      "—": 104,
      "‘": 105,
      "’": 106,
      "“": 107,
      "”": 108,
      "•": 109,
      "™": 110,
      "﻿": 111,
      "he": 112,
      "in": 113,
      "an": 114,
      "the": 115,
      "re": 116,
      "ou": 117,
      "on": 118,
      "er": 119,
      "th": 120,
      "ed": 121,
      "at": 122,
      "to": 123,
      "and": 124,
      "en": 125,
      "is": 126,
      "as": 127,
      "ing": 128,
      "of": 129,
      "or": 130,
      "ar": 131,
      "it": 132,
      "es": 133,
      "ll": 134,
      "ha": 135,
      "le": 136,
      "me": 137,
      "se": 138,
      "st": 139,
      "be": 140,
      "no": 141,
      "hi": 142,
      "ro": 143,
      "you": 144,
      "wi": 145,
      "ld": 146,
      "ve": 147,
      "ce": 148,
      "ch": 149,
      "li": 150,
      "ly": 151,
      "was": 152,
      "ent": 153,
      "gh": 154,
      "ver": 155,
      "id": 156,
      "his": 157,
      "ion": 158,
      "that": 159,
      "for": 160,
      "ut": 161,
      "ad": 162,
      "al": 163,
      "with": 164,
      "her": 165,
      "ow": 166,
      "ir": 167,
      "so": 168,
      "we": 169,
      "ay": 170,
      "my": 171,
      "not": 172,
      "ter": 173,
      "co": 174,
      "ri": 175,
      "all": 176,
      "had": 177,
      "ould": 178,
      "ct": 179,
      "su": 180,
      "ght": 181,
      "ther": 182,
      "de": 183,
      "un": 184,
      "ho": 185,
      "fe": 186,
      "ne": 187,
      "lo": 188,
      "him": 189,
      "ag": 190,
      "red": 191,
      "ur": 192,
      "sa": 193,
      ".”": 194,
      "mo": 195,
      "pe": 196,
      "she": 197,
      "ke": 198,
      "ab": 199,
      "ain": 200,
      "con": 201,
      "ac": 202,
      "ti": 203,
      "ess": 204,
      "have": 205,
      "our": 206,
      "The": 207,
      "one": 208,
      "Mr": 209,
      "po": 210,
      "am": 211,
      "out": 212,
      "by": 213,
      "whi": 214,
      "but": 215,
      "up": 216,
      "man": 217,
      "do": 218,
      "are": 219,
      "qu": 220,
      ",”": 221,
      "whe": 222,
      "res": 223,
      "oun": 224,
      "mp": 225,
      "te": 226,
      "rom": 227,
      "hat": 228,
      "od": 229,
      "et": 230,
      "ation": 231,
      "ex": 232,
      "which": 233,
      "ard": 234,
      "sh": 235,
      "if": 236,
      "said": 237,
      "ra": 238,
      "ok": 239,
      "now": 240,
      "from": 241,
      "go": 242,
      "per": 243,
      "were": 244,
      "lf": 245,
      "us": 246,
      "ind": 247,
      "?”": 248,
      "He": 249,
      "this": 250,
      "very": 251,
      "ic": 252,
      "who": 253,
      "fo": 254,
      "ment": 255,
      "il": 256,
      "they": 257,
      "ul": 258,
      "would": 259,
      "ust": 260,
      "dis": 261,
      "ight": 262,
      "end": 263,
      "ous": 264,
      "wor": 265,
      "ap": 266,
      "ge": 267,
      "ong": 268,
      "some": 269,
      "est": 270,
      "ant": 271,
      "ry": 272,
      "your": 273,
      "ast": 274,
      "self": 275,
      "fa": 276,
      "ate": 277,
      "them": 278,
      "own": 279,
      "pro": 280,
      "thing": 281,
      "ak": 282,
      "could": 283,
      "!”": 284,
      "any": 285,
      "la": 286,
      "been": 287,
      "ound": 288,
      "art": 289,
      "ough": 290,
      "way": 291,
      "there": 292,
      "itt": 293,
      "their": 294,
      "when": 295,
      "ill": 296,
      "see": 297,
      "wo": 298,
      "bo": 299,
      "able": 300,
      "other": 301,
      "af": 302,
      "der": 303,
      "what": 304,
      "will": 305,
      "ca": 306,
      "ved": 307,
      "mb": 308,
      "ance": 309,
      "look": 310,
      "ine": 311,
      "ity": 312,
      "urn": 313,
      "op": 314,
      "med": 315,
      "reat": 316,
      "ive": 317,
      "ck": 318,
      "fore": 319,
      "ru": 320,
      "ure": 321,
      "know": 322,
      "into": 323,
      "more": 324,
      "ven": 325,
      "sed": 326,
      "che": 327,
      "com": 328,
      "can": 329,
      "ence": 330,
      "ret": 331,
      "than": 332,
      "di": 333,
      "pp": 334,
      "ake": 335,
      "hand": 336,
      "fi": 337,
      "rep": 338,
      "int": 339,
      "ought": 340,
      "It": 341,
      "ide": 342,
      "pr": 343,
      "ep": 344,
      "si": 345,
      "age": 346,
      "should": 347,
      "ist": 348,
      "ect": 349,
      "day": 350,
      "again": 351,
      "sha": 352,
      "then": 353,
      "iss": 354,
      "like": 355,
      "ci": 356,
      "ving": 357,
      "comp": 358,
      "mu": 359,
      "ink": 360,
      "time": 361,
      "ittle": 362,
      "pl": 363,
      "ort": 364,
      "read": 365,
      "its": 366,
      "little": 367,
      "ish": 368,
      "ng": 369,
      "did": 370,
      "om": 371,
      "row": 372,
      "You": 373,
      "ree": 374,
      "ers": 375,
      "ack": 376,
      "ath": 377,
      "ever": 378,
      "ran": 379,
      "ade": 380,
      "over": 381,
      "upon": 382,
      "ass": 383,
      "ob": 384,
      "use": 385,
      "before": 386,
      "ite": 387,
      "An": 388,
      "ear": 389,
      "ked": 390,
      "el": 391,
      "pres": 392,
      "ble": 393,
      "great": 394,
      "ser": 395,
      "--": 396,
      "how": 397,
      "sto": 398,
      "sp": 399,
      "after": 400,
      "much": 401,
      "ness": 402,
      "ally": 403,
      "such": 404,
      "long": 405,
      "less": 406,
      "des": 407,
      "down": 408,
      "must": 409,
      "ject": 410,
      "never": 411,
      "im": 412,
      "where": 413,
      "ef": 414,
      "has": 415,
      "most": 416,
      "vi": 417,
      "ount": 418,
      "ey": 419,
      "about": 420,
      "gr": 421,
      "ated": 422,
      "cl": 423,
      "under": 424,
      "ose": 425,
      "spe": 426,
      "ol": 427,
      "But": 428,
      "well": 429,
      "ried": 430,
      "fir": 431,
      "hed": 432,
      "say": 433,
      "ction": 434,
      "ary": 435,
      "led": 436,
      "only": 437,
      "two": 438,
      "off": 439,
      "ren": 440,
      "ans": 441,
      "ise": 442,
      "good": 443,
      "ward": 444,
      "ty": 445,
      "tain": 446,
      "And": 447,
      "No": 448,
      "low": 449,
      "pos": 450,
      "ful": 451,
      "ouse": 452,
      "She": 453,
      "ber": 454,
      "orn": 455,
      "chi": 456,
      "lad": 457,
      "come": 458,
      "Miss": 459,
      "light": 460,
      "Mrs": 461,
      "ple": 462,
      "head": 463,
      "mar": 464,
      "made": 465,
      "ach": 466,
      "bet": 467,
      "think": 468,
      "ff": 469,
      "br": 470,
      "here": 471,
      "ang": 472,
      "ted": 473,
      "room": 474,
      "might": 475,
      "clo": 476,
      "old": 477,
      "count": 478,
      "ies": 479,
      "tr": 480,
      "cy": 481,
      "thought": 482,
      "night": 483,
      "let": 484,
      "every": 485,
      "house": 486,
      "air": 487,
      "gent": 488,
      "being": 489,
      "ened": 490,
      "came": 491,
      "too": 492,
      "ave": 493,
      "liver": 494,
      "sc": 495,
      "men": 496,
      "ull": 497,
      "tor": 498,
      "right": 499,
      "par": 500,
      "turn": 501,
      "work": 502,
      "door": 503,
      "ice": 504,
      "himself": 505,
      "ig": 506,
      "mon": 507,
      "shall": 508,
      "new": 509,
      "part": 510,
      "don": 511,
      "first": 512,
      "min": 513,
      "Oliver": 514,
      "pt": 515,
      "imp": 516,
      "att": 517,
      "young": 518,
      "may": 519,
      "lied": 520,
      "word": 521,
      "arm": 522,
      "even": 523,
      "ily": 524,
      "though": 525,
      "ced": 526,
      "ions": 527,
      "back": 528,
      "son": 529,
      "cour": 530,
      "bl": 531,
      "pre": 532,
      "umb": 533,
      "ick": 534,
      "vo": 535,
      "cted": 536,
      "pleas": 537,
      "without": 538,
      "ane": 539,
      "What": 540,
      "ps": 541,
      "went": 542,
      "ves": 543,
      "cont": 544,
      "cer": 545,
      "dist": 546,
      "eyes": 547,
      "ft": 548,
      "ious": 549,
      "face": 550,
      "looked": 551,
      "these": 552,
      "ten": 553,
      "rest": 554,
      "ress": 555,
      "gentle": 556,
      "qui": 557,
      "replied": 558,
      "side": 559,
      "sm": 560,
      "thr": 561,
      "arge": 562,
      "form": 563,
      "king": 564,
      "tell": 565,
      "make": 566,
      "au": 567,
      "last": 568,
      "ner": 569,
      "llow": 570,
      "put": 571,
      "appe": 572,
      "happ": 573,
      "away": 574,
      "return": 575,
      "um": 576,
      "oc": 577,
      "In": 578,
      "Pro": 579,
      "liz": 580,
      "ma": 581,
      "Eliz": 582,
      "Eliza": 583,
      "lie": 584,
      "get": 585,
      "pa": 586,
      "We": 587,
      "aster": 588,
      "nothing": 589,
      "call": 590,
      "fri": 591,
      "ather": 592,
      "fort": 593,
      "sat": 594,
      "ame": 595,
      "ared": 596,
      "cas": 597,
      "beg": 598,
      "soon": 599,
      "sir": 600,
      "lt": 601,
      "ations": 602,
      "ings": 603,
      "lace": 604,
      "set": 605,
      "tim": 606,
      "friend": 607,
      "mind": 608,
      "cause": 609,
      "cha": 610,
      "hear": 611,
      "bre": 612,
      "bed": 613,
      "Jane": 614,
      "beth": 615,
      "myself": 616,
      "Elizabeth": 617,
      "just": 618,
      "many": 619,
      "took": 620,
      "still": 621,
      "les": 622,
      "aking": 623,
      "take": 624,
      "saw": 625,
      "full": 626,
      "nat": 627,
      "ud": 628,
      "those": 629,
      "dear": 630,
      "through": 631,
      "iness": 632,
      "ster": 633,
      "life": 634,
      "arn": 635,
      "child": 636,
      "hen": 637,
      "while": 638,
      "gu": 639,
      "wards": 640,
      "feel": 641,
      "yet": 642,
      "ling": 643,
      "str": 644,
      "left": 645,
      "There": 646,
      "hy": 647,
      "wal": 648,
      "ister": 649,
      "got": 650,
      "ished": 651,
      "nor": 652,
      "sho": 653,
      "wind": 654,
      "heart": 655,
      "cons": 656,
      "ways": 657,
      "car": 658,
      "ged": 659,
      "heard": 660,
      "lic": 661,
      "jo": 662,
      "add": 663,
      "If": 664,
      "till": 665,
      "ss": 666,
      "ew": 667,
      "sur": 668,
      "ER": 669,
      "bro": 670,
      "They": 671,
      "uten": 672,
      "hour": 673,
      "inter": 674,
      "father": 675,
      "place": 676,
      "half": 677,
      "mat": 678,
      "gi": 679,
      "ley": 680,
      "bod": 681,
      "ting": 682,
      "same": 683,
      "berg": 684,
      "sure": 685,
      "give": 686,
      "another": 687,
      "reas": 688,
      "ces": 689,
      "cli": 690,
      "kind": 691,
      "pass": 692,
      "ople": 693,
      "utenberg": 694,
      "three": 695,
      "cle": 696,
      "want": 697,
      "cess": 698,
      "wat": 699,
      "ition": 700,
      "sol": 701,
      "ither": 702,
      "once": 703,
      "seemed": 704,
      "vis": 705,
      "master": 706,
      "eld": 707,
      "year": 708,
      "ently": 709,
      "found": 710,
      "gir": 711,
      "stand": 712,
      "better": 713,
      "people": 714,
      "sen": 715,
      "asked": 716,
      "ue": 717,
      "certain": 718,
      "gl": 719,
      "ks": 720,
      "eng": 721,
      "inst": 722,
      "gentleman": 723,
      "sub": 724,
      "boy": 725,
      "girl": 726,
      "fl": 727,
      "ined": 728,
      "tic": 729,
      "ener": 730,
      "Cather": 731,
      "spo": 732,
      "Catherine": 733,
      "round": 734,
      "stre": 735,
      "point": 736,
      "emp": 737,
      "lady": 738,
      "ched": 739,
      "comm": 740,
      "obser": 741,
      "Gutenberg": 742,
      "far": 743,
      "ark": 744,
      "Project": 745,
      "times": 746,
      "My": 747,
      "pi": 748,
      "raw": 749,
      "tal": 750,
      "body": 751,
      "Ch": 752,
      "cried": 753,
      "love": 754,
      "vent": 755,
      "person": 756,
      "Ro": 757,
      "den": 758,
      "pose": 759,
      "fect": 760,
      "always": 761,
      "both": 762,
      "rew": 763,
      "done": 764,
      "because": 765,
      "wr": 766,
      "pect": 767,
      "shi": 768,
      "enough": 769,
      "This": 770,
      "cliff": 771,
      "sil": 772,
      "Heath": 773,
      "deed": 774,
      "near": 775,
      "ref": 776,
      "ts": 777,
      "reg": 778,
      "Heathcliff": 779,
      "wa": 780,
      "moment": 781,
      "cur": 782,
      "ton": 783,
      "cei": 784,
      "cond": 785,
      "temp": 786,
      "used": 787,
      "lay": 788,
      "ms": 789,
      "St": 790,
      "ord": 791,
      "orry": 792,
      "vers": 793,
      "mer": 794,
      "ited": 795,
      "few": 796,
      "pur": 797,
      "ars": 798,
      "herself": 799,
      "looking": 800,
      "pped": 801,
      "having": 802,
      "quest": 803,
      "Yes": 804,
      "land": 805,
      "hard": 806,
      "ron": 807,
      "won": 808,
      "against": 809,
      "morn": 810,
      "care": 811,
      "ince": 812,
      "ised": 813,
      "stood": 814,
      "Oh": 815,
      "sister": 816,
      "hope": 817,
      "rown": 818,
      "seen": 819,
      "quite": 820,
      "That": 821,
      "turned": 822,
      "umble": 823,
      "cannot": 824,
      "cu": 825,
      "morning": 826,
      "cho": 827,
      "hands": 828,
      "fam": 829,
      "sup": 830,
      "How": 831,
      "ger": 832,
      "net": 833,
      "follow": 834,
      "words": 835,
      "Dar": 836,
      "ins": 837,
      "ended": 838,
      "hor": 839,
      "vant": 840,
      "rel": 841,
      "felt": 842,
      "Darcy": 843,
      "act": 844,
      "dif": 845,
      "home": 846,
      "mber": 847,
      "feren": 848,
      "live": 849,
      "eas": 850,
      "run": 851,
      "und": 852,
      "ments": 853,
      "tra": 854,
      "manner": 855,
      "tru": 856,
      "among": 857,
      "woman": 858,
      "kes": 859,
      "inton": 860,
      "press": 861,
      "Linton": 862,
      "draw": 863,
      "told": 864,
      "stran": 865,
      "exc": 866,
      "sible": 867,
      "cri": 868,
      "conf": 869,
      "As": 870,
      "hn": 871,
      "something": 872,
      "fast": 873,
      "ates": 874,
      "ison": 875,
      "ween": 876,
      "belie": 877,
      "dark": 878,
      "oub": 879,
      "rather": 880,
      "going": 881,
      "gn": 882,
      "ute": 883,
      "gether": 884,
      "ered": 885,
      "wish": 886,
      "together": 887,
      "ately": 888,
      "Co": 889,
      "Th": 890,
      "country": 891,
      "voice": 892,
      "often": 893,
      "ready": 894,
      "between": 895,
      "tak": 896,
      "vid": 897,
      "mean": 898,
      "speak": 899,
      "reason": 900,
      "keep": 901,
      "window": 902,
      "HA": 903,
      "When": 904,
      "knew": 905,
      "wer": 906,
      "Bumble": 907,
      "bus": 908,
      "ney": 909,
      "contin": 910,
      "main": 911,
      "So": 912,
      "ating": 913,
      "cap": 914,
      "char": 915,
      "tered": 916,
      "years": 917,
      "agin": 918,
      "ning": 919,
      "ot": 920,
      "oud": 921,
      "mor": 922,
      "indeed": 923,
      "almost": 924,
      "assed": 925,
      "hold": 926,
      "posed": 927,
      "dire": 928,
      "mother": 929,
      "world": 930,
      "each": 931,
      "tre": 932,
      "returned": 933,
      "Mon": 934,
      "name": 935,
      "ond": 936,
      "show": 937,
      "wered": 938,
      "answered": 939,
      "cept": 940,
      "ular": 941,
      "strong": 942,
      "Roche": 943,
      "gave": 944,
      "towards": 945,
      "Lorry": 946,
      "sent": 947,
      "haps": 948,
      "mis": 949,
      "whom": 950,
      "gener": 951,
      "Rochester": 952,
      "whole": 953,
      "open": 954,
      "present": 955,
      "Si": 956,
      "To": 957,
      "ceived": 958,
      "fire": 959,
      "acc": 960,
      "Ben": 961,
      "sit": 962,
      "leave": 963,
      "brought": 964,
      "His": 965,
      "TER": 966,
      "aw": 967,
      "ken": 968,
      "course": 969,
      "gone": 970,
      "ste": 971,
      "however": 972,
      "Char": 973,
      "Sikes": 974,
      "called": 975,
      "find": 976,
      "sel": 977,
      "ith": 978,
      "ped": 979,
      "stair": 980,
      "vour": 981,
      "bit": 982,
      "since": 983,
      "began": 984,
      "ire": 985,
      "table": 986,
      "ghter": 987,
      "CHA": 988,
      "hur": 989,
      "passed": 990,
      "answer": 991,
      "port": 992,
      "ering": 993,
      "ceed": 994,
      "pri": 995,
      "vil": 996,
      "whether": 997,
      "law": 998,
      "ph": 999,
      "high": 1000,
      "Bennet": 1001,
      "field": 1002,
      "continu": 1003,
      "stru": 1004,
      "ower": 1005,
      "ably": 1006,
      "doub": 1007,
      "xt": 1008,
      "small": 1009,
      "ele": 1010,
      "reco": 1011,
      "iz": 1012,
      "poor": 1013,
      "least": 1014,
      "Jew": 1015,
      "pu": 1016,
      "days": 1017,
      "gra": 1018,
      "bes": 1019,
      "val": 1020,
      "cold": 1021,
      "short": 1022,
      "hon": 1023,
      "ied": 1024,
      "aint": 1025,
      "express": 1026,
      "ah": 1027,
      "hel": 1028,
      "book": 1029,
      "PTER": 1030,
      "cked": 1031,
      "family": 1032,
      "CHAPTER": 1033,
      "Bing": 1034,
      "Bingley": 1035,
      "At": 1036,
      "road": 1037,
      "wife": 1038,
      "chair": 1039,
      "business": 1040,
      "Def": 1041,
      "agree": 1042,
      "anything": 1043,
      "appear": 1044,
      "sever": 1045,
      "perhaps": 1046,
      "mist": 1047,
      "dered": 1048,
      "Well": 1049,
      "os": 1050,
      "does": 1051,
      "coming": 1052,
      "taken": 1053,
      "For": 1054,
      "four": 1055,
      "ery": 1056,
      "tow": 1057,
      "allow": 1058,
      "remain": 1059,
      "things": 1060,
      "Fagin": 1061,
      "lau": 1062,
      "street": 1063,
      "adm": 1064,
      "Defarge": 1065,
      "large": 1066,
      "du": 1067,
      "either": 1068,
      "ene": 1069,
      "prison": 1070,
      "lly": 1071,
      "fear": 1072,
      "ures": 1073,
      "iled": 1074,
      "app": 1075,
      "sing": 1076,
      "repe": 1077,
      "fully": 1078,
      "usu": 1079,
      "consid": 1080,
      "alone": 1081,
      "eye": 1082,
      "letter": 1083,
      "within": 1084,
      "appro": 1085,
      "believe": 1086,
      "Do": 1087,
      "list": 1088,
      "possible": 1089,
      "fall": 1090,
      "cop": 1091,
      "dau": 1092,
      "acqu": 1093,
      "medi": 1094,
      "evening": 1095,
      "happy": 1096,
      "suff": 1097,
      "play": 1098,
      "hind": 1099,
      "spir": 1100,
      "appeared": 1101,
      "fortun": 1102,
      "band": 1103,
      "gg": 1104,
      "ask": 1105,
      "feet": 1106,
      "next": 1107,
      "plain": 1108,
      "stairs": 1109,
      "step": 1110,
      "ground": 1111,
      "daughter": 1112,
      "servant": 1113,
      "ga": 1114,
      "ient": 1115,
      "pat": 1116,
      "held": 1117,
      "iles": 1118,
      "matter": 1119,
      "tri": 1120,
      "ancy": 1121,
      "itting": 1122,
      "bu": 1123,
      "ign": 1124,
      "observed": 1125,
      "Eng": 1126,
      "ie": 1127,
      "sun": 1128,
      "whose": 1129,
      "bear": 1130,
      "vered": 1131,
      "ile": 1132,
      "swe": 1133,
      "order": 1134,
      "ket": 1135,
      "pleasure": 1136,
      "leep": 1137,
      "unt": 1138,
      "quired": 1139,
      "hu": 1140,
      "ris": 1141,
      "reme": 1142,
      "sec": 1143,
      "several": 1144,
      "Is": 1145,
      "abo": 1146,
      "object": 1147,
      "close": 1148,
      "cir": 1149,
      "ham": 1150,
      "ady": 1151,
      "riage": 1152,
      "disco": 1153,
      "subject": 1154,
      "Now": 1155,
      "On": 1156,
      "dro": 1157,
      "ange": 1158,
      "dden": 1159,
      "sum": 1160,
      "brother": 1161,
      "pret": 1162,
      "hea": 1163,
      "fin": 1164,
      "fic": 1165,
      "yourself": 1166,
      "known": 1167,
      "quiet": 1168,
      "peri": 1169,
      "fair": 1170,
      "cor": 1171,
      "Not": 1172,
      "Her": 1173,
      "best": 1174,
      "ses": 1175,
      "dead": 1176,
      "compan": 1177,
      "pen": 1178,
      "ude": 1179,
      "als": 1180,
      "ressed": 1181,
      "blo": 1182,
      "gar": 1183,
      "nature": 1184,
      "spoke": 1185,
      "death": 1186,
      "partic": 1187,
      "doubt": 1188,
      "arri": 1189,
      "black": 1190,
      "II": 1191,
      "bour": 1192,
      "sound": 1193,
      "state": 1194,
      "case": 1195,
      "aces": 1196,
      "ross": 1197,
      "ached": 1198,
      "ety": 1199,
      "mine": 1200,
      "wh": 1201,
      "resol": 1202,
      "received": 1203,
      "stri": 1204,
      "Then": 1205,
      "ctions": 1206,
      "consider": 1207,
      "behind": 1208,
      "ides": 1209,
      "need": 1210,
      "IN": 1211,
      "Why": 1212,
      "occas": 1213,
      "hus": 1214,
      "rup": 1215,
      "bey": 1216,
      "ention": 1217,
      "account": 1218,
      "miss": 1219,
      "itted": 1220,
      "given": 1221,
      "sense": 1222,
      "dr": 1223,
      "sk": 1224,
      "vol": 1225,
      "xed": 1226,
      "inte": 1227,
      "hair": 1228,
      "walked": 1229,
      "Jo": 1230,
      "cher": 1231,
      "tion": 1232,
      "ung": 1233,
      "fell": 1234,
      "help": 1235,
      "pain": 1236,
      "ances": 1237,
      "ending": 1238,
      "water": 1239,
      "husband": 1240,
      "ration": 1241,
      "utes": 1242,
      "continued": 1243,
      "fur": 1244,
      "whis": 1245,
      "Lu": 1246,
      "ze": 1247,
      "ages": 1248,
      "aced": 1249,
      "question": 1250,
      "cal": 1251,
      "creat": 1252,
      "wild": 1253,
      "immedi": 1254,
      "Man": 1255,
      "ying": 1256,
      "undred": 1257,
      "interest": 1258,
      "five": 1259,
      "imed": 1260,
      "moved": 1261,
      "break": 1262,
      "em": 1263,
      "sof": 1264,
      "affe": 1265,
      "TH": 1266,
      "ching": 1267,
      "deep": 1268,
      "wall": 1269,
      "stay": 1270,
      "supp": 1271,
      "convers": 1272,
      "sign": 1273,
      "satis": 1274,
      "understand": 1275,
      "added": 1276,
      "selves": 1277,
      "aut": 1278,
      "iting": 1279,
      "honour": 1280,
      "John": 1281,
      "Re": 1282,
      "drew": 1283,
      "wee": 1284,
      "company": 1285,
      "mark": 1286,
      "Doc": 1287,
      "gri": 1288,
      "dec": 1289,
      "necess": 1290,
      "kept": 1291,
      "laimed": 1292,
      "Doctor": 1293,
      "God": 1294,
      "ace": 1295,
      "fer": 1296,
      "power": 1297,
      "ank": 1298,
      "lot": 1299,
      "above": 1300,
      "With": 1301,
      "oured": 1302,
      "others": 1303,
      "natur": 1304,
      "cup": 1305,
      "acter": 1306,
      "white": 1307,
      "soci": 1308,
      "character": 1309,
      "second": 1310,
      "entered": 1311,
      "ribut": 1312,
      "uring": 1313,
      "six": 1314,
      "anger": 1315,
      "strange": 1316,
      ",—": 1317,
      "ctor": 1318,
      "hundred": 1319,
      "ured": 1320,
      "really": 1321,
      "ingly": 1322,
      "shed": 1323,
      "favour": 1324,
      "minutes": 1325,
      "ired": 1326,
      "foot": 1327,
      "wonder": 1328,
      "rose": 1329,
      "poc": 1330,
      "dog": 1331,
      "opened": 1332,
      "surpr": 1333,
      "suppose": 1334,
      "gre": 1335,
      "lat": 1336,
      "already": 1337,
      "spect": 1338,
      "circ": 1339,
      "respect": 1340,
      "differen": 1341,
      "wise": 1342,
      "bell": 1343,
      "itude": 1344,
      "ident": 1345,
      "sudden": 1346,
      "walk": 1347,
      "ship": 1348,
      "usual": 1349,
      "Lady": 1350,
      "leng": 1351,
      "neither": 1352,
      "sometimes": 1353,
      "chief": 1354,
      "AN": 1355,
      "mur": 1356,
      "ood": 1357,
      "sight": 1358,
      "incl": 1359,
      "ladies": 1360,
      "particular": 1361,
      "ls": 1362,
      "prom": 1363,
      "learn": 1364,
      "lips": 1365,
      "ail": 1366,
      "thor": 1367,
      "means": 1368,
      "beaut": 1369,
      "cious": 1370,
      "works": 1371,
      "corn": 1372,
      "igh": 1373,
      "sort": 1374,
      "occasion": 1375,
      "tou": 1376,
      "ities": 1377,
      "aged": 1378,
      "else": 1379,
      "blic": 1380,
      "lish": 1381,
      "mad": 1382,
      "why": 1383,
      "dem": 1384,
      "talk": 1385,
      "llect": 1386,
      "ult": 1387,
      "ird": 1388,
      "length": 1389,
      "llen": 1390,
      "pected": 1391,
      "vice": 1392,
      "town": 1393,
      "ual": 1394,
      "inc": 1395,
      "delight": 1396,
      "ility": 1397,
      "circum": 1398,
      "view": 1399,
      "position": 1400,
      "hours": 1401,
      "Wick": 1402,
      "outh": 1403,
      "month": 1404,
      "Wickham": 1405,
      "),": 1406,
      "bad": 1407,
      "dest": 1408,
      "formed": 1409,
      "dia": 1410,
      "wenty": 1411,
      "joined": 1412,
      "followed": 1413,
      "exclaimed": 1414,
      "taking": 1415,
      "silence": 1416,
      "flo": 1417,
      "jud": 1418,
      "mention": 1419,
      "angu": 1420,
      "Coll": 1421,
      "Ly": 1422,
      "free": 1423,
      "yes": 1424,
      "ctly": 1425,
      "shut": 1426,
      "arms": 1427,
      "Be": 1428,
      "aving": 1429,
      "jest": 1430,
      "lour": 1431,
      "prep": 1432,
      "lled": 1433,
      "qual": 1434,
      "perfect": 1435,
      "opin": 1436,
      "scar": 1437,
      "friends": 1438,
      "Collins": 1439,
      "making": 1440,
      "copy": 1441,
      "rying": 1442,
      "kn": 1443,
      "sy": 1444,
      "termin": 1445,
      "worth": 1446,
      "conversation": 1447,
      "din": 1448,
      "dri": 1449,
      "tly": 1450,
      "ouble": 1451,
      "sequ": 1452,
      "til": 1453,
      "expect": 1454,
      "prob": 1455,
      "common": 1456,
      "laugh": 1457,
      "cut": 1458,
      "ial": 1459,
      "rious": 1460,
      "stopped": 1461,
      "instant": 1462,
      "regard": 1463,
      "hardly": 1464,
      "cing": 1465,
      "rid": 1466,
      "twenty": 1467,
      "change": 1468,
      "range": 1469,
      "struck": 1470,
      "immediately": 1471,
      "RE": 1472,
      "fing": 1473,
      "top": 1474,
      "mere": 1475,
      "elect": 1476,
      "LI": 1477,
      "mid": 1478,
      "ned": 1479,
      "sleep": 1480,
      "oney": 1481,
      "post": 1482,
      "prof": 1483,
      "joy": 1484,
      "Let": 1485,
      "ded": 1486,
      "tran": 1487,
      "meet": 1488,
      "cely": 1489,
      "suc": 1490,
      "proper": 1491,
      "counten": 1492,
      "real": 1493,
      "expected": 1494,
      "comfort": 1495,
      "bring": 1496,
      "human": 1497,
      "ell": 1498,
      "ror": 1499,
      "hes": 1500,
      "stone": 1501,
      "forward": 1502,
      "proceed": 1503,
      "laid": 1504,
      "children": 1505,
      "cr": 1506,
      "dre": 1507,
      "fre": 1508,
      "inquired": 1509,
      "ceive": 1510,
      "athy": 1511,
      "feelings": 1512,
      "anim": 1513,
      "anced": 1514,
      "until": 1515,
      "therefore": 1516,
      "fied": 1517,
      "closed": 1518,
      "court": 1519,
      "circumst": 1520,
      "aring": 1521,
      "chang": 1522,
      "pet": 1523,
      "refle": 1524,
      "dread": 1525,
      "start": 1526,
      "ained": 1527,
      "offic": 1528,
      "turning": 1529,
      "blood": 1530,
      "Hare": 1531,
      "alth": 1532,
      "dep": 1533,
      "descri": 1534,
      "ronic": 1535,
      "jesty": 1536,
      "Hareton": 1537,
      "Af": 1538,
      "raid": 1539,
      "De": 1540,
      "cand": 1541,
      "kne": 1542,
      "que": 1543,
      "shaw": 1544,
      "former": 1545,
      "truth": 1546,
      "cent": 1547,
      "ible": 1548,
      "ring": 1549,
      "rance": 1550,
      "thus": 1551,
      "enter": 1552,
      "terms": 1553,
      "except": 1554,
      "obli": 1555,
      "paper": 1556,
      "tempt": 1557,
      "purpose": 1558,
      "coun": 1559,
      "late": 1560,
      "majesty": 1561,
      "Lydia": 1562,
      "Don": 1563,
      "cus": 1564,
      "shad": 1565,
      "wine": 1566,
      "also": 1567,
      "lost": 1568,
      "themselves": 1569,
      "wood": 1570,
      "longer": 1571,
      "repeated": 1572,
      "electronic": 1573,
      "ense": 1574,
      "viol": 1575,
      "sett": 1576,
      "pie": 1577,
      "further": 1578,
      "opinion": 1579,
      "Ne": 1580,
      "fellow": 1581,
      "women": 1582,
      "carried": 1583,
      "EN": 1584,
      "yed": 1585,
      "knowled": 1586,
      "pray": 1587,
      "general": 1588,
      "After": 1589,
      "Ill": 1590,
      "Lon": 1591,
      "Ya": 1592,
      "money": 1593,
      "lying": 1594,
      "concer": 1595,
      "quick": 1596,
      "ette": 1597,
      "ustration": 1598,
      "attention": 1599,
      "feeling": 1600,
      "horse": 1601,
      "remember": 1602,
      "London": 1603,
      "Brown": 1604,
      "glad": 1605,
      "vill": 1606,
      "ening": 1607,
      "liber": 1608,
      "hood": 1609,
      "pursu": 1610,
      "true": 1611,
      "Brownlow": 1612,
      "fine": 1613,
      "wished": 1614,
      "wel": 1615,
      "ches": 1616,
      "distance": 1617,
      "diffic": 1618,
      "public": 1619,
      "idea": 1620,
      "afterwards": 1621,
      "pleased": 1622,
      "countenance": 1623,
      "ON": 1624,
      "smo": 1625,
      "ught": 1626,
      "inv": 1627,
      "anx": 1628,
      "neigh": 1629,
      "thoughts": 1630,
      "affection": 1631,
      "ook": 1632,
      "sess": 1633,
      "itation": 1634,
      "doctor": 1635,
      "Here": 1636,
      "ously": 1637,
      "Yaho": 1638,
      "Rose": 1639,
      "married": 1640,
      "glass": 1641,
      "scarcely": 1642,
      "XX": 1643,
      "lu": 1644,
      "ase": 1645,
      "iling": 1646,
      "ousand": 1647,
      "afraid": 1648,
      "possess": 1649,
      "Manette": 1650,
      "bar": 1651,
      "bri": 1652,
      "nest": 1653,
      "yard": 1654,
      "forth": 1655,
      "uttered": 1656,
      "coat": 1657,
      "coach": 1658,
      "aren": 1659,
      "ical": 1660,
      "Pross": 1661,
      "emplo": 1662,
      "secret": 1663,
      "Illustration": 1664,
      "lling": 1665,
      "adv": 1666,
      "key": 1667,
      "tears": 1668,
      "grat": 1669,
      "Come": 1670,
      "bur": 1671,
      "hum": 1672,
      "ually": 1673,
      "thousand": 1674,
      "leg": 1675,
      "deal": 1676,
      "trave": 1677,
      "All": 1678,
      "cru": 1679,
      "danger": 1680,
      "ging": 1681,
      "vy": 1682,
      "ution": 1683,
      "arton": 1684,
      "beyond": 1685,
      "_Yaho": 1686,
      "ram": 1687,
      "anded": 1688,
      "ager": 1689,
      "consequ": 1690,
      "guard": 1691,
      "wanted": 1692,
      "corner": 1693,
      "Ad": 1694,
      "Carton": 1695,
      "Where": 1696,
      "quar": 1697,
      "race": 1698,
      "earth": 1699,
      "Un": 1700,
      "dress": 1701,
      "fro": 1702,
      "along": 1703,
      "although": 1704,
      "sole": 1705,
      "prisoner": 1706,
      "One": 1707,
      "cous": 1708,
      "nur": 1709,
      "ago": 1710,
      "illed": 1711,
      "comple": 1712,
      "pressed": 1713,
      "happiness": 1714,
      "Mad": 1715,
      "inform": 1716,
      "ana": 1717,
      "ract": 1718,
      "author": 1719,
      "grow": 1720,
      "ler": 1721,
      "numb": 1722,
      "ash": 1723,
      "seeing": 1724,
      "firm": 1725,
      "appearance": 1726,
      "IS": 1727,
      "Tell": 1728,
      "past": 1729,
      "ta": 1730,
      "—”": 1731,
      "oul": 1732,
      "ens": 1733,
      "met": 1734,
      "iously": 1735,
      "carriage": 1736,
      "certainly": 1737,
      "Some": 1738,
      "natural": 1739,
      "neighbour": 1740,
      "fered": 1741,
      "drawing": 1742,
      ",--": 1743,
      "Your": 1744,
      "safe": 1745,
      "gover": 1746,
      "ants": 1747,
      "smile": 1748,
      "sweet": 1749,
      "Ed": 1750,
      "bly": 1751,
      "gard": 1752,
      "ative": 1753,
      "ents": 1754,
      "move": 1755,
      "trouble": 1756,
      "chool": 1757,
      "fortune": 1758,
      "drink": 1759,
      "creature": 1760,
      "Darn": 1761,
      "emb": 1762,
      "inqu": 1763,
      "ones": 1764,
      "liar": 1765,
      "living": 1766,
      "tern": 1767,
      "fee": 1768,
      "exam": 1769,
      "ender": 1770,
      "fixed": 1771,
      "standing": 1772,
      "ference": 1773,
      "Darnay": 1774,
      "Will": 1775,
      "pon": 1776,
      "pal": 1777,
      "tone": 1778,
      "exact": 1779,
      "clear": 1780,
      "pocket": 1781,
      "Fair": 1782,
      "ding": 1783,
      "during": 1784,
      "gate": 1785,
      "treat": 1786,
      "tory": 1787,
      "sea": 1788,
      "cell": 1789,
      "determin": 1790,
      "silent": 1791,
      "Found": 1792,
      "school": 1793,
      "wit": 1794,
      "ye": 1795,
      "ors": 1796,
      "seat": 1797,
      "dom": 1798,
      "resh": 1799,
      "clock": 1800,
      "flu": 1801,
      "morrow": 1802,
      "different": 1803,
      "cat": 1804,
      "crow": 1805,
      "dare": 1806,
      "sitting": 1807,
      "tom": 1808,
      "assu": 1809,
      "iter": 1810,
      "rob": 1811,
      "urch": 1812,
      "raised": 1813,
      "die": 1814,
      "Foundation": 1815,
      "lam": 1816,
      "weak": 1817,
      "effect": 1818,
      "pleasant": 1819,
      "Mary": 1820,
      "eight": 1821,
      "mouth": 1822,
      "nar": 1823,
      "resu": 1824,
      "arch": 1825,
      "habit": 1826,
      "uncle": 1827,
      "necessary": 1828,
      "jour": 1829,
      "rain": 1830,
      "send": 1831,
      "utter": 1832,
      "notice": 1833,
      "trust": 1834,
      "lotte": 1835,
      "Jose": 1836,
      "May": 1837,
      "bright": 1838,
      "line": 1839,
      "langu": 1840,
      "intell": 1841,
      "ided": 1842,
      "distribut": 1843,
      "gentlemen": 1844,
      "happened": 1845,
      "Charlotte": 1846,
      "grave": 1847,
      "streets": 1848,
      "Madame": 1849,
      "Joseph": 1850,
      "Who": 1851,
      "gle": 1852,
      "sor": 1853,
      "semb": 1854,
      "feat": 1855,
      "ties": 1856,
      "essie": 1857,
      "resent": 1858,
      "dinner": 1859,
      "OF": 1860,
      "OR": 1861,
      "eur": 1862,
      "ons": 1863,
      "advant": 1864,
      "tired": 1865,
      "fax": 1866,
      "produ": 1867,
      "occup": 1868,
      "visit": 1869,
      "stranger": 1870,
      "remained": 1871,
      "pretty": 1872,
      "Fairfax": 1873,
      "Earn": 1874,
      "bid": 1875,
      "flow": 1876,
      "gy": 1877,
      "none": 1878,
      "spr": 1879,
      "zy": 1880,
      "stra": 1881,
      "pol": 1882,
      "pping": 1883,
      "streng": 1884,
      "England": 1885,
      "Ar": 1886,
      "Good": 1887,
      "bow": 1888,
      "eper": 1889,
      "eager": 1890,
      "ghed": 1891,
      "slow": 1892,
      "slight": 1893,
      "wis": 1894,
      "“‘": 1895,
      "board": 1896,
      "speaking": 1897,
      "minute": 1898,
      "frequ": 1899,
      "cast": 1900,
      "èle": 1901,
      "appoint": 1902,
      "opport": 1903,
      "reply": 1904,
      "prevent": 1905,
      "expression": 1906,
      "companion": 1907,
      "mission": 1908,
      "months": 1909,
      "Adèle": 1910,
      "Earnshaw": 1911,
      "opportun": 1912,
      "var": 1913,
      "thes": 1914,
      "idence": 1915,
      "assist": 1916,
      "English": 1917,
      "burn": 1918,
      "mount": 1919,
      "pay": 1920,
      "ann": 1921,
      "noon": 1922,
      "charge": 1923,
      "conce": 1924,
      "died": 1925,
      "desc": 1926,
      "Noah": 1927,
      "please": 1928,
      "Monks": 1929,
      "THE": 1930,
      "uct": 1931,
      "hill": 1932,
      "deser": 1933,
      "breath": 1934,
      "easy": 1935,
      "week": 1936,
      "Bessie": 1937,
      "bread": 1938,
      "glo": 1939,
      "dea": 1940,
      "worse": 1941,
      "party": 1942,
      "chamber": 1943,
      "evid": 1944,
      "warm": 1945,
      "eness": 1946,
      "tily": 1947,
      "prin": 1948,
      "cie": 1949,
      "ishment": 1950,
      "earnest": 1951,
      "steps": 1952,
      "Reed": 1953,
      "dream": 1954,
      "cousin": 1955,
      "Ge": 1956,
      "cry": 1957,
      "kit": 1958,
      "hall": 1959,
      "aded": 1960,
      "doing": 1961,
      "chen": 1962,
      "civil": 1963,
      "clothes": 1964,
      "books": 1965,
      "spirit": 1966,
      "Lucie": 1967,
      "candle": 1968,
      "kitchen": 1969,
      "fancy": 1970,
      "pes": 1971,
      "ray": 1972,
      "health": 1973,
      "ased": 1974,
      "itself": 1975,
      "church": 1976,
      "iful": 1977,
      "usion": 1978,
      "presence": 1979,
      "begin": 1980,
      "breakfast": 1981,
      "Geor": 1982,
      "Long": 1983,
      "fright": 1984,
      "faces": 1985,
      "endea": 1986,
      "seem": 1987,
      "effort": 1988,
      "quire": 1989,
      "sisters": 1990,
      "directly": 1991,
      "strength": 1992,
      "aunt": 1993,
      "yer": 1994,
      "stu": 1995,
      "conne": 1996,
      "pride": 1997,
      "compl": 1998,
      "rank": 1999,
      "desired": 2000,
      "marked": 2001,
      "trade": 2002,
      "agreeable": 2003,
      "servants": 2004,
      "depend": 2005,
      "sick": 2006,
      "depart": 2007,
      "motion": 2008,
      "using": 2009,
      "likely": 2010,
      "placed": 2011,
      "resolved": 2012,
      "changed": 2013,
      "journey": 2014,
      "Crun": 2015,
      "Cathy": 2016,
      "eat": 2017,
      "har": 2018,
      "ising": 2019,
      "fact": 2020,
      "bot": 2021,
      "cks": 2022,
      "handsome": 2023,
      "fice": 2024,
      "sieur": 2025,
      "plan": 2026,
      "says": 2027,
      "tained": 2028,
      "mistress": 2029,
      "suddenly": 2030,
      "floor": 2031,
      "cul": 2032,
      "ild": 2033,
      "zed": 2034,
      "rejoined": 2035,
      "below": 2036,
      "forced": 2037,
      "forget": 2038,
      "contr": 2039,
      "upstairs": 2040,
      "gold": 2041,
      "aston": 2042,
      "everything": 2043,
      "pale": 2044,
      "shook": 2045,
      "heavy": 2046,
      "ben": 2047,
      "dle": 2048,
      "ience": 2049,
      "ping": 2050,
      "explain": 2051,
      "early": 2052,
      "soft": 2053,
      "probably": 2054,
      "garden": 2055,
      "Cruncher": 2056,
      ".’": 2057,
      "ES": 2058,
      "cross": 2059,
      "ere": 2060,
      "pound": 2061,
      "saying": 2062,
      "interrup": 2063,
      "watch": 2064,
      "accord": 2065,
      "besides": 2066,
      "Giles": 2067,
      "bound": 2068,
      "dut": 2069,
      "dam": 2070,
      "fit": 2071,
      "fif": 2072,
      "noise": 2073,
      "irt": 2074,
      "marry": 2075,
      "shop": 2076,
      "instru": 2077,
      "wrong": 2078,
      "Charles": 2079,
      "Dod": 2080,
      "gall": 2081,
      "mil": 2082,
      "ining": 2083,
      "beha": 2084,
      "became": 2085,
      "sake": 2086,
      "pered": 2087,
      "experi": 2088,
      "recollect": 2089,
      "fron": 2090,
      "grew": 2091,
      "lan": 2092,
      "unless": 2093,
      "fig": 2094,
      "cloud": 2095,
      "breast": 2096,
      "spirits": 2097,
      "number": 2098,
      "Dodger": 2099,
      "vering": 2100,
      "tea": 2101,
      "apart": 2102,
      "impat": 2103,
      "import": 2104,
      "pict": 2105,
      "allowed": 2106,
      "acquaint": 2107,
      "Mar": 2108,
      "ker": 2109,
      "nobody": 2110,
      "box": 2111,
      "commun": 2112,
      "suffer": 2113,
      "Edgar": 2114,
      "opportunity": 2115,
      ",’": 2116,
      "Ah": 2117,
      "Of": 2118,
      "ford": 2119,
      "rap": 2120,
      "persu": 2121,
      "marriage": 2122,
      "easily": 2123,
      "copyright": 2124,
      "inquir": 2125,
      "Whi": 2126,
      "mus": 2127,
      "sl": 2128,
      "sw": 2129,
      "soul": 2130,
      "wand": 2131,
      "inary": 2132,
      "forgot": 2133,
      "ext": 2134,
      "exist": 2135,
      "uded": 2136,
      "persons": 2137,
      "nearly": 2138,
      "tremb": 2139,
      "circumstances": 2140,
      "shadow": 2141,
      "Are": 2142,
      "aven": 2143,
      "cro": 2144,
      "pity": 2145,
      "liked": 2146,
      "ries": 2147,
      "arer": 2148,
      "retched": 2149,
      "desire": 2150,
      "address": 2151,
      "agreement": 2152,
      "suffic": 2153,
      "surprise": 2154,
      "By": 2155,
      "Nancy": 2156,
      "event": 2157,
      "loud": 2158,
      "susp": 2159,
      "const": 2160,
      "concl": 2161,
      "ights": 2162,
      "ively": 2163,
      "reader": 2164,
      "rench": 2165,
      "giving": 2166,
      "following": 2167,
      "itor": 2168,
      "pun": 2169,
      "rag": 2170,
      "va": 2171,
      "reached": 2172,
      "become": 2173,
      "ading": 2174,
      "colour": 2175,
      "quis": 2176,
      "impossible": 2177,
      "courage": 2178,
      "perfectly": 2179,
      "piece": 2180,
      "AR": 2181,
      "mn": 2182,
      "ny": 2183,
      "ww": 2184,
      "iner": 2185,
      "erry": 2186,
      "moon": 2187,
      "laim": 2188,
      "void": 2189,
      "broken": 2190,
      "talking": 2191,
      "hurried": 2192,
      "conceal": 2193,
      "acquaintance": 2194,
      "sad": 2195,
      "twi": 2196,
      "seig": 2197,
      "lived": 2198,
      "neur": 2199,
      "exer": 2200,
      "reading": 2201,
      "aught": 2202,
      "vided": 2203,
      "Monseig": 2204,
      "showed": 2205,
      "whisper": 2206,
      "latter": 2207,
      "Monseigneur": 2208,
      "Jerry": 2209,
      "miles": 2210,
      "ination": 2211,
      "ordered": 2212,
      "stir": 2213,
      "ryver": 2214,
      "imag": 2215,
      "thinking": 2216,
      "walking": 2217,
      "Stryver": 2218,
      "trees": 2219,
      "discovered": 2220,
      "support": 2221,
      "promise": 2222,
      "advantage": 2223,
      "figure": 2224,
      "Did": 2225,
      "ners": 2226,
      "peci": 2227,
      "conv": 2228,
      "These": 2229,
      "tee": 2230,
      "cking": 2231,
      "compli": 2232,
      "desp": 2233,
      "doors": 2234,
      "passion": 2235,
      "laws": 2236,
      "strugg": 2237,
      "admir": 2238,
      "settled": 2239,
      "determined": 2240,
      "Book": 2241,
      "Gard": 2242,
      "fal": 2243,
      "hung": 2244,
      "tall": 2245,
      "ump": 2246,
      "ancing": 2247,
      "adle": 2248,
      "neck": 2249,
      "amed": 2250,
      "ices": 2251,
      "spoken": 2252,
      "condition": 2253,
      "Monsieur": 2254,
      "arrived": 2255,
      "language": 2256,
      "pit": 2257,
      "anti": 2258,
      "island": 2259,
      "loved": 2260,
      "prov": 2261,
      "aching": 2262,
      "scene": 2263,
      "glance": 2264,
      "communic": 2265,
      "phe": 2266,
      "tried": 2267,
      "removed": 2268,
      "ason": 2269,
      "aris": 2270,
      "ulty": 2271,
      "offer": 2272,
      "write": 2273,
      "knowledge": 2274,
      "village": 2275,
      "Bates": 2276,
      "Po": 2277,
      "bene": 2278,
      "lab": 2279,
      "por": 2280,
      "sli": 2281,
      "—“": 2282,
      "across": 2283,
      "extra": 2284,
      "ified": 2285,
      "wholly": 2286,
      "cheer": 2287,
      "impro": 2288,
      "justice": 2289,
      "girls": 2290,
      "ordinary": 2291,
      "osity": 2292,
      "fingers": 2293,
      "success": 2294,
      "bent": 2295,
      "gain": 2296,
      "mag": 2297,
      "yre": 2298,
      "rehen": 2299,
      "third": 2300,
      "hers": 2301,
      "extre": 2302,
      "shar": 2303,
      "fold": 2304,
      "comes": 2305,
      "thank": 2306,
      "didn": 2307,
      "viour": 2308,
      "conscious": 2309,
      "shire": 2310,
      "horses": 2311,
      "drawn": 2312,
      "windows": 2313,
      "situ": 2314,
      "complete": 2315,
      "bon": 2316,
      "blow": 2317,
      "cre": 2318,
      "cise": 2319,
      "ges": 2320,
      "reli": 2321,
      "remark": 2322,
      "especi": 2323,
      "loss": 2324,
      "conside": 2325,
      "onel": 2326,
      "itten": 2327,
      "caught": 2328,
      "passing": 2329,
      "ease": 2330,
      "Thorn": 2331,
      "rising": 2332,
      "society": 2333,
      "features": 2334,
      "considered": 2335,
      "Eyre": 2336,
      "French": 2337,
      "Liz": 2338,
      "TI": 2339,
      "bless": 2340,
      "iently": 2341,
      "iety": 2342,
      "pull": 2343,
      "entire": 2344,
      "irty": 2345,
      "conven": 2346,
      "Heights": 2347,
      "fool": 2348,
      "engaged": 2349,
      "listened": 2350,
      "front": 2351,
      "Thornfield": 2352,
      "tong": 2353,
      "eror": 2354,
      "meas": 2355,
      "force": 2356,
      "ama": 2357,
      "ific": 2358,
      "prote": 2359,
      "seek": 2360,
      "looks": 2361,
      "comprehen": 2362,
      "dropped": 2363,
      "_Yahoos": 2364,
      "Ellen": 2365,
      "born": 2366,
      "lar": 2367,
      "test": 2368,
      "influ": 2369,
      "receive": 2370,
      "associ": 2371,
      "seiz": 2372,
      "whatever": 2373,
      "paid": 2374,
      "satisfied": 2375,
      "demanded": 2376,
      "obliged": 2377,
      "narrow": 2378,
      "slowly": 2379,
      "especially": 2380,
      "Lizzy": 2381,
      "Have": 2382,
      "Master": 2383,
      "bird": 2384,
      "ev": 2385,
      "filled": 2386,
      "sion": 2387,
      "sorry": 2388,
      "intim": 2389,
      "thick": 2390,
      "roy": 2391,
      "ality": 2392,
      "akes": 2393,
      "affair": 2394,
      "chee": 2395,
      "content": 2396,
      "wait": 2397,
      "information": 2398,
      "Maylie": 2399,
      "princi": 2400,
      "behaviour": 2401,
      "sharp": 2402,
      "_Yahoos_": 2403,
      "Bill": 2404,
      "equal": 2405,
      "eBook": 2406,
      "ivers": 2407,
      "rough": 2408,
      "sn": 2409,
      "leaving": 2410,
      "meant": 2411,
      "appre": 2412,
      "story": 2413,
      "ignor": 2414,
      "imper": 2415,
      "running": 2416,
      "beautiful": 2417,
      "intellig": 2418,
      "Br": 2419,
      "cred": 2420,
      "ead": 2421,
      "fted": 2422,
      "fond": 2423,
      "fresh": 2424,
      "hous": 2425,
      "ield": 2426,
      "ost": 2427,
      "rous": 2428,
      "war": 2429,
      "request": 2430,
      "entreat": 2431,
      "keeper": 2432,
      "apa": 2433,
      "seems": 2434,
      "putting": 2435,
      "curi": 2436,
      "calm": 2437,
      "middle": 2438,
      "aid": 2439,
      "furn": 2440,
      "gen": 2441,
      "hast": 2442,
      "phy": 2443,
      "virt": 2444,
      "ines": 2445,
      "thered": 2446,
      "itions": 2447,
      "separ": 2448,
      "chance": 2449,
      "uture": 2450,
      "wouldn": 2451,
      "disappoint": 2452,
      "ears": 2453,
      "service": 2454,
      "berry": 2455,
      "grace": 2456,
      "solemn": 2457,
      "straight": 2458,
      "Gardiner": 2459,
      "brow": 2460,
      "kno": 2461,
      "try": 2462,
      "anci": 2463,
      "aste": 2464,
      "wig": 2465,
      "ury": 2466,
      "afternoon": 2467,
      "grad": 2468,
      "waiting": 2469,
      "temper": 2470,
      "portion": 2471,
      "discover": 2472,
      "surprised": 2473,
      "exactly": 2474,
      "houses": 2475,
      "Ing": 2476,
      "future": 2477,
      "ssed": 2478,
      "warn": 2479,
      "inf": 2480,
      "orig": 2481,
      "rope": 2482,
      "ters": 2483,
      "rich": 2484,
      "greater": 2485,
      "attend": 2486,
      "weeks": 2487,
      "Tellson": 2488,
      "Having": 2489,
      "cou": 2490,
      "equ": 2491,
      "pract": 2492,
      "inct": 2493,
      "lean": 2494,
      "iron": 2495,
      "rud": 2496,
      "knows": 2497,
      "isted": 2498,
      "blue": 2499,
      "emperor": 2500,
      "States": 2501,
      "curious": 2502,
      "confess": 2503,
      "bitter": 2504,
      "priv": 2505,
      "summer": 2506,
      "United": 2507,
      "!’": 2508,
      "ED": 2509,
      "OU": 2510,
      "ali": 2511,
      "claim": 2512,
      "fra": 2513,
      "iam": 2514,
      "beadle": 2515,
      "devil": 2516,
      "outside": 2517,
      "antly": 2518,
      "handker": 2519,
      "design": 2520,
      "gently": 2521,
      "hearing": 2522,
      "miser": 2523,
      "sky": 2524,
      "beauty": 2525,
      "touch": 2526,
      "increas": 2527,
      "welve": 2528,
      "burst": 2529,
      "Ingram": 2530,
      "origin": 2531,
      "Hou": 2532,
      "dressed": 2533,
      "evil": 2534,
      "vain": 2535,
      "yd": 2536,
      "yhn": 2537,
      "bered": 2538,
      "rock": 2539,
      "def": 2540,
      "deg": 2541,
      "absol": 2542,
      "acy": 2543,
      "teen": 2544,
      "faction": 2545,
      "speci": 2546,
      "Nothing": 2547,
      "watched": 2548,
      "written": 2549,
      "conduct": 2550,
      "questions": 2551,
      "believed": 2552,
      "whispered": 2553,
      "mentioned": 2554,
      "Nelly": 2555,
      "handkerchief": 2556,
      "Houyhn": 2557,
      "Houyhnhn": 2558,
      "**": 2559,
      "gli": 2560,
      "len": 2561,
      "obey": 2562,
      "terri": 2563,
      "pecu": 2564,
      "arest": 2565,
      "raise": 2566,
      "shoulder": 2567,
      "greatest": 2568,
      "kindness": 2569,
      "instead": 2570,
      "spot": 2571,
      "command": 2572,
      "waist": 2573,
      "However": 2574,
      "bourn": 2575,
      "proceeded": 2576,
      "humour": 2577,
      "Longbourn": 2578,
      "peculiar": 2579,
      "Grange": 2580,
      "je": 2581,
      "sal": 2582,
      "twelve": 2583,
      "memor": 2584,
      "wide": 2585,
      "lies": 2586,
      "abs": 2587,
      "expressed": 2588,
      "heads": 2589,
      "parag": 2590,
      "carry": 2591,
      "clean": 2592,
      "utely": 2593,
      "stead": 2594,
      "laughed": 2595,
      "arrival": 2596,
      "anxious": 2597,
      "crowd": 2598,
      "duty": 2599,
      "Di": 2600,
      "Sower": 2601,
      "Temp": 2602,
      "ech": 2603,
      "hang": 2604,
      "ming": 2605,
      "vation": 2606,
      "thro": 2607,
      "seated": 2608,
      "suf": 2609,
      "manners": 2610,
      "yours": 2611,
      "lame": 2612,
      "possi": 2613,
      "distur": 2614,
      "flat": 2615,
      "Lucas": 2616,
      "merely": 2617,
      "liberty": 2618,
      "twice": 2619,
      "degree": 2620,
      "Sowerberry": 2621,
      "Col": 2622,
      "VER": 2623,
      "avoid": 2624,
      "fas": 2625,
      "gro": 2626,
      "gment": 2627,
      "mess": 2628,
      "rate": 2629,
      "threw": 2630,
      "offered": 2631,
      "youth": 2632,
      "collect": 2633,
      "kets": 2634,
      "ounced": 2635,
      "hate": 2636,
      "represent": 2637,
      "impress": 2638,
      "blind": 2639,
      "guess": 2640,
      "waited": 2641,
      "generally": 2642,
      "endeavour": 2643,
      "curiosity": 2644,
      "Temple": 2645,
      "Con": 2646,
      "From": 2647,
      "inced": 2648,
      "ency": 2649,
      "peace": 2650,
      "access": 2651,
      "accept": 2652,
      "raph": 2653,
      "Heaven": 2654,
      "disposed": 2655,
      "eping": 2656,
      "posing": 2657,
      "news": 2658,
      "boys": 2659,
      "supposed": 2660,
      "Charley": 2661,
      "difficulty": 2662,
      "consequence": 2663,
      "nurse": 2664,
      "rapid": 2665,
      "tongue": 2666,
      "paragraph": 2667,
      "Colonel": 2668,
      "Pe": 2669,
      "bs": 2670,
      "fle": 2671,
      "iable": 2672,
      "rust": 2673,
      "ues": 2674,
      "yield": 2675,
      "asleep": 2676,
      "itiz": 2677,
      "beat": 2678,
      "faith": 2679,
      "anybody": 2680,
      "parlour": 2681,
      "male": 2682,
      "getting": 2683,
      "confidence": 2684,
      "capable": 2685,
      "accident": 2686,
      "AND": 2687,
      "particularly": 2688,
      "symp": 2689,
      "pursued": 2690,
      "witness": 2691,
      "assured": 2692,
      "entirely": 2693,
      "absence": 2694,
      "Sir": 2695,
      "_Houyhnhn": 2696,
      "enjoy": 2697,
      "arti": 2698,
      "seven": 2699,
      "nose": 2700,
      "suit": 2701,
      "otherwise": 2702,
      "ishing": 2703,
      "sensible": 2704,
      "observe": 2705,
      "listen": 2706,
      "satisfaction": 2707,
      "iterary": 2708,
      "false": 2709,
      "situation": 2710,
      "influence": 2711,
      "apprehen": 2712,
      "Se": 2713,
      "_I": 2714,
      "cord": 2715,
      "fat": 2716,
      "fac": 2717,
      "mit": 2718,
      "sle": 2719,
      "reach": 2720,
      "ences": 2721,
      "nod": 2722,
      "cler": 2723,
      "lighted": 2724,
      "angry": 2725,
      "pause": 2726,
      "talked": 2727,
      "single": 2728,
      "summon": 2729,
      "prepared": 2730,
      "violent": 2731,
      "pounds": 2732,
      "Hind": 2733,
      "Per": 2734,
      "rise": 2735,
      "uch": 2736,
      "attempt": 2737,
      "noble": 2738,
      "hig": 2739,
      "hion": 2740,
      "covered": 2741,
      "decl": 2742,
      "fet": 2743,
      "ils": 2744,
      "disposition": 2745,
      "cape": 2746,
      "forehead": 2747,
      "rush": 2748,
      "understood": 2749,
      "hearth": 2750,
      "broke": 2751,
      "build": 2752,
      "finished": 2753,
      "III": 2754,
      "walls": 2755,
      "finger": 2756,
      "profess": 2757,
      "Hindley": 2758,
      "Every": 2759,
      "Nor": 2760,
      "TO": 2761,
      "cation": 2762,
      "kiss": 2763,
      "papa": 2764,
      "squ": 2765,
      "uff": 2766,
      "throw": 2767,
      "office": 2768,
      "ory": 2769,
      "tering": 2770,
      "terday": 2771,
      "oppos": 2772,
      "chive": 2773,
      "rooms": 2774,
      "occur": 2775,
      "curtain": 2776,
      "supper": 2777,
      "direction": 2778,
      "Archive": 2779,
      "wishes": 2780,
      "opposite": 2781,
      "!—": 2782,
      "Ab": 2783,
      "Literary": 2784,
      "bility": 2785,
      "fu": 2786,
      "mal": 2787,
      "rat": 2788,
      "tle": 2789,
      "ush": 2790,
      "winter": 2791,
      "rer": 2792,
      "toler": 2793,
      "org": 2794,
      "roof": 2795,
      "lod": 2796,
      "couldn": 2797,
      "attended": 2798,
      "thrust": 2799,
      "ceiving": 2800,
      "usually": 2801,
      "cruel": 2802,
      "trademark": 2803,
      "fifty": 2804,
      "extreme": 2805,
      "Diana": 2806,
      "Syd": 2807,
      "_you": 2808,
      "ban": 2809,
      "ball": 2810,
      "city": 2811,
      "mort": 2812,
      "phi": 2813,
      "van": 2814,
      "resemb": 2815,
      "ony": 2816,
      "arily": 2817,
      "rodu": 2818,
      "vel": 2819,
      "cep": 2820,
      "lifted": 2821,
      "delic": 2822,
      "ains": 2823,
      "Their": 2824,
      "indif": 2825,
      "iced": 2826,
      "introdu": 2827,
      "likewise": 2828,
      "longed": 2829,
      "speech": 2830,
      "everybody": 2831,
      "mony": 2832,
      "attent": 2833,
      "consent": 2834,
      "touched": 2835,
      "succeed": 2836,
      "While": 2837,
      "Hall": 2838,
      "Very": 2839,
      "ots": 2840,
      "vac": 2841,
      "zen": 2842,
      "thed": 2843,
      "itch": 2844,
      "libr": 2845,
      "cost": 2846,
      "hopes": 2847,
      "ames": 2848,
      "excell": 2849,
      "ify": 2850,
      "prospect": 2851,
      "itty": 2852,
      "dim": 2853,
      "preser": 2854,
      "younger": 2855,
      "smiled": 2856,
      "regular": 2857,
      "hurt": 2858,
      "fallen": 2859,
      "orders": 2860,
      "instantly": 2861,
      "started": 2862,
      "employ": 2863,
      "advanced": 2864,
      "frequently": 2865,
      "beginning": 2866,
      "Marquis": 2867,
      "Sydney": 2868,
      "alive": 2869,
      "bas": 2870,
      "fun": 2871,
      "ife": 2872,
      "pow": 2873,
      "inj": 2874,
      "threat": 2875,
      "rim": 2876,
      "hot": 2877,
      "display": 2878,
      "aken": 2879,
      "spent": 2880,
      "hastily": 2881,
      "parts": 2882,
      "contri": 2883,
      "passage": 2884,
      "visible": 2885,
      "keeping": 2886,
      "dreadful": 2887,
      "yards": 2888,
      "resumed": 2889,
      "astonishment": 2890,
      "apartment": 2891,
      "Jacqu": 2892,
      "Never": 2893,
      "faint": 2894,
      "muttered": 2895,
      "charm": 2896,
      "save": 2897,
      "exceed": 2898,
      "ardon": 2899,
      "ilt": 2900,
      "wore": 2901,
      "proud": 2902,
      "desper": 2903,
      "grate": 2904,
      "cles": 2905,
      "ption": 2906,
      "writing": 2907,
      "regret": 2908,
      "quietly": 2909,
      "considerable": 2910,
      "luck": 2911,
      "forgotten": 2912,
      "_you_": 2913,
      "library": 2914,
      "Yet": 2915,
      "pill": 2916,
      "taste": 2917,
      "voured": 2918,
      "aside": 2919,
      "aspect": 2920,
      "lives": 2921,
      "sugg": 2922,
      "therfield": 2923,
      "ables": 2924,
      "ability": 2925,
      "aming": 2926,
      "permission": 2927,
      "somewhat": 2928,
      "brid": 2929,
      "roads": 2930,
      "period": 2931,
      "Netherfield": 2932,
      "Jacques": 2933,
      "Go": 2934,
      "Kitty": 2935,
      "mi": 2936,
      "wound": 2937,
      "zz": 2938,
      "fever": 2939,
      "amuse": 2940,
      "rub": 2941,
      "knowing": 2942,
      "shame": 2943,
      "donations": 2944,
      "uding": 2945,
      "interval": 2946,
      "watching": 2947,
      "pointed": 2948,
      "meaning": 2949,
      "holding": 2950,
      "bestow": 2951,
      "ING": 2952,
      "yesterday": 2953,
      "property": 2954,
      "officers": 2955,
      "entertain": 2956,
      "custom": 2957,
      "quickly": 2958,
      "neighbourhood": 2959,
      "existence": 2960,
      "Al": 2961,
      "CT": 2962,
      "Paris": 2963,
      "dust": 2964,
      "dry": 2965,
      "dared": 2966,
      "fles": 2967,
      "gust": 2968,
      "gest": 2969,
      "oth": 2970,
      "omy": 2971,
      "attemp": 2972,
      "lead": 2973,
      "veyed": 2974,
      "defect": 2975,
      "provided": 2976,
      "intended": 2977,
      "pron": 2978,
      "stop": 2979,
      "space": 2980,
      "grand": 2981,
      "calling": 2982,
      "relations": 2983,
      "green": 2984,
      "worthy": 2985,
      "sorrow": 2986,
      "picture": 2987,
      "convinced": 2988,
      "cheerful": 2989,
      "suggest": 2990,
      ";”": 2991,
      "Bar": 2992,
      "Can": 2993,
      "Cor": 2994,
      "Eu": 2995,
      "cow": 2996,
      "da": 2997,
      "lum": 2998,
      "lord": 2999,
      "nine": 3000,
      "arrange": 3001,
      "irth": 3002,
      "myster": 3003,
      "acing": 3004,
      "intention": 3005,
      "presently": 3006,
      "imagin": 3007,
      "vious": 3008,
      "rendered": 3009,
      "distant": 3010,
      "farther": 3011,
      "fami": 3012,
      "sentence": 3013,
      "beside": 3014,
      "spring": 3015,
      "interrupted": 3016,
      "imagine": 3017,
      "intelligence": 3018,
      "equally": 3019,
      "Europe": 3020,
      "RO": 3021,
      "tender": 3022,
      "stones": 3023,
      "locked": 3024,
      "proof": 3025,
      "audi": 3026,
      "shoes": 3027,
      "senti": 3028,
      "softly": 3029,
      "animal": 3030,
      "counter": 3031,
      "produced": 3032,
      "labour": 3033,
      "_I_": 3034,
      "Take": 3035,
      "action": 3036,
      "aves": 3037,
      "cated": 3038,
      "ier": 3039,
      "lest": 3040,
      "pup": 3041,
      "paren": 3042,
      "tro": 3043,
      "wist": 3044,
      "invol": 3045,
      "required": 3046,
      "asp": 3047,
      "itary": 3048,
      "stud": 3049,
      "limb": 3050,
      "vert": 3051,
      "history": 3052,
      "cot": 3053,
      "superi": 3054,
      "exe": 3055,
      "worn": 3056,
      "worst": 3057,
      "share": 3058,
      "stor": 3059,
      "desir": 3060,
      "elder": 3061,
      "daughters": 3062,
      "difficult": 3063,
      "George": 3064,
      "teeth": 3065,
      "admiration": 3066,
      "beneath": 3067,
      "cheek": 3068,
      "private": 3069,
      "miserable": 3070,
      "Low": 3071,
      "Lord": 3072,
      "chim": 3073,
      "dying": 3074,
      "echo": 3075,
      "path": 3076,
      "sought": 3077,
      "spl": 3078,
      "hesit": 3079,
      "inno": 3080,
      "remo": 3081,
      "thin": 3082,
      "edu": 3083,
      "ingu": 3084,
      "wicked": 3085,
      "alarm": 3086,
      "altogether": 3087,
      "super": 3088,
      "thering": 3089,
      "nearer": 3090,
      "conject": 3091,
      "acknowled": 3092,
      "compass": 3093,
      "els": 3094,
      "lower": 3095,
      "attach": 3096,
      "addressed": 3097,
      "approached": 3098,
      "grief": 3099,
      "suspic": 3100,
      "seized": 3101,
      "excellent": 3102,
      "AG": 3103,
      "CE": 3104,
      "France": 3105,
      "Le": 3106,
      "gress": 3107,
      "o_": 3108,
      "snow": 3109,
      "zing": 3110,
      "relie": 3111,
      "assure": 3112,
      "entrance": 3113,
      "weather": 3114,
      "feared": 3115,
      "pot": 3116,
      "fier": 3117,
      "distingu": 3118,
      "Indeed": 3119,
      "matron": 3120,
      "fastened": 3121,
      "darkness": 3122,
      "recogn": 3123,
      "naturally": 3124,
      "knees": 3125,
      "queen": 3126,
      "evidently": 3127,
      "superior": 3128,
      "Grim": 3129,
      "SE": 3130,
      "bare": 3131,
      "farm": 3132,
      "grown": 3133,
      "nice": 3134,
      "vag": 3135,
      "win": 3136,
      "wretched": 3137,
      "thrown": 3138,
      "sty": 3139,
      "star": 3140,
      "ldom": 3141,
      "perform": 3142,
      "aff": 3143,
      "commen": 3144,
      "cip": 3145,
      "spite": 3146,
      "distin": 3147,
      "distress": 3148,
      "maid": 3149,
      "sooner": 3150,
      "stern": 3151,
      "livered": 3152,
      "opening": 3153,
      "repeat": 3154,
      "learned": 3155,
      "madame": 3156,
      "assistance": 3157,
      "frame": 3158,
      "throat": 3159,
      "Corney": 3160,
      "UT": 3161,
      "Wu": 3162,
      "harm": 3163,
      "remarked": 3164,
      "enced": 3165,
      "seldom": 3166,
      "stro": 3167,
      "stick": 3168,
      "verse": 3169,
      "terror": 3170,
      "cting": 3171,
      "acious": 3172,
      "tied": 3173,
      "amiable": 3174,
      "exp": 3175,
      "explan": 3176,
      "food": 3177,
      "willing": 3178,
      "vig": 3179,
      "speed": 3180,
      "directed": 3181,
      "misery": 3182,
      "finding": 3183,
      "fields": 3184,
      "heaven": 3185,
      "companions": 3186,
      "described": 3187,
      "quarter": 3188,
      "polit": 3189,
      "sufficient": 3190,
      "roused": 3191,
      "itizen": 3192,
      "Grimwig": 3193,
      "Wuthering": 3194,
      "Isa": 3195,
      "bor": 3196,
      "card": 3197,
      "arry": 3198,
      "forty": 3199,
      "wet": 3200,
      "weary": 3201,
      "deb": 3202,
      "hoped": 3203,
      "nephe": 3204,
      "shout": 3205,
      "indi": 3206,
      "Helen": 3207,
      "ends": 3208,
      "whence": 3209,
      "composed": 3210,
      "parti": 3211,
      "kingdom": 3212,
      "visitor": 3213,
      "horror": 3214,
      "reasonable": 3215,
      "accus": 3216,
      "aware": 3217,
      "apparen": 3218,
      "grim": 3219,
      "meeting": 3220,
      "crossed": 3221,
      "absolutely": 3222,
      "fashion": 3223,
      "nephew": 3224,
      "av": 3225,
      "ives": 3226,
      "mbered": 3227,
      "non": 3228,
      "pul": 3229,
      "pardon": 3230,
      "informed": 3231,
      "thod": 3232,
      "search": 3233,
      "delay": 3234,
      "delivered": 3235,
      "lose": 3236,
      "contempt": 3237,
      "tire": 3238,
      "ament": 3239,
      "reser": 3240,
      "ics": 3241,
      "shoulders": 3242,
      "shaking": 3243,
      "scre": 3244,
      "minister": 3245,
      "voy": 3246,
      "paused": 3247,
      "fortnight": 3248,
      "brea": 3249,
      "subst": 3250,
      "Toby": 3251,
      "patient": 3252,
      "remembered": 3253,
      "bella": 3254,
      "circumstance": 3255,
      "reflection": 3256,
      "concerning": 3257,
      "brief": 3258,
      "benef": 3259,
      "flesh": 3260,
      "Isabella": 3261,
      "Mason": 3262,
      "Saint": 3263,
      "ian": 3264,
      "remind": 3265,
      "recomm": 3266,
      "itable": 3267,
      "escape": 3268,
      "ainted": 3269,
      "excl": 3270,
      "pers": 3271,
      "bold": 3272,
      "serious": 3273,
      "grass": 3274,
      "rent": 3275,
      "monstr": 3276,
      "charged": 3277,
      "honest": 3278,
      "fortunate": 3279,
      "drop": 3280,
      "freely": 3281,
      "legs": 3282,
      "civility": 3283,
      "memory": 3284,
      "LE": 3285,
      "Lic": 3286,
      "RI": 3287,
      "Such": 3288,
      "mour": 3289,
      "pair": 3290,
      "pick": 3291,
      "pond": 3292,
      "wro": 3293,
      "infer": 3294,
      "require": 3295,
      "oned": 3296,
      "armed": 3297,
      "itated": 3298,
      "method": 3299,
      "hide": 3300,
      "lim": 3301,
      "lift": 3302,
      "utmost": 3303,
      "negle": 3304,
      "shel": 3305,
      "odd": 3306,
      "expen": 3307,
      "indul": 3308,
      "ittles": 3309,
      "inking": 3310,
      "housekeeper": 3311,
      "pointing": 3312,
      "secure": 3313,
      "knife": 3314,
      "concern": 3315,
      "frequent": 3316,
      "descended": 3317,
      "royal": 3318,
      "affairs": 3319,
      "License": 3320,
      "wrote": 3321,
      "Brock": 3322,
      "Look": 3323,
      "Mill": 3324,
      "ni": 3325,
      "pan": 3326,
      "sides": 3327,
      "vity": 3328,
      "wra": 3329,
      "stif": 3330,
      "aloud": 3331,
      "sold": 3332,
      "degre": 3333,
      "racted": 3334,
      "compar": 3335,
      "spy": 3336,
      "giana": 3337,
      "choose": 3338,
      "reasons": 3339,
      "ception": 3340,
      "highly": 3341,
      "gathered": 3342,
      "Mann": 3343,
      "quality": 3344,
      "knitting": 3345,
      "comfortable": 3346,
      "knee": 3347,
      "tax": 3348,
      "Georgiana": 3349,
      "provide": 3350,
      "_Houyhnhnms": 3351,
      "commenced": 3352,
      "Brockle": 3353,
      "degrees": 3354,
      "Ex": 3355,
      "Had": 3356,
      "House": 3357,
      "Qu": 3358,
      "bing": 3359,
      "dar": 3360,
      "ior": 3361,
      "mut": 3362,
      "pin": 3363,
      "pure": 3364,
      "ceased": 3365,
      "lice": 3366,
      "sult": 3367,
      "loose": 3368,
      "shri": 3369,
      "indign": 3370,
      "ulous": 3371,
      "estab": 3372,
      "anted": 3373,
      "bore": 3374,
      "simp": 3375,
      "firmed": 3376,
      "attle": 3377,
      "addition": 3378,
      "broad": 3379,
      "passeng": 3380,
      "careless": 3381,
      "consideration": 3382,
      "understanding": 3383,
      "laughing": 3384,
      "governess": 3385,
      "impression": 3386,
      "Perhaps": 3387,
      "desperate": 3388,
      "AS": 3389,
      "Harry": 3390,
      "Mery": 3391,
      "Two": 3392,
      "birth": 3393,
      "sive": 3394,
      "inhabit": 3395,
      "reve": 3396,
      "reck": 3397,
      "thirty": 3398,
      "assemb": 3399,
      "arse": 3400,
      "aled": 3401,
      "alter": 3402,
      "note": 3403,
      "devo": 3404,
      "hollow": 3405,
      "urst": 3406,
      "sail": 3407,
      "contain": 3408,
      "acity": 3409,
      "accompany": 3410,
      "discourse": 3411,
      "aked": 3412,
      "shape": 3413,
      "stoop": 3414,
      "torted": 3415,
      "north": 3416,
      "observing": 3417,
      "excited": 3418,
      "Thus": 3419,
      "hurst": 3420,
      "letters": 3421,
      "falling": 3422,
      "plainly": 3423,
      "resolution": 3424,
      "favourite": 3425,
      "delighted": 3426,
      "judgment": 3427,
      "LIVER": 3428,
      "tranqu": 3429,
      "eagerly": 3430,
      "various": 3431,
      "burning": 3432,
      "contrary": 3433,
      "exercise": 3434,
      "comprehend": 3435,
      "_Houyhnhnms_": 3436,
      "Brocklehurst": 3437,
      "Meryton": 3438,
      "18": 3439,
      "Li": 3440,
      "ome": 3441,
      "sin": 3442,
      "reed": 3443,
      "ises": 3444,
      "advice": 3445,
      "noticed": 3446,
      "comb": 3447,
      "accompan": 3448,
      "pole": 3449,
      "perceived": 3450,
      "anyone": 3451,
      "report": 3452,
      "stock": 3453,
      "marks": 3454,
      "vision": 3455,
      "engage": 3456,
      "amongst": 3457,
      "acquainted": 3458,
      "promised": 3459,
      "settle": 3460,
      "pieces": 3461,
      "employed": 3462,
      "_Yahoo_": 3463,
      "phys": 3464,
      "gradually": 3465,
      "Rep": 3466,
      "Rivers": 3467,
      "Sun": 3468,
      "Twist": 3469,
      "mas": 3470,
      "wed": 3471,
      "station": 3472,
      "vere": 3473,
      "loso": 3474,
      "teac": 3475,
      "geance": 3476,
      "rug": 3477,
      "spare": 3478,
      "whereof": 3479,
      "undertak": 3480,
      "scorn": 3481,
      "parish": 3482,
      "bles": 3483,
      "venture": 3484,
      "mberley": 3485,
      "oubled": 3486,
      "Three": 3487,
      "presented": 3488,
      "mistaken": 3489,
      "drag": 3490,
      "calcul": 3491,
      "efforts": 3492,
      "bottom": 3493,
      "trembling": 3494,
      "www": 3495,
      "umph": 3496,
      "folded": 3497,
      "birds": 3498,
      "ignorant": 3499,
      "Brittles": 3500,
      "Pemberley": 3501,
      "square": 3502,
      "chimney": 3503,
      "Hush": 3504,
      "NO": 3505,
      "glow": 3506,
      "gutenberg": 3507,
      "hint": 3508,
      "makes": 3509,
      "tree": 3510,
      "ug": 3511,
      "alous": 3512,
      "solic": 3513,
      "female": 3514,
      "respond": 3515,
      "shone": 3516,
      "raising": 3517,
      "fault": 3518,
      "owner": 3519,
      "rushed": 3520,
      "prince": 3521,
      "sigh": 3522,
      "Anto": 3523,
      "grou": 3524,
      "scri": 3525,
      "license": 3526,
      "glanced": 3527,
      "empty": 3528,
      "captain": 3529,
      "staircase": 3530,
      "approach": 3531,
      "matters": 3532,
      "pockets": 3533,
      "including": 3534,
      "according": 3535,
      "extraordinary": 3536,
      "relief": 3537,
      "credit": 3538,
      "virtue": 3539,
      "See": 3540,
      "Lowood": 3541,
      "compassion": 3542,
      "?’": 3543,
      "BE": 3544,
      "bits": 3545,
      "due": 3546,
      "kis": 3547,
      "lone": 3548,
      "rack": 3549,
      "sme": 3550,
      "sche": 3551,
      "sings": 3552,
      "tin": 3553,
      "ub": 3554,
      "retired": 3555,
      "thri": 3556,
      "ature": 3557,
      "isure": 3558,
      "ashed": 3559,
      "ital": 3560,
      "beheld": 3561,
      "cere": 3562,
      "som": 3563,
      "tive": 3564,
      "dozen": 3565,
      "quant": 3566,
      "compe": 3567,
      "stool": 3568,
      "downstairs": 3569,
      "wherein": 3570,
      "rested": 3571,
      "mater": 3572,
      "solitary": 3573,
      "version": 3574,
      "hurry": 3575,
      "grie": 3576,
      "judge": 3577,
      "welcome": 3578,
      "anxiety": 3579,
      "possession": 3580,
      "drinking": 3581,
      "result": 3582,
      "concluded": 3583,
      "waistcoat": 3584,
      "suffered": 3585,
      "building": 3586,
      "philoso": 3587,
      "kissed": 3588,
      "AT": 3589,
      "Bes": 3590,
      "Bol": 3591,
      "IV": 3592,
      "Sect": 3593,
      "VI": 3594,
      "Whe": 3595,
      "brown": 3596,
      "een": 3597,
      "treas": 3598,
      "tail": 3599,
      "inn": 3600,
      "leisure": 3601,
      "ghost": 3602,
      "notion": 3603,
      "cool": 3604,
      "whenever": 3605,
      "teach": 3606,
      "exped": 3607,
      "geon": 3608,
      "propos": 3609,
      "figu": 3610,
      "asser": 3611,
      "obst": 3612,
      "troubled": 3613,
      "contents": 3614,
      "smiling": 3615,
      "excuse": 3616,
      "mistake": 3617,
      "listening": 3618,
      "gaze": 3619,
      "corre": 3620,
      "strike": 3621,
      "painful": 3622,
      "decided": 3623,
      "grey": 3624,
      "inclination": 3625,
      "driven": 3626,
      "description": 3627,
      "possessed": 3628,
      "William": 3629,
      "occupied": 3630,
      "connected": 3631,
      "inquiry": 3632,
      "improve": 3633,
      "bonnet": 3634,
      "possibly": 3635,
      "attachment": 3636,
      "individ": 3637,
      "darling": 3638,
      "Antoine": 3639,
      "Clay": 3640,
      "bank": 3641,
      "dal": 3642,
      "trying": 3643,
      "estic": 3644,
      "sex": 3645,
      "lid": 3646,
      "wear": 3647,
      "col": 3648,
      "ounce": 3649,
      "progress": 3650,
      "aker": 3651,
      "akened": 3652,
      "intent": 3653,
      "size": 3654,
      "obtain": 3655,
      "spread": 3656,
      "goodness": 3657,
      "recovered": 3658,
      "valu": 3659,
      "objects": 3660,
      "Only": 3661,
      "necessity": 3662,
      "spectac": 3663,
      "midst": 3664,
      "gratitude": 3665,
      "tale": 3666,
      "treated": 3667,
      "gloomy": 3668,
      "frightened": 3669,
      "experience": 3670,
      "convenient": 3671,
      "obeyed": 3672,
      "explanation": 3673,
      "inhabitants": 3674,
      "undertaker": 3675,
      "Claypole": 3676,
      "Glum": 3677,
      "OLIVER": 3678,
      "acted": 3679,
      "big": 3680,
      "coff": 3681,
      "dance": 3682,
      "mill": 3683,
      "sne": 3684,
      "tions": 3685,
      "uous": 3686,
      "height": 3687,
      "hither": 3688,
      "indic": 3689,
      "ically": 3690,
      "worked": 3691,
      "boat": 3692,
      "simil": 3693,
      "mured": 3694,
      "places": 3695,
      "omin": 3696,
      "--”": 3697,
      "clitch": 3698,
      "cloak": 3699,
      "prefer": 3700,
      "surround": 3701,
      "laying": 3702,
      "wondered": 3703,
      "showing": 3704,
      "enemy": 3705,
      "risti": 3706,
      "stayed": 3707,
      "murmured": 3708,
      "bringing": 3709,
      "officer": 3710,
      "robber": 3711,
      "prevented": 3712,
      "explained": 3713,
      "persuaded": 3714,
      "compliment": 3715,
      "Poor": 3716,
      "nodded": 3717,
      "summoned": 3718,
      "fetch": 3719,
      "extremely": 3720,
      "innocent": 3721,
      "dalclitch": 3722,
      "Glumdalclitch": 3723,
      "AD": 3724,
      "Again": 3725,
      "IT": 3726,
      "cra": 3727,
      "gers": 3728,
      "game": 3729,
      "hun": 3730,
      "kill": 3731,
      "lted": 3732,
      "mile": 3733,
      "mitted": 3734,
      "repro": 3735,
      "argu": 3736,
      "leaves": 3737,
      "utation": 3738,
      "lock": 3739,
      "proportion": 3740,
      "check": 3741,
      "cience": 3742,
      "comply": 3743,
      "useful": 3744,
      "consist": 3745,
      "join": 3746,
      "wants": 3747,
      "instance": 3748,
      "Rosings": 3749,
      "refund": 3750,
      "moments": 3751,
      "related": 3752,
      "active": 3753,
      "direct": 3754,
      "strongly": 3755,
      "singular": 3756,
      "dogs": 3757,
      "demand": 3758,
      "Dean": 3759,
      "XXX": 3760,
      "travell": 3761,
      "flowers": 3762,
      "importance": 3763,
      "couple": 3764,
      "leaning": 3765,
      "exceedingly": 3766,
      "accompanied": 3767,
      "Besides": 3768,
      "Am": 3769,
      "Ev": 3770,
      "Grace": 3771,
      "drank": 3772,
      "mender": 3773,
      "page": 3774,
      "ré": 3775,
      "tur": 3776,
      "task": 3777,
      "heap": 3778,
      "rele": 3779,
      "asha": 3780,
      "asped": 3781,
      "hie": 3782,
      "forgive": 3783,
      "aining": 3784,
      "somebody": 3785,
      "arts": 3786,
      "caut": 3787,
      "chest": 3788,
      "dig": 3789,
      "mud": 3790,
      "obsc": 3791,
      "served": 3792,
      "class": 3793,
      "render": 3794,
      "park": 3795,
      "vessel": 3796,
      "mail": 3797,
      "interposed": 3798,
      "ventured": 3799,
      "carefully": 3800,
      "choice": 3801,
      "truly": 3802,
      "continue": 3803,
      "sincere": 3804,
      "eleg": 3805,
      "striking": 3806,
      "affected": 3807,
      "deeply": 3808,
      "difference": 3809,
      "thorough": 3810,
      "papers": 3811,
      "music": 3812,
      "associated": 3813,
      "study": 3814,
      "storm": 3815,
      "education": 3816,
      "relieved": 3817,
      "lonely": 3818,
      "similar": 3819,
      "ashamed": 3820,
      "CH": 3821,
      "Ho": 3822,
      "cab": 3823,
      "dwell": 3824,
      "east": 3825,
      "fount": 3826,
      "mes": 3827,
      "mass": 3828,
      "taught": 3829,
      "vices": 3830,
      "onder": 3831,
      "eding": 3832,
      "asc": 3833,
      "adi": 3834,
      "soo": 3835,
      "weight": 3836,
      "cover": 3837,
      "tear": 3838,
      "goes": 3839,
      "ulars": 3840,
      "prove": 3841,
      "protest": 3842,
      "ideas": 3843,
      "pled": 3844,
      "serve": 3845,
      "workhouse": 3846,
      "monde": 3847,
      "silver": 3848,
      "mercy": 3849,
      "busy": 3850,
      "awk": 3851,
      "applied": 3852,
      "applic": 3853,
      "suffering": 3854,
      "immediate": 3855,
      "travelling": 3856,
      "dangerous": 3857,
      "golden": 3858,
      "gallery": 3859,
      "anticip": 3860,
      "remarkable": 3861,
      "protected": 3862,
      "species": 3863,
      "daily": 3864,
      "familiar": 3865,
      "individual": 3866,
      "?—": 3867,
      "CON": 3868,
      "Los": 3869,
      "Upon": 3870,
      "WH": 3871,
      "crying": 3872,
      "fill": 3873,
      "pter": 3874,
      "rage": 3875,
      "song": 3876,
      "swell": 3877,
      "inquire": 3878,
      "tomed": 3879,
      "iture": 3880,
      "chin": 3881,
      "agitation": 3882,
      "moving": 3883,
      "amb": 3884,
      "upper": 3885,
      "uses": 3886,
      "selfish": 3887,
      "thanks": 3888,
      "fix": 3889,
      "useless": 3890,
      "stopping": 3891,
      "haste": 3892,
      "berne": 3893,
      "tort": 3894,
      "attached": 3895,
      "precious": 3896,
      "happen": 3897,
      "setting": 3898,
      "solitude": 3899,
      "admitted": 3900,
      "approaching": 3901,
      "gazed": 3902,
      "patri": 3903,
      "murder": 3904,
      "Before": 3905,
      "prepar": 3906,
      "animals": 3907,
      "invitation": 3908,
      "catch": 3909,
      "mounted": 3910,
      "wandering": 3911,
      "measure": 3912,
      "brows": 3913,
      "terrible": 3914,
      "delicate": 3915,
      "pillow": 3916,
      "bridge": 3917,
      "cott": 3918,
      "style": 3919,
      "Section": 3920,
      "Evré": 3921,
      "Losberne": 3922,
      "Evrémonde": 3923,
      "Give": 3924,
      "Gener": 3925,
      "apo": 3926,
      "cil": 3927,
      "dra": 3928,
      "eh": 3929,
      "fed": 3930,
      "ians": 3931,
      "lap": 3932,
      "ride": 3933,
      "tes": 3934,
      "uce": 3935,
      "inside": 3936,
      "receiving": 3937,
      "encour": 3938,
      "issu": 3939,
      "around": 3940,
      "meat": 3941,
      "stam": 3942,
      "stup": 3943,
      "stared": 3944,
      "river": 3945,
      "unexpected": 3946,
      "nearest": 3947,
      "shown": 3948,
      "shine": 3949,
      "disgust": 3950,
      "process": 3951,
      "lared": 3952,
      "spected": 3953,
      "previous": 3954,
      "contro": 3955,
      "heartily": 3956,
      "Christi": 3957,
      "cured": 3958,
      "excite": 3959,
      "steady": 3960,
      "admire": 3961,
      "triumph": 3962,
      "buried": 3963,
      "particulars": 3964,
      "embar": 3965,
      "feeble": 3966,
      "experienced": 3967,
      "hastened": 3968,
      "disturbed": 3969,
      "slept": 3970,
      "clergy": 3971,
      "execut": 3972,
      "fierce": 3973,
      "accustomed": 3974,
      "apparently": 3975,
      "voyage": 3976,
      "Bolter": 3977,
      "Bars": 3978,
      "bal": 3979,
      "dull": 3980,
      "fate": 3981,
      "gather": 3982,
      "naught": 3983,
      "names": 3984,
      "sank": 3985,
      "eral": 3986,
      "orous": 3987,
      "advis": 3988,
      "altered": 3989,
      "owed": 3990,
      "deliver": 3991,
      "unhappy": 3992,
      "sav": 3993,
      "consol": 3994,
      "contemp": 3995,
      "dislike": 3996,
      "ruin": 3997,
      "retreat": 3998,
      "replace": 3999,
      "ranged": 4000,
      "greatly": 4001,
      "vile": 4002,
      "fulness": 4003,
      "trad": 4004,
      "parted": 4005,
      "telling": 4006,
      "native": 4007,
      "surely": 4008,
      "glancing": 4009,
      "energy": 4010,
      "generous": 4011,
      "stepped": 4012,
      "phr": 4013,
      "pushed": 4014,
      "chairs": 4015,
      "played": 4016,
      "grounds": 4017,
      "corrup": 4018,
      "respectable": 4019,
      "inclined": 4020,
      "drive": 4021,
      "ridge": 4022,
      "smooth": 4023,
      "govern": 4024,
      "burnt": 4025,
      "furniture": 4026,
      "original": 4027,
      "higher": 4028,
      "cepted": 4029,
      "succeeded": 4030,
      "Sunday": 4031,
      "Barsad": 4032,
      "Car": 4033,
      "Gates": 4034,
      "Me": 4035,
      "Sp": 4036,
      "Youn": 4037,
      "_that": 4038,
      "ale": 4039,
      "bending": 4040,
      "dirty": 4041,
      "fanci": 4042,
      "humble": 4043,
      "lance": 4044,
      "lines": 4045,
      "nal": 4046,
      "oper": 4047,
      "uck": 4048,
      "wing": 4049,
      "asking": 4050,
      "ashes": 4051,
      "sear": 4052,
      "season": 4053,
      "stretched": 4054,
      "ric": 4055,
      "agony": 4056,
      "agreed": 4057,
      "sacri": 4058,
      "keen": 4059,
      "ourselves": 4060,
      "bye": 4061,
      "resto": 4062,
      "oked": 4063,
      "icious": 4064,
      "ulate": 4065,
      "disgrace": 4066,
      "asted": 4067,
      "fail": 4068,
      "proved": 4069,
      "deri": 4070,
      "div": 4071,
      "thence": 4072,
      "rang": 4073,
      "closet": 4074,
      "restless": 4075,
      "begged": 4076,
      "breaking": 4077,
      "points": 4078,
      "tonight": 4079,
      "copies": 4080,
      "subjects": 4081,
      "Ladyship": 4082,
      "ENT": 4083,
      "consequently": 4084,
      "examined": 4085,
      "domestic": 4086,
      "hills": 4087,
      "departure": 4088,
      "bench": 4089,
      "instrument": 4090,
      "milk": 4091,
      "persuade": 4092,
      "constant": 4093,
      "vailed": 4094,
      "concealed": 4095,
      "struggle": 4096,
      "larger": 4097,
      "disappointment": 4098,
      "mortal": 4099,
      "indifference": 4100,
      "bestowed": 4101,
      "attempted": 4102,
      "group": 4103,
      "embarr": 4104,
      "Gateshead": 4105,
      "AL": 4106,
      "Cop": 4107,
      "Ha": 4108,
      "Mo": 4109,
      "Phi": 4110,
      "ST": 4111,
      "Ven": 4112,
      "YOU": 4113,
      "citizen": 4114,
      "dy": 4115,
      "date": 4116,
      "fru": 4117,
      "gates": 4118,
      "gained": 4119,
      "jac": 4120,
      "link": 4121,
      "prud": 4122,
      "sco": 4123,
      "sill": 4124,
      "tw": 4125,
      "tit": 4126,
      "tford": 4127,
      "renew": 4128,
      "recall": 4129,
      "chan": 4130,
      "entering": 4131,
      "sob": 4132,
      "coll": 4133,
      "suspected": 4134,
      "une": 4135,
      "located": 4136,
      "urged": 4137,
      "mode": 4138,
      "convi": 4139,
      "performed": 4140,
      "ulated": 4141,
      "estate": 4142,
      "retch": 4143,
      "readily": 4144,
      "spend": 4145,
      "desol": 4146,
      "gue": 4147,
      "shot": 4148,
      "sens": 4149,
      "observation": 4150,
      "silk": 4151,
      "lively": 4152,
      "Though": 4153,
      "directions": 4154,
      "bearing": 4155,
      "objection": 4156,
      "favourable": 4157,
      "prepare": 4158,
      "expectation": 4159,
      "describe": 4160,
      "smoke": 4161,
      "nurser": 4162,
      "lamp": 4163,
      "distributing": 4164,
      "gloom": 4165,
      "earnestly": 4166,
      "connection": 4167,
      "pulled": 4168,
      "eBooks": 4169,
      "employment": 4170,
      "pronounced": 4171,
      "ceremony": 4172,
      "fountain": 4173,
      "General": 4174,
      "_that_": 4175,
      "Bour": 4176,
      "Hann": 4177,
      "Still": 4178,
      "WI": 4179,
      "bree": 4180,
      "blame": 4181,
      "gru": 4182,
      "nation": 4183,
      "nie": 4184,
      "uced": 4185,
      "yright": 4186,
      "melan": 4187,
      "severe": 4188,
      "vex": 4189,
      "ceiling": 4190,
      "irst": 4191,
      "deliber": 4192,
      "unte": 4193,
      "hole": 4194,
      "fears": 4195,
      "manage": 4196,
      "quitted": 4197,
      "shr": 4198,
      "discus": 4199,
      "lights": 4200,
      "trou": 4201,
      "pleasing": 4202,
      "returning": 4203,
      "umer": 4204,
      "match": 4205,
      "senses": 4206,
      "committed": 4207,
      "personal": 4208,
      "choly": 4209,
      "actually": 4210,
      "phan": 4211,
      "admit": 4212,
      "trial": 4213,
      "finally": 4214,
      "Hertford": 4215,
      "occasions": 4216,
      "creatures": 4217,
      "declared": 4218,
      "learnt": 4219,
      "regarded": 4220,
      "dreary": 4221,
      "violence": 4222,
      "growing": 4223,
      "clearly": 4224,
      "weakness": 4225,
      "endeavoured": 4226,
      "stirred": 4227,
      "completely": 4228,
      "principal": 4229,
      "ignorance": 4230,
      "hanging": 4231,
      "About": 4232,
      "grateful": 4233,
      "intervals": 4234,
      "limbs": 4235,
      "stiff": 4236,
      "figures": 4237,
      "Copyright": 4238,
      "Bourgh": 4239,
      "melancholy": 4240,
      "Hertfordshire": 4241,
      "94": 4242,
      "Lo": 4243,
      "emer": 4244,
      "emotion": 4245,
      "fy": 4246,
      "fus": 4247,
      "ky": 4248,
      "oh": 4249,
      "pave": 4250,
      "rant": 4251,
      "south": 4252,
      "hest": 4253,
      "retorted": 4254,
      "asping": 4255,
      "inging": 4256,
      "escap": 4257,
      "lli": 4258,
      "meal": 4259,
      "uted": 4260,
      "withdrew": 4261,
      "irr": 4262,
      "weeping": 4263,
      "uni": 4264,
      "unknown": 4265,
      "moder": 4266,
      "accepted": 4267,
      "quit": 4268,
      "resist": 4269,
      "shud": 4270,
      "perpet": 4271,
      "permitted": 4272,
      "disagreeable": 4273,
      "endure": 4274,
      "affect": 4275,
      "dign": 4276,
      "handed": 4277,
      "ission": 4278,
      "brain": 4279,
      "parting": 4280,
      "impul": 4281,
      "presu": 4282,
      "voices": 4283,
      "chain": 4284,
      "bodies": 4285,
      "instinct": 4286,
      "commanded": 4287,
      "condu": 4288,
      "wishing": 4289,
      "missed": 4290,
      "push": 4291,
      "considering": 4292,
      "patience": 4293,
      "discovery": 4294,
      "strict": 4295,
      "interested": 4296,
      "interesting": 4297,
      "supply": 4298,
      "signs": 4299,
      "dining": 4300,
      "profound": 4301,
      "authority": 4302,
      "lament": 4303,
      "harsh": 4304,
      "clouds": 4305,
      "impatient": 4306,
      "important": 4307,
      "inquiries": 4308,
      "magn": 4309,
      "TION": 4310,
      "foolish": 4311,
      "increased": 4312,
      "steadily": 4313,
      "sympathy": 4314,
      "articles": 4315,
      "furious": 4316,
      "sentiment": 4317,
      "parents": 4318,
      "quantity": 4319,
      "coffin": 4320,
      "Christian": 4321,
      "clergyman": 4322,
      "savage": 4323,
      "Hannah": 4324,
      ":—": 4325,
      "Bla": 4326,
      "Gu": 4327,
      "PRO": 4328,
      "dart": 4329,
      "double": 4330,
      "equi": 4331,
      "humb": 4332,
      "lin": 4333,
      "mild": 4334,
      "praise": 4335,
      "sour": 4336,
      "snat": 4337,
      "rejo": 4338,
      "error": 4339,
      "thy": 4340,
      "arose": 4341,
      "leap": 4342,
      "stain": 4343,
      "beast": 4344,
      "hip": 4345,
      "lip": 4346,
      "lier": 4347,
      "thers": 4348,
      "dete": 4349,
      "proposed": 4350,
      "mbers": 4351,
      "vict": 4352,
      "gracious": 4353,
      "formation": 4354,
      "shore": 4355,
      "hearted": 4356,
      "pipe": 4357,
      "refer": 4358,
      "continually": 4359,
      "Forster": 4360,
      "remaining": 4361,
      "medium": 4362,
      "playing": 4363,
      "igned": 4364,
      "learning": 4365,
      "trans": 4366,
      "custo": 4367,
      "prayers": 4368,
      "ashing": 4369,
      "palace": 4370,
      "distribution": 4371,
      "dependent": 4372,
      "departed": 4373,
      "astonished": 4374,
      "impatience": 4375,
      "wandered": 4376,
      "events": 4377,
      "disappointed": 4378,
      "ancient": 4379,
      "message": 4380,
      "faithful": 4381,
      "fatig": 4382,
      "resemblance": 4383,
      "audible": 4384,
      "cabin": 4385,
      "Vengeance": 4386,
      "Crack": 4387,
      "Dear": 4388,
      "Fit": 4389,
      "HIS": 4390,
      "Our": 4391,
      "Stop": 4392,
      "Would": 4393,
      "bund": 4394,
      "cen": 4395,
      "frag": 4396,
      "ublic": 4397,
      "vast": 4398,
      "west": 4399,
      "reward": 4400,
      "err": 4401,
      "thi": 4402,
      "assur": 4403,
      "straw": 4404,
      "becoming": 4405,
      "chose": 4406,
      "uns": 4407,
      "nel": 4408,
      "neat": 4409,
      "posure": 4410,
      "poison": 4411,
      "amp": 4412,
      "tel": 4413,
      "exha": 4414,
      "anywhere": 4415,
      "ples": 4416,
      "grin": 4417,
      "tyard": 4418,
      "countries": 4419,
      "ully": 4420,
      "pace": 4421,
      "surgeon": 4422,
      "certainty": 4423,
      "refuse": 4424,
      "careful": 4425,
      "viding": 4426,
      "morti": 4427,
      "eleven": 4428,
      "fortunes": 4429,
      "sunk": 4430,
      "drove": 4431,
      "heavi": 4432,
      "pains": 4433,
      "rational": 4434,
      "quarrel": 4435,
      "impatiently": 4436,
      "addressing": 4437,
      "imagined": 4438,
      "despair": 4439,
      "communication": 4440,
      "intimate": 4441,
      "contrived": 4442,
      "involunt": 4443,
      "Whether": 4444,
      "Young": 4445,
      "conviction": 4446,
      "Crackit": 4447,
      "Ble": 4448,
      "Cha": 4449,
      "Gim": 4450,
      "Jan": 4451,
      "Just": 4452,
      "LA": 4453,
      "crep": 4454,
      "drun": 4455,
      "gown": 4456,
      "ia": 4457,
      "jury": 4458,
      "kin": 4459,
      "liness": 4460,
      "lately": 4461,
      "leness": 4462,
      "nut": 4463,
      "ochi": 4464,
      "pis": 4465,
      "swi": 4466,
      "rec": 4467,
      "encourage": 4468,
      "ascertain": 4469,
      "llable": 4470,
      "stat": 4471,
      "stout": 4472,
      "belong": 4473,
      "rolled": 4474,
      "wealth": 4475,
      "mood": 4476,
      "abroad": 4477,
      "abrup": 4478,
      "condem": 4479,
      "congrat": 4480,
      "conveyed": 4481,
      "ours": 4482,
      "icked": 4483,
      "somewhere": 4484,
      "failed": 4485,
      "illness": 4486,
      "william": 4487,
      "plent": 4488,
      "rence": 4489,
      "partly": 4490,
      "courtyard": 4491,
      "prevailed": 4492,
      "hearts": 4493,
      "conscience": 4494,
      "kindly": 4495,
      "flung": 4496,
      "merry": 4497,
      "supposing": 4498,
      "confusion": 4499,
      "fearful": 4500,
      "swear": 4501,
      "Because": 4502,
      "probable": 4503,
      "depth": 4504,
      "shawl": 4505,
      "example": 4506,
      "uttering": 4507,
      "punishment": 4508,
      "hungry": 4509,
      "knocked": 4510,
      "practice": 4511,
      "mystery": 4512,
      "acknowledged": 4513,
      "shelter": 4514,
      "treasure": 4515,
      "thoroughly": 4516,
      "stupid": 4517,
      "fancied": 4518,
      "Fitz": 4519,
      "Gimmer": 4520,
      "crept": 4521,
      "17": 4522,
      "Allen": 4523,
      "Bank": 4524,
      "King": 4525,
      "Neither": 4526,
      "Pray": 4527,
      "UN": 4528,
      "_her": 4529,
      "bun": 4530,
      "crown": 4531,
      "flying": 4532,
      "lit": 4533,
      "ole": 4534,
      "poured": 4535,
      "rated": 4536,
      "tumb": 4537,
      "hell": 4538,
      "anno": 4539,
      "remove": 4540,
      "atory": 4541,
      "itling": 4542,
      "esc": 4543,
      "haun": 4544,
      "leag": 4545,
      "beli": 4546,
      "vey": 4547,
      "forbear": 4548,
      "aling": 4549,
      "rily": 4550,
      "univers": 4551,
      "agg": 4552,
      "aging": 4553,
      "aband": 4554,
      "accompl": 4555,
      "tice": 4556,
      "amid": 4557,
      "exce": 4558,
      "excess": 4559,
      "perple": 4560,
      "ulties": 4561,
      "propri": 4562,
      "illi": 4563,
      "wot": 4564,
      "bosom": 4565,
      "caution": 4566,
      "dies": 4567,
      "dial": 4568,
      "divided": 4569,
      "shake": 4570,
      "plate": 4571,
      "store": 4572,
      "sport": 4573,
      "betray": 4574,
      "closer": 4575,
      "working": 4576,
      "chaise": 4577,
      "lingered": 4578,
      "visions": 4579,
      "Chitling": 4580,
      "refused": 4581,
      "purch": 4582,
      "relation": 4583,
      "reluct": 4584,
      "strangers": 4585,
      "confined": 4586,
      "Thank": 4587,
      "rememb": 4588,
      "finite": 4589,
      "occasionally": 4590,
      "anguish": 4591,
      "reflect": 4592,
      "reflected": 4593,
      "brilli": 4594,
      "keys": 4595,
      "complex": 4596,
      "growled": 4597,
      "firmly": 4598,
      "movement": 4599,
      "embr": 4600,
      "treatment": 4601,
      "eighteen": 4602,
      "bottle": 4603,
      "slip": 4604,
      "consciousness": 4605,
      "ification": 4606,
      "entreated": 4607,
      "jealous": 4608,
      "mingled": 4609,
      "highest": 4610,
      "occurred": 4611,
      "suggested": 4612,
      "avail": 4613,
      "neglect": 4614,
      "1894": 4615,
      "Philips": 4616,
      "fuscu": 4617,
      "Blathers": 4618,
      "Blefuscu": 4619,
      "ochial": 4620,
      "Fitzwilliam": 4621,
      "Gimmerton": 4622,
      "accomplished": 4623,
      ":--": 4624,
      "Ano": 4625,
      "Bet": 4626,
      "Burn": 4627,
      "Zill": 4628,
      "]]": 4629,
      "_my": 4630,
      "dine": 4631,
      "daw": 4632,
      "dancing": 4633,
      "flight": 4634,
      "jump": 4635,
      "knot": 4636,
      "mies": 4637,
      "pour": 4638,
      "sou": 4639,
      "sper": 4640,
      "tu": 4641,
      "yonder": 4642,
      "iny": 4643,
      "thread": 4644,
      "thunder": 4645,
      "attered": 4646,
      "ingen": 4647,
      "offee": 4648,
      "stained": 4649,
      "roar": 4650,
      "velo": 4651,
      "wash": 4652,
      "cook": 4653,
      "detest": 4654,
      "unable": 4655,
      "host": 4656,
      "loving": 4657,
      "modest": 4658,
      "peak": 4659,
      "aby": 4660,
      "respon": 4661,
      "hated": 4662,
      "shining": 4663,
      "folly": 4664,
      "seeking": 4665,
      "caused": 4666,
      "intend": 4667,
      "scrup": 4668,
      "tors": 4669,
      "blank": 4670,
      "precise": 4671,
      "mali": 4672,
      "paup": 4673,
      "friendship": 4674,
      "guest": 4675,
      "licity": 4676,
      "climb": 4677,
      "clever": 4678,
      "awake": 4679,
      "helped": 4680,
      "skill": 4681,
      "delightful": 4682,
      "qualities": 4683,
      "reflections": 4684,
      "concerned": 4685,
      "villain": 4686,
      "affectionate": 4687,
      "Sometimes": 4688,
      "accordingly": 4689,
      "damp": 4690,
      "trembled": 4691,
      "relig": 4692,
      "contented": 4693,
      "snuff": 4694,
      "collection": 4695,
      "profession": 4696,
      "basin": 4697,
      "amusement": 4698,
      "suspicion": 4699,
      "phrase": 4700,
      "silly": 4701,
      "nursery": 4702,
      "pavement": 4703,
      "exhaust": 4704,
      "pisto": 4705,
      "complexion": 4706,
      "Another": 4707,
      "Zillah": 4708,
      ".,": 4709,
      "Even": 4710,
      "FOR": 4711,
      "Hurst": 4712,
      "Old": 4713,
      "RA": 4714,
      "VIII": 4715,
      "Was": 4716,
      "_your": 4717,
      "_Copyright": 4718,
      "bust": 4719,
      "coffee": 4720,
      "elo": 4721,
      "fain": 4722,
      "hit": 4723,
      "mate": 4724,
      "tide": 4725,
      "——": 4726,
      "heath": 4727,
      "aries": 4728,
      "itution": 4729,
      "bewild": 4730,
      "hidden": 4731,
      "versed": 4732,
      "idle": 4733,
      "forman": 4734,
      "alarmed": 4735,
      "covering": 4736,
      "deli": 4737,
      "dearest": 4738,
      "unusual": 4739,
      "urs": 4740,
      "moor": 4741,
      "absur": 4742,
      "exting": 4743,
      "ilities": 4744,
      "disput": 4745,
      "dismal": 4746,
      "project": 4747,
      "afford": 4748,
      "oppress": 4749,
      "repent": 4750,
      "closing": 4751,
      "nights": 4752,
      "torn": 4753,
      "preced": 4754,
      "friendly": 4755,
      "surveyed": 4756,
      "stream": 4757,
      "observ": 4758,
      "famous": 4759,
      "crime": 4760,
      "crimin": 4761,
      "appearing": 4762,
      "fortunately": 4763,
      "sunshine": 4764,
      "risen": 4765,
      "skin": 4766,
      "volunte": 4767,
      "destroy": 4768,
      "advance": 4769,
      "ternal": 4770,
      "produce": 4771,
      "occupation": 4772,
      "evident": 4773,
      "Which": 4774,
      "sufficiently": 4775,
      "separation": 4776,
      "***": 4777,
      "glimp": 4778,
      "rapidly": 4779,
      "tolerable": 4780,
      "indifferen": 4781,
      "conjecture": 4782,
      "distinctly": 4783,
      "borne": 4784,
      "benefit": 4785,
      "expense": 4786,
      "comparison": 4787,
      "shrie": 4788,
      "cottage": 4789,
      "_her_": 4790,
      "absurd": 4791,
      "extingu": 4792,
      "Fang": 4793,
      "OW": 4794,
      "Pres": 4795,
      "Say": 4796,
      "Tom": 4797,
      "VII": 4798,
      "bul": 4799,
      "bran": 4800,
      "eating": 4801,
      "frown": 4802,
      "killed": 4803,
      "rist": 4804,
      "wretch": 4805,
      "inward": 4806,
      "incapable": 4807,
      "recon": 4808,
      "reven": 4809,
      "revi": 4810,
      "recalled": 4811,
      "retire": 4812,
      "ats": 4813,
      "ator": 4814,
      "ese": 4815,
      "habits": 4816,
      "sevent": 4817,
      "beck": 4818,
      "belonged": 4819,
      "forbid": 4820,
      "coarse": 4821,
      "agger": 4822,
      "absor": 4823,
      "confirmed": 4824,
      "tight": 4825,
      "domin": 4826,
      "rapt": 4827,
      "ults": 4828,
      "promp": 4829,
      "sip": 4830,
      "marrying": 4831,
      "bride": 4832,
      "attitude": 4833,
      "restr": 4834,
      "happily": 4835,
      "cases": 4836,
      "confused": 4837,
      "awakened": 4838,
      "recover": 4839,
      "puzz": 4840,
      "value": 4841,
      "shortly": 4842,
      "fourth": 4843,
      "suming": 4844,
      "garret": 4845,
      "sofa": 4846,
      "touching": 4847,
      "madam": 4848,
      "wooden": 4849,
      "violently": 4850,
      "invited": 4851,
      "dressing": 4852,
      "schoolroom": 4853,
      "deserve": 4854,
      "lantern": 4855,
      "extent": 4856,
      "compliance": 4857,
      "North": 4858,
      "lucky": 4859,
      "Barney": 4860,
      "pupil": 4861,
      "remote": 4862,
      "nonsense": 4863,
      "recommend": 4864,
      "establish": 4865,
      "Republic": 4866,
      "scheme": 4867,
      "surrounded": 4868,
      "bundle": 4869,
      "belief": 4870,
      "_your_": 4871,
      "Ga": 4872,
      "IM": 4873,
      "La": 4874,
      "Nay": 4875,
      "TA": 4876,
      "TY": 4877,
      "UL": 4878,
      "dated": 4879,
      "na": 4880,
      "invent": 4881,
      "reception": 4882,
      "thither": 4883,
      "arranged": 4884,
      "leading": 4885,
      "verted": 4886,
      "moors": 4887,
      "absent": 4888,
      "confound": 4889,
      "consult": 4890,
      "quali": 4891,
      "hatred": 4892,
      "discer": 4893,
      "boast": 4894,
      "boots": 4895,
      "cared": 4896,
      "urely": 4897,
      "composure": 4898,
      "shouldn": 4899,
      "rows": 4900,
      "Any": 4901,
      "train": 4902,
      "turns": 4903,
      "attract": 4904,
      "minds": 4905,
      "gives": 4906,
      "visits": 4907,
      "eldest": 4908,
      "stands": 4909,
      "commence": 4910,
      "refresh": 4911,
      "speaker": 4912,
      "capital": 4913,
      "decis": 4914,
      "regarding": 4915,
      "kneel": 4916,
      "oblig": 4917,
      "shade": 4918,
      "prayer": 4919,
      "guarded": 4920,
      "crowded": 4921,
      "sprang": 4922,
      "announced": 4923,
      "fifteen": 4924,
      "recollection": 4925,
      "pictures": 4926,
      "shadows": 4927,
      "conclusion": 4928,
      "Poole": 4929,
      "imperial": 4930,
      "disturb": 4931,
      "messeng": 4932,
      "tolerably": 4933,
      "attentions": 4934,
      "vacant": 4935,
      "charming": 4936,
      "exclam": 4937,
      "indignation": 4938,
      "simple": 4939,
      "passengers": 4940,
      "tranquill": 4941,
      "wedding": 4942,
      "calculated": 4943,
      "proposal": 4944,
      "coloured": 4945,
      "excitement": 4946,
      "sacrifice": 4947,
      "fruit": 4948,
      "desolate": 4949,
      "troubles": 4950,
      "thief": 4951,
      "Burns": 4952,
      "Aust": 4953,
      "Bed": 4954,
      "Cer": 4955,
      "Chi": 4956,
      "Cour": 4957,
      "ECT": 4958,
      "Get": 4959,
      "Has": 4960,
      "Shall": 4961,
      "Tho": 4962,
      "_me": 4963,
      "ax": 4964,
      "actions": 4965,
      "bra": 4966,
      "cket": 4967,
      "gay": 4968,
      "iest": 4969,
      "pages": 4970,
      "rul": 4971,
      "s_": 4972,
      "sla": 4973,
      "scold": 4974,
      "sque": 4975,
      "vul": 4976,
      "wers": 4977,
      "insol": 4978,
      "inches": 4979,
      "outer": 4980,
      "encoun": 4981,
      "orphan": 4982,
      "haz": 4983,
      "haught": 4984,
      "leant": 4985,
      "states": 4986,
      "staring": 4987,
      "washed": 4988,
      "dee": 4989,
      "saved": 4990,
      "sheet": 4991,
      "sheep": 4992,
      "conceive": 4993,
      "contained": 4994,
      "tible": 4995,
      "residence": 4996,
      "perceive": 4997,
      "discharged": 4998,
      "prosper": 4999,
      "woke": 5000,
      "print": 5001,
      "istribut": 5002,
      "muff": 5003,
      "spared": 5004,
      "desk": 5005,
      "grasp": 5006,
      "ols": 5007,
      "tray": 5008,
      "parties": 5009,
      "appet": 5010,
      "shock": 5011,
      "interview": 5012,
      "tones": 5013,
      "takes": 5014,
      "moral": 5015,
      "stronger": 5016,
      "awful": 5017,
      "doubted": 5018,
      "enemies": 5019,
      "prisoners": 5020,
      "patron": 5021,
      "built": 5022,
      "abode": 5023,
      "footsteps": 5024,
      "belle": 5025,
      "riding": 5026,
      "ridic": 5027,
      "humanity": 5028,
      "Death": 5029,
      "gratified": 5030,
      "trusted": 5031,
      "distribute": 5032,
      "eagerness": 5033,
      "variety": 5034,
      "paying": 5035,
      "complain": 5036,
      "magist": 5037,
      "amaze": 5038,
      "separate": 5039,
      "warning": 5040,
      "infli": 5041,
      "represented": 5042,
      "yielded": 5043,
      "falsehood": 5044,
      "imagination": 5045,
      "vague": 5046,
      "politeness": 5047,
      "reserved": 5048,
      "inferior": 5049,
      "obstin": 5050,
      "valuable": 5051,
      "hitherto": 5052,
      "reproach": 5053,
      "apolo": 5054,
      "consolation": 5055,
      "trades": 5056,
      "remembrance": 5057,
      "Certain": 5058,
      "Esh": 5059,
      "OM": 5060,
      "PO": 5061,
      "afore": 5062,
      "bade": 5063,
      "cough": 5064,
      "fling": 5065,
      "faced": 5066,
      "ials": 5067,
      "mir": 5068,
      "mach": 5069,
      "mama": 5070,
      "pack": 5071,
      "tend": 5072,
      "vous": 5073,
      "regi": 5074,
      "ism": 5075,
      "isn": 5076,
      "behold": 5077,
      "liqu": 5078,
      "liest": 5079,
      "ghast": 5080,
      "weed": 5081,
      "hosp": 5082,
      "moan": 5083,
      "converse": 5084,
      "manif": 5085,
      "mental": 5086,
      "ulation": 5087,
      "faults": 5088,
      "foreign": 5089,
      "rude": 5090,
      "sighed": 5091,
      "obtained": 5092,
      "viously": 5093,
      "answers": 5094,
      "ladder": 5095,
      "mighty": 5096,
      "partner": 5097,
      "donate": 5098,
      "attack": 5099,
      "Information": 5100,
      "beds": 5101,
      "stray": 5102,
      "carri": 5103,
      "brood": 5104,
      "interpret": 5105,
      "lands": 5106,
      "chosen": 5107,
      "cries": 5108,
      "expressions": 5109,
      "ggs": 5110,
      "penny": 5111,
      "signed": 5112,
      "chiefly": 5113,
      "murmur": 5114,
      "syste": 5115,
      "properly": 5116,
      "proceeding": 5117,
      "freed": 5118,
      "daresay": 5119,
      "advantages": 5120,
      "mountain": 5121,
      "deserved": 5122,
      "softened": 5123,
      "supported": 5124,
      "geni": 5125,
      "possibility": 5126,
      "beaten": 5127,
      "curtains": 5128,
      "vanity": 5129,
      "preserve": 5130,
      "displaying": 5131,
      "coward": 5132,
      "recognised": 5133,
      "stockings": 5134,
      "hunger": 5135,
      "escaped": 5136,
      "Chapter": 5137,
      "indifferent": 5138,
      "Austen": 5139,
      "amazement": 5140,
      "Eshton": 5141,
      "regiment": 5142,
      "Dent": 5143,
      "En": 5144,
      "Lilli": 5145,
      "Nob": 5146,
      "Wor": 5147,
      "_he": 5148,
      "bation": 5149,
      "cure": 5150,
      "dain": 5151,
      "dus": 5152,
      "ec": 5153,
      "ili": 5154,
      "kick": 5155,
      "rt": 5156,
      "rison": 5157,
      "tables": 5158,
      "wake": 5159,
      "hero": 5160,
      "reject": 5161,
      "repose": 5162,
      "record": 5163,
      "itute": 5164,
      "sele": 5165,
      "rot": 5166,
      "cease": 5167,
      "wept": 5168,
      "webs": 5169,
      "cote": 5170,
      "sullen": 5171,
      "deter": 5172,
      "deceived": 5173,
      "derer": 5174,
      "abstra": 5175,
      "aments": 5176,
      "Heading": 5177,
      "ulations": 5178,
      "prodig": 5179,
      "providing": 5180,
      "dering": 5181,
      "medit": 5182,
      "checked": 5183,
      "stole": 5184,
      "spark": 5185,
      "grant": 5186,
      "marble": 5187,
      "cloth": 5188,
      "tram": 5189,
      "voc": 5190,
      "resting": 5191,
      "smart": 5192,
      "smiles": 5193,
      "nerves": 5194,
      "appears": 5195,
      "gets": 5196,
      "mates": 5197,
      "hopeless": 5198,
      "horri": 5199,
      "drawer": 5200,
      "confident": 5201,
      "meantime": 5202,
      "capacity": 5203,
      "answering": 5204,
      "smallest": 5205,
      "honoured": 5206,
      "apping": 5207,
      "gaol": 5208,
      "swept": 5209,
      "closely": 5210,
      "angel": 5211,
      "fury": 5212,
      "signific": 5213,
      "wonderful": 5214,
      "incred": 5215,
      "incident": 5216,
      "syllable": 5217,
      "sleeping": 5218,
      "dreaded": 5219,
      "official": 5220,
      "candles": 5221,
      "neighbours": 5222,
      "safety": 5223,
      "examine": 5224,
      "bowed": 5225,
      "breathless": 5226,
      "seeming": 5227,
      "blessed": 5228,
      "cheeks": 5229,
      "groan": 5230,
      "introduced": 5231,
      "arrangement": 5232,
      "sentiments": 5233,
      "visitors": 5234,
      "reminded": 5235,
      "lifting": 5236,
      "Millcote": 5237,
      "assembly": 5238,
      "stooped": 5239,
      "correct": 5240,
      "released": 5241,
      "draught": 5242,
      "encouraged": 5243,
      "escort": 5244,
      "_my_": 5245,
      "glimpse": 5246,
      "Gabelle": 5247,
      "messenger": 5248,
      "_me_": 5249,
      "Lilliput": 5250,
      "Gre": 5251,
      "RAN": 5252,
      "Sat": 5253,
      "_You": 5254,
      "bull": 5255,
      "baby": 5256,
      "fret": 5257,
      "gid": 5258,
      "jail": 5259,
      "mam": 5260,
      "ratt": 5261,
      "lle": 5262,
      "nois": 5263,
      "hid": 5264,
      "likes": 5265,
      "wasted": 5266,
      "idi": 5267,
      "adop": 5268,
      "withstanding": 5269,
      "alley": 5270,
      "detail": 5271,
      "unning": 5272,
      "uneasy": 5273,
      "unfortunate": 5274,
      "motive": 5275,
      "accomp": 5276,
      "performan": 5277,
      "usal": 5278,
      "disgu": 5279,
      "illust": 5280,
      "will_": 5281,
      "willingly": 5282,
      "commo": 5283,
      "offering": 5284,
      "brute": 5285,
      "umber": 5286,
      "natured": 5287,
      "walks": 5288,
      "shocked": 5289,
      "commission": 5290,
      "Christ": 5291,
      "ships": 5292,
      "shift": 5293,
      "curate": 5294,
      "cursed": 5295,
      "curls": 5296,
      "merit": 5297,
      "insisted": 5298,
      "charity": 5299,
      "mischief": 5300,
      "portra": 5301,
      "privile": 5302,
      "admired": 5303,
      "eyebrows": 5304,
      "pretend": 5305,
      "doubtless": 5306,
      "sounds": 5307,
      "wildly": 5308,
      "THIS": 5309,
      "ANY": 5310,
      "midnight": 5311,
      "posted": 5312,
      "changing": 5313,
      "petition": 5314,
      "formerly": 5315,
      "centre": 5316,
      "coachman": 5317,
      "embrace": 5318,
      "determination": 5319,
      "intellect": 5320,
      "polite": 5321,
      "descend": 5322,
      "princes": 5323,
      "frightful": 5324,
      "connections": 5325,
      "erect": 5326,
      "extended": 5327,
      "hasty": 5328,
      "special": 5329,
      "endeavouring": 5330,
      "enjoyment": 5331,
      "throwing": 5332,
      "attentive": 5333,
      "funeral": 5334,
      "powers": 5335,
      "displayed": 5336,
      "distinguish": 5337,
      "farmer": 5338,
      "performing": 5339,
      "distinction": 5340,
      "hideous": 5341,
      "mutual": 5342,
      "philosop": 5343,
      "improvement": 5344,
      "traveller": 5345,
      "dwelling": 5346,
      "execution": 5347,
      "impulse": 5348,
      "assurance": 5349,
      "amidst": 5350,
      "absorbed": 5351,
      "Bedwin": 5352,
      "deemed": 5353,
      "manifest": 5354,
      ",)": 5355,
      ".—": 5356,
      "ATION": 5357,
      "Five": 5358,
      "First": 5359,
      "Ken": 5360,
      "Lou": 5361,
      "Many": 5362,
      "Most": 5363,
      "Sop": 5364,
      "_will_": 5365,
      "bred": 5366,
      "bla": 5367,
      "ejac": 5368,
      "flame": 5369,
      "gif": 5370,
      "lished": 5371,
      "nail": 5372,
      "named": 5373,
      "numer": 5374,
      "oath": 5375,
      "pred": 5376,
      "rs": 5377,
      "rare": 5378,
      "san": 5379,
      "slo": 5380,
      "sadd": 5381,
      "vic": 5382,
      "editions": 5383,
      "orious": 5384,
      "este": 5385,
      "mechan": 5386,
      "sees": 5387,
      "secured": 5388,
      "beating": 5389,
      "chate": 5390,
      "iding": 5391,
      "iring": 5392,
      "soever": 5393,
      "unconscious": 5394,
      "unwilling": 5395,
      "abhor": 5396,
      "conceived": 5397,
      "aches": 5398,
      "whir": 5399,
      "ody": 5400,
      "diseas": 5401,
      "illot": 5402,
      "comput": 5403,
      "elbow": 5404,
      "despat": 5405,
      "posit": 5406,
      "ornament": 5407,
      "distressed": 5408,
      "hence": 5409,
      "joining": 5410,
      "pier": 5411,
      "Stre": 5412,
      "relate": 5413,
      "crib": 5414,
      "accused": 5415,
      "steep": 5416,
      "expressing": 5417,
      "singing": 5418,
      "copying": 5419,
      "Once": 5420,
      "finish": 5421,
      "correspond": 5422,
      "bloom": 5423,
      "needn": 5424,
      "staying": 5425,
      "honourable": 5426,
      "expecting": 5427,
      "entertained": 5428,
      "counsel": 5429,
      "numbers": 5430,
      "Edward": 5431,
      "catching": 5432,
      "distributed": 5433,
      "gleam": 5434,
      "assisted": 5435,
      "stuff": 5436,
      "gallant": 5437,
      "swallowed": 5438,
      "struggling": 5439,
      "communicated": 5440,
      "slipped": 5441,
      "thankful": 5442,
      "furnished": 5443,
      "fleet": 5444,
      "apprehension": 5445,
      "males": 5446,
      "vanished": 5447,
      "defective": 5448,
      "echoes": 5449,
      "Leah": 5450,
      "distinguished": 5451,
      "limited": 5452,
      "devoted": 5453,
      "dragged": 5454,
      "ugly": 5455,
      "compelled": 5456,
      "awkward": 5457,
      "naughty": 5458,
      "contempl": 5459,
      "government": 5460,
      "Mean": 5461,
      "score": 5462,
      "errand": 5463,
      "brilliant": 5464,
      "paupers": 5465,
      "revenge": 5466,
      "establishment": 5467,
      "Those": 5468,
      "squee": 5469,
      "Certainly": 5470,
      "_You_": 5471,
      "accomplish": 5472,
      "Sophie": 5473,
      "numerous": 5474,
      "esteem": 5475,
      "chateau": 5476,
      "00": 5477,
      "15": 5478,
      "BER": 5479,
      "Both": 5480,
      "BLE": 5481,
      "Der": 5482,
      "Huns": 5483,
      "IX": 5484,
      "JECT": 5485,
      "Little": 5486,
      "Mort": 5487,
      "New": 5488,
      "Or": 5489,
      "Pi": 5490,
      "Speak": 5491,
      "Tri": 5492,
      "aired": 5493,
      "bill": 5494,
      "dumb": 5495,
      "fare": 5496,
      "gs": 5497,
      "gin": 5498,
      "iment": 5499,
      "iers": 5500,
      "iency": 5501,
      "lust": 5502,
      "lane": 5503,
      "sending": 5504,
      "heat": 5505,
      "rela": 5506,
      "atter": 5507,
      "enes": 5508,
      "enched": 5509,
      "hay": 5510,
      "secur": 5511,
      "vehi": 5512,
      "veil": 5513,
      "vexed": 5514,
      "veying": 5515,
      "advert": 5516,
      "alt": 5517,
      "altern": 5518,
      "weap": 5519,
      "weep": 5520,
      "coast": 5521,
      "cocked": 5522,
      "deeper": 5523,
      "union": 5524,
      "unjust": 5525,
      "unnatural": 5526,
      "hoping": 5527,
      "load": 5528,
      "sau": 5529,
      "confirm": 5530,
      "apped": 5531,
      "bolt": 5532,
      "oping": 5533,
      "moreover": 5534,
      "dimin": 5535,
      "fires": 5536,
      "ists": 5537,
      "shaken": 5538,
      "rances": 5539,
      "whereupon": 5540,
      "grind": 5541,
      "hedge": 5542,
      "offence": 5543,
      "household": 5544,
      "scr": 5545,
      "impart": 5546,
      "sonage": 5547,
      "bling": 5548,
      "formal": 5549,
      "timid": 5550,
      "lingering": 5551,
      "shoem": 5552,
      "surface": 5553,
      "seness": 5554,
      "subdu": 5555,
      "trace": 5556,
      "pressing": 5557,
      "Thrush": 5558,
      "meanwhile": 5559,
      "HAT": 5560,
      "holder": 5561,
      "keness": 5562,
      "allowing": 5563,
      "appropri": 5564,
      "approbation": 5565,
      "gazing": 5566,
      "circle": 5567,
      "sounded": 5568,
      "powerful": 5569,
      ",—“": 5570,
      "hundreds": 5571,
      "included": 5572,
      "destro": 5573,
      "destru": 5574,
      "preparing": 5575,
      "changes": 5576,
      "council": 5577,
      "END": 5578,
      "burden": 5579,
      "frock": 5580,
      "IST": 5581,
      "governor": 5582,
      "slightly": 5583,
      "wisdom": 5584,
      "descending": 5585,
      "evidence": 5586,
      "contradi": 5587,
      "recollections": 5588,
      "suspense": 5589,
      "benevol": 5590,
      "porochial": 5591,
      "pulling": 5592,
      "convenience": 5593,
      "requested": 5594,
      "knock": 5595,
      "flatter": 5596,
      "guessed": 5597,
      "clerk": 5598,
      "declare": 5599,
      "pupils": 5600,
      "desirous": 5601,
      "splend": 5602,
      "ministers": 5603,
      "substance": 5604,
      "requirements": 5605,
      "Miller": 5606,
      "wrapped": 5607,
      "passenger": 5608,
      "revealed": 5609,
      "grieved": 5610,
      "expedient": 5611,
      "spectacle": 5612,
      "elegant": 5613,
      "soothing": 5614,
      "collar": 5615,
      "niece": 5616,
      "uniform": 5617,
      "dignity": 5618,
      "presume": 5619,
      "involuntarily": 5620,
      "plenty": 5621,
      "appetite": 5622,
      "genius": 5623,
      "_he_": 5624,
      "determine": 5625,
      "illotine": 5626,
      "Street": 5627,
      "Hunsford": 5628,
      "Thrushcross": 5629,
      ".)": 5630,
      "AM": 5631,
      "BI": 5632,
      "Gam": 5633,
      "Hold": 5634,
      "None": 5635,
      "Red": 5636,
      "SH": 5637,
      "Tru": 5638,
      "West": 5639,
      "WAR": 5640,
      "_his": 5641,
      "_she": 5642,
      "bac": 5643,
      "bones": 5644,
      "dow": 5645,
      "fitted": 5646,
      "ibly": 5647,
      "ju": 5648,
      "lain": 5649,
      "mun": 5650,
      "oted": 5651,
      "olly": 5652,
      "ogue": 5653,
      "plot": 5654,
      "rative": 5655,
      "swo": 5656,
      "sions": 5657,
      "tse": 5658,
      "tum": 5659,
      "heed": 5660,
      "heels": 5661,
      "thee": 5662,
      "recent": 5663,
      "ators": 5664,
      "tot": 5665,
      "stare": 5666,
      "beard": 5667,
      "behalf": 5668,
      "roll": 5669,
      "rode": 5670,
      "chol": 5671,
      "likeness": 5672,
      "fees": 5673,
      "fection": 5674,
      "felicity": 5675,
      "neth": 5676,
      "lomon": 5677,
      "reduced": 5678,
      "motions": 5679,
      "peep": 5680,
      "acher": 5681,
      "pover": 5682,
      "byshire": 5683,
      "disclaim": 5684,
      "affirmed": 5685,
      "medy": 5686,
      "cane": 5687,
      "dict": 5688,
      "--“": 5689,
      "clam": 5690,
      "chill": 5691,
      "laden": 5692,
      "Missis": 5693,
      "brand": 5694,
      "brains": 5695,
      "scenes": 5696,
      "impressed": 5697,
      "distinct": 5698,
      "forms": 5699,
      "max": 5700,
      "begun": 5701,
      "bedside": 5702,
      "string": 5703,
      "cleared": 5704,
      "wanting": 5705,
      "visited": 5706,
      "purse": 5707,
      "easiness": 5708,
      "maintain": 5709,
      "Solomon": 5710,
      "recovering": 5711,
      "Does": 5712,
      "hush": 5713,
      "brothers": 5714,
      "fairy": 5715,
      "penet": 5716,
      "resolute": 5717,
      "INT": 5718,
      "created": 5719,
      "characters": 5720,
      "sixty": 5721,
      "wondering": 5722,
      "driver": 5723,
      "proceedings": 5724,
      "starting": 5725,
      "pursuit": 5726,
      "legal": 5727,
      "travels": 5728,
      "metro": 5729,
      "yellow": 5730,
      "assumed": 5731,
      "lamps": 5732,
      "effects": 5733,
      "resentment": 5734,
      "duties": 5735,
      "rags": 5736,
      "quisite": 5737,
      "blessing": 5738,
      "measured": 5739,
      "amazed": 5740,
      "knocking": 5741,
      "attendance": 5742,
      "flew": 5743,
      "Abbot": 5744,
      "fulf": 5745,
      "delicacy": 5746,
      "entertainment": 5747,
      "tenderness": 5748,
      "cards": 5749,
      "breathed": 5750,
      "established": 5751,
      "additional": 5752,
      "tranquil": 5753,
      "physic": 5754,
      "physical": 5755,
      "teachers": 5756,
      "smell": 5757,
      "material": 5758,
      "restored": 5759,
      "embarrass": 5760,
      "pushing": 5761,
      "victim": 5762,
      "heavily": 5763,
      "condemned": 5764,
      "universal": 5765,
      "bewildered": 5766,
      "volunteers": 5767,
      "vulgar": 5768,
      "magistrate": 5769,
      "carriages": 5770,
      "Derbyshire": 5771,
      "Morton": 5772,
      "Gamfield": 5773,
      "!--": 5774,
      "Ac": 5775,
      "Au": 5776,
      "Ay": 5777,
      "Bright": 5778,
      "BUT": 5779,
      "Could": 5780,
      "During": 5781,
      "EM": 5782,
      "GUT": 5783,
      "ICH": 5784,
      "Ma": 5785,
      "Put": 5786,
      "UR": 5787,
      "_him": 5788,
      "ai": 5789,
      "bars": 5790,
      "gence": 5791,
      "oak": 5792,
      "paces": 5793,
      "tid": 5794,
      "uously": 5795,
      "yal": 5796,
      "insensible": 5797,
      "inmates": 5798,
      "online": 5799,
      "ert": 5800,
      "thres": 5801,
      "edge": 5802,
      "tore": 5803,
      "astill": 5804,
      "sell": 5805,
      "beer": 5806,
      "beam": 5807,
      "owing": 5808,
      "defic": 5809,
      "abilities": 5810,
      "consu": 5811,
      "tiv": 5812,
      "police": 5813,
      "whither": 5814,
      "do_": 5815,
      "perman": 5816,
      "ilty": 5817,
      "disappeared": 5818,
      "worship": 5819,
      "affirm": 5820,
      "causes": 5821,
      "shared": 5822,
      "overcome": 5823,
      "obed": 5824,
      "seriously": 5825,
      "headed": 5826,
      "track": 5827,
      "lets": 5828,
      "letting": 5829,
      "attending": 5830,
      "contact": 5831,
      "format": 5832,
      "appeal": 5833,
      "calls": 5834,
      "bedroom": 5835,
      "stillness": 5836,
      "carrying": 5837,
      "passages": 5838,
      "submit": 5839,
      "empire": 5840,
      "silently": 5841,
      "tempted": 5842,
      "traitor": 5843,
      "misfortune": 5844,
      "accent": 5845,
      "doubts": 5846,
      "remains": 5847,
      "remainder": 5848,
      "apply": 5849,
      "risk": 5850,
      "satisfy": 5851,
      "decent": 5852,
      "murderer": 5853,
      "crit": 5854,
      "ringing": 5855,
      "ENBER": 5856,
      "consequences": 5857,
      "cousins": 5858,
      "safely": 5859,
      "narrative": 5860,
      "flower": 5861,
      "polis": 5862,
      "Art": 5863,
      "appointed": 5864,
      "healthy": 5865,
      ".’”": 5866,
      "sufferings": 5867,
      "sadly": 5868,
      "whispering": 5869,
      "stirring": 5870,
      "improved": 5871,
      "largest": 5872,
      "principle": 5873,
      "impertin": 5874,
      "intelligible": 5875,
      "virtues": 5876,
      "leaned": 5877,
      "increasing": 5878,
      "wounded": 5879,
      "parent": 5880,
      "desirable": 5881,
      "elderly": 5882,
      "vigorous": 5883,
      "reserve": 5884,
      "wrath": 5885,
      "engagement": 5886,
      "responded": 5887,
      "spectacles": 5888,
      "obscure": 5889,
      "WHICH": 5890,
      "torture": 5891,
      "Spy": 5892,
      "WITH": 5893,
      "breeches": 5894,
      "PROJECT": 5895,
      "source": 5896,
      "status": 5897,
      "observations": 5898,
      "Court": 5899,
      "encountered": 5900,
      "freedom": 5901,
      "website": 5902,
      "prodigious": 5903,
      "mamma": 5904,
      "Kenneth": 5905,
      "Louis": 5906,
      "diseases": 5907,
      "Pilot": 5908,
      "subdued": 5909,
      "WARRAN": 5910,
      "_his_": 5911,
      "metropolis": 5912,
      "Brighton": 5913,
      "GUTENBER": 5914,
      "threshold": 5915,
      "astille": 5916,
      "GUTENBERG": 5917,
      "Dam": 5918,
      "Jud": 5919,
      "Ke": 5920,
      "PAR": 5921,
      "QU": 5922,
      "Sh": 5923,
      "Sam": 5924,
      "Scat": 5925,
      "VE": 5926,
      "XL": 5927,
      "_do_": 5928,
      "awe": 5929,
      "aper": 5930,
      "aversion": 5931,
      "ba": 5932,
      "bi": 5933,
      "bited": 5934,
      "cunning": 5935,
      "danced": 5936,
      "fil": 5937,
      "frank": 5938,
      "lof": 5939,
      "lack": 5940,
      "mend": 5941,
      "mute": 5942,
      "mult": 5943,
      "nag": 5944,
      "ware": 5945,
      "inner": 5946,
      "recei": 5947,
      "remarks": 5948,
      "toast": 5949,
      "tomorrow": 5950,
      "ensu": 5951,
      "istered": 5952,
      "asion": 5953,
      "army": 5954,
      "arise": 5955,
      "leaf": 5956,
      "member": 5957,
      "vehe": 5958,
      "waste": 5959,
      "hadn": 5960,
      "deceive": 5961,
      "hoarse": 5962,
      "loves": 5963,
      "agitated": 5964,
      "sable": 5965,
      "mock": 5966,
      "pel": 5967,
      "abomin": 5968,
      "conference": 5969,
      "accommo": 5970,
      "popul": 5971,
      "managed": 5972,
      "wheels": 5973,
      "exhi": 5974,
      "exchanged": 5975,
      "oking": 5976,
      "induce": 5977,
      "displeasure": 5978,
      "dismissed": 5979,
      "anting": 5980,
      "themat": 5981,
      "repul": 5982,
      "intense": 5983,
      "compared": 5984,
      "complying": 5985,
      "sphere": 5986,
      "vivac": 5987,
      "eyed": 5988,
      "lowest": 5989,
      "older": 5990,
      "torney": 5991,
      "attribut": 5992,
      "youngest": 5993,
      "preter": 5994,
      "Whatever": 5995,
      "contribut": 5996,
      "nervous": 5997,
      "returns": 5998,
      "Indi": 5999,
      "malice": 6000,
      "childhood": 6001,
      "licit": 6002,
      "joint": 6003,
      "subs": 6004,
      "lovely": 6005,
      "deny": 6006,
      "landlord": 6007,
      "xture": 6008,
      "gravity": 6009,
      "expressive": 6010,
      "allowance": 6011,
      "hinder": 6012,
      "IND": 6013,
      "cherd": 6014,
      "cherished": 6015,
      "lattice": 6016,
      "reality": 6017,
      "temptation": 6018,
      "woods": 6019,
      "pursue": 6020,
      "anxiously": 6021,
      "dreams": 6022,
      "contrast": 6023,
      "recollected": 6024,
      "constantly": 6025,
      "moonlight": 6026,
      "struggled": 6027,
      "genial": 6028,
      "bursting": 6029,
      "defend": 6030,
      "collected": 6031,
      "_Houyhnhnm": 6032,
      "article": 6033,
      "powder": 6034,
      "threatening": 6035,
      "hesitation": 6036,
      "soldiers": 6037,
      "containing": 6038,
      "cautiously": 6039,
      "protested": 6040,
      "application": 6041,
      "control": 6042,
      "gathering": 6043,
      "title": 6044,
      "conducted": 6045,
      "Guillotine": 6046,
      "linen": 6047,
      "snatched": 6048,
      "fatigue": 6049,
      "bunal": 6050,
      "abandoned": 6051,
      "veloped": 6052,
      "precisely": 6053,
      "extinguished": 6054,
      "rules": 6055,
      "haughty": 6056,
      "Nobody": 6057,
      "horrible": 6058,
      "scrut": 6059,
      "splendid": 6060,
      "_she_": 6061,
      "_him_": 6062,
      "Keep": 6063,
      "Scatcherd": 6064,
      ";—": 6065,
      "Bastille": 6066,
      "Citizen": 6067,
      "EX": 6068,
      "Gent": 6069,
      "Hill": 6070,
      "bag": 6071,
      "cence": 6072,
      "durst": 6073,
      "fight": 6074,
      "fram": 6075,
      "ires": 6076,
      "nn": 6077,
      "oe": 6078,
      "pse": 6079,
      "pment": 6080,
      "paint": 6081,
      "rouse": 6082,
      "sinking": 6083,
      "ued": 6084,
      "vive": 6085,
      "wre": 6086,
      "waking": 6087,
      "yah": 6088,
      "infall": 6089,
      "infinite": 6090,
      "theless": 6091,
      "revol": 6092,
      "reaching": 6093,
      "remonstr": 6094,
      "toi": 6095,
      "is_": 6096,
      "istic": 6097,
      "ases": 6098,
      "estee": 6099,
      "stage": 6100,
      "stars": 6101,
      "wasn": 6102,
      "notes": 6103,
      "coolly": 6104,
      "cts": 6105,
      "suspect": 6106,
      "dex": 6107,
      "depri": 6108,
      "demonstr": 6109,
      "unk": 6110,
      "uncertain": 6111,
      "uneasiness": 6112,
      "hoof": 6113,
      "holes": 6114,
      "locks": 6115,
      "moti": 6116,
      "shes": 6117,
      "conj": 6118,
      "aciously": 6119,
      "tip": 6120,
      "ards": 6121,
      "indis": 6122,
      "dish": 6123,
      "provisions": 6124,
      "oped": 6125,
      "divers": 6126,
      "cies": 6127,
      "ishly": 6128,
      "earlier": 6129,
      "lessness": 6130,
      "wherever": 6131,
      "goods": 6132,
      "angle": 6133,
      "closure": 6134,
      "county": 6135,
      "scow": 6136,
      "scattered": 6137,
      "imprison": 6138,
      "attracted": 6139,
      "bliss": 6140,
      "distracted": 6141,
      "Were": 6142,
      "guide": 6143,
      "glorious": 6144,
      "pian": 6145,
      "shirt": 6146,
      "merch": 6147,
      "horiz": 6148,
      "diff": 6149,
      "believing": 6150,
      "Soon": 6151,
      "capri": 6152,
      "price": 6153,
      "lawn": 6154,
      "towers": 6155,
      "allows": 6156,
      "laughter": 6157,
      "buy": 6158,
      "huge": 6159,
      "secre": 6160,
      "arrier": 6161,
      "whist": 6162,
      "signify": 6163,
      "satisfac": 6164,
      "strangely": 6165,
      "promin": 6166,
      "elsewhere": 6167,
      "opinions": 6168,
      "driving": 6169,
      "lux": 6170,
      "advise": 6171,
      "advancing": 6172,
      "crumb": 6173,
      "Something": 6174,
      "pony": 6175,
      "churchyard": 6176,
      "dependence": 6177,
      "interruption": 6178,
      "passionate": 6179,
      "porter": 6180,
      "increase": 6181,
      "terrified": 6182,
      "lodge": 6183,
      "injured": 6184,
      "rubbed": 6185,
      "arrangements": 6186,
      "families": 6187,
      "trot": 6188,
      "echoed": 6189,
      "conjectured": 6190,
      "affli": 6191,
      "recommended": 6192,
      "comparative": 6193,
      "sincerely": 6194,
      "ascended": 6195,
      "testi": 6196,
      "issued": 6197,
      "advised": 6198,
      "sobbed": 6199,
      "sensation": 6200,
      "modern": 6201,
      "darted": 6202,
      "drunk": 6203,
      "annoy": 6204,
      "haunted": 6205,
      "perplex": 6206,
      "dawn": 6207,
      "exhausted": 6208,
      "dominions": 6209,
      "obligation": 6210,
      "tranquillity": 6211,
      "ghastly": 6212,
      "dusk": 6213,
      "Satur": 6214,
      "security": 6215,
      "destruction": 6216,
      "tumult": 6217,
      "poverty": 6218,
      "esteemed": 6219,
      "motives": 6220,
      "horizon": 6221,
      ").": 6222,
      "Bai": 6223,
      "Com": 6224,
      "Dick": 6225,
      "GH": 6226,
      "Happ": 6227,
      "Next": 6228,
      "TW": 6229,
      "alighted": 6230,
      "bru": 6231,
      "cart": 6232,
      "crew": 6233,
      "cattle": 6234,
      "dun": 6235,
      "fly": 6236,
      "fist": 6237,
      "mare": 6238,
      "mson": 6239,
      "mpered": 6240,
      "oy": 6241,
      "oting": 6242,
      "pas": 6243,
      "pane": 6244,
      "radi": 6245,
      "sar": 6246,
      "swore": 6247,
      "schol": 6248,
      "uine": 6249,
      "uries": 6250,
      "inch": 6251,
      "independent": 6252,
      "infamous": 6253,
      "reference": 6254,
      "remedy": 6255,
      "ouch": 6256,
      "ern": 6257,
      "thir": 6258,
      "token": 6259,
      "astic": 6260,
      "hable": 6261,
      "level": 6262,
      "seam": 6263,
      "stag": 6264,
      "novel": 6265,
      "robe": 6266,
      "vet": 6267,
      "velled": 6268,
      "chard": 6269,
      "chanced": 6270,
      "forwards": 6271,
      "ado": 6272,
      "advent": 6273,
      "wels": 6274,
      "alle": 6275,
      "cture": 6276,
      "suited": 6277,
      "unch": 6278,
      "unnecessary": 6279,
      "mankind": 6280,
      "quitting": 6281,
      "odious": 6282,
      "exquisite": 6283,
      "shun": 6284,
      "raction": 6285,
      "peril": 6286,
      "wholes": 6287,
      "apron": 6288,
      "favoured": 6289,
      "theirs": 6290,
      "affor": 6291,
      "rum": 6292,
      "cheese": 6293,
      "fiend": 6294,
      "sibility": 6295,
      "plans": 6296,
      "placing": 6297,
      "eless": 6298,
      "services": 6299,
      "----": 6300,
      "imposed": 6301,
      "vivid": 6302,
      "clung": 6303,
      "clasped": 6304,
      "clenched": 6305,
      "undertake": 6306,
      "specul": 6307,
      "positions": 6308,
      "thinks": 6309,
      "angrily": 6310,
      "umes": 6311,
      "mathemat": 6312,
      "beggar": 6313,
      "shoe": 6314,
      "shops": 6315,
      "interference": 6316,
      "kindled": 6317,
      "flour": 6318,
      "commend": 6319,
      "commonly": 6320,
      "current": 6321,
      "tempor": 6322,
      "cares": 6323,
      "ferences": 6324,
      "confine": 6325,
      "morsel": 6326,
      "generations": 6327,
      "smaller": 6328,
      "approve": 6329,
      "gging": 6330,
      "volunt": 6331,
      "supplic": 6332,
      "sixteen": 6333,
      "respecting": 6334,
      "sorts": 6335,
      "views": 6336,
      "judges": 6337,
      "Lynn": 6338,
      "probability": 6339,
      "crack": 6340,
      "animated": 6341,
      "prayed": 6342,
      "smoking": 6343,
      "invar": 6344,
      "travelled": 6345,
      "frost": 6346,
      "feature": 6347,
      "boards": 6348,
      "deserted": 6349,
      "breadth": 6350,
      "complac": 6351,
      "Maria": 6352,
      "tremble": 6353,
      "punct": 6354,
      "creeping": 6355,
      "protection": 6356,
      "Brit": 6357,
      "bitterly": 6358,
      "alid": 6359,
      "flattered": 6360,
      "sympa": 6361,
      "rers": 6362,
      "introduction": 6363,
      "consented": 6364,
      "prospects": 6365,
      "preserved": 6366,
      "threatened": 6367,
      "gesture": 6368,
      "mysterious": 6369,
      "starved": 6370,
      "sternly": 6371,
      "breathing": 6372,
      "mourn": 6373,
      "neglected": 6374,
      "Except": 6375,
      "stooping": 6376,
      "obstac": 6377,
      "preferred": 6378,
      "travellers": 6379,
      "Among": 6380,
      "searching": 6381,
      "derived": 6382,
      "links": 6383,
      "prudent": 6384,
      "renewed": 6385,
      "humbly": 6386,
      "Janet": 6387,
      "leagues": 6388,
      "dialogue": 6389,
      "pouring": 6390,
      "ingenious": 6391,
      "pistol": 6392,
      "bulk": 6393,
      "seventy": 6394,
      "confounded": 6395,
      "refreshment": 6396,
      "decision": 6397,
      "exclamation": 6398,
      "hazard": 6399,
      "tradesman": 6400,
      "Green": 6401,
      "performance": 6402,
      "Christmas": 6403,
      "portrait": 6404,
      "destroyed": 6405,
      "Artful": 6406,
      "Louisa": 6407,
      "Gentle": 6408,
      "toilet": 6409,
      "dexter": 6410,
      "Saturday": 6411,
      "Bailey": 6412,
      "Blan": 6413,
      "Duff": 6414,
      "Dawk": 6415,
      "Hay": 6416,
      "MR": 6417,
      "Much": 6418,
      "Surely": 6419,
      "THAT": 6420,
      "_did": 6421,
      "awoke": 6422,
      "dashed": 6423,
      "fled": 6424,
      "faster": 6425,
      "gallows": 6426,
      "jer": 6427,
      "kins": 6428,
      "lp": 6429,
      "picked": 6430,
      "sca": 6431,
      "sket": 6432,
      "tread": 6433,
      "ume": 6434,
      "uity": 6435,
      "udes": 6436,
      "vest": 6437,
      "vative": 6438,
      "wave": 6439,
      "inher": 6440,
      "inex": 6441,
      "insult": 6442,
      "recess": 6443,
      "ouder": 6444,
      "thie": 6445,
      "tops": 6446,
      "tools": 6447,
      "asing": 6448,
      "ites": 6449,
      "haven": 6450,
      "stall": 6451,
      "stately": 6452,
      "stile": 6453,
      "stains": 6454,
      "wiped": 6455,
      "wicket": 6456,
      "widow": 6457,
      "verting": 6458,
      "utch": 6459,
      "not_": 6460,
      "thern": 6461,
      "del": 6462,
      "det": 6463,
      "degr": 6464,
      "uncomfortable": 6465,
      "loo": 6466,
      "urity": 6467,
      "sacred": 6468,
      "abund": 6469,
      "convey": 6470,
      "acquired": 6471,
      "achie": 6472,
      "restor": 6473,
      "icing": 6474,
      "fol": 6475,
      "ulating": 6476,
      "disclosed": 6477,
      "discharge": 6478,
      "apan": 6479,
      "owns": 6480,
      "promo": 6481,
      "cake": 6482,
      "medic": 6483,
      "reputation": 6484,
      "readiness": 6485,
      "rowed": 6486,
      "rantic": 6487,
      "offers": 6488,
      "offended": 6489,
      "offens": 6490,
      "lightly": 6491,
      "brut": 6492,
      "hereafter": 6493,
      "traces": 6494,
      "nightcap": 6495,
      "tooth": 6496,
      "scrat": 6497,
      "monarch": 6498,
      "imprud": 6499,
      "previously": 6500,
      "restri": 6501,
      "lasted": 6502,
      "India": 6503,
      "maister": 6504,
      "pausing": 6505,
      "hearty": 6506,
      "gible": 6507,
      "flash": 6508,
      "tales": 6509,
      "Think": 6510,
      "Monday": 6511,
      "strongest": 6512,
      "continual": 6513,
      "repet": 6514,
      "approved": 6515,
      "doubtful": 6516,
      "needs": 6517,
      "needle": 6518,
      "skir": 6519,
      "emi": 6520,
      "Without": 6521,
      "occasioned": 6522,
      "shutters": 6523,
      "profit": 6524,
      "earthly": 6525,
      "neighbouring": 6526,
      "warmth": 6527,
      "sickness": 6528,
      "instruments": 6529,
      "instructions": 6530,
      "behaved": 6531,
      "clouded": 6532,
      "inquiring": 6533,
      "punish": 6534,
      "hurriedly": 6535,
      "twilight": 6536,
      "convul": 6537,
      "despise": 6538,
      "extrem": 6539,
      "creet": 6540,
      "protect": 6541,
      "associations": 6542,
      "sharply": 6543,
      "genuine": 6544,
      "graceful": 6545,
      "infant": 6546,
      "absolute": 6547,
      "faculties": 6548,
      "slee": 6549,
      "cruelty": 6550,
      "basket": 6551,
      "function": 6552,
      "acknowledgment": 6553,
      "potent": 6554,
      "vigour": 6555,
      "partial": 6556,
      "partiality": 6557,
      "methods": 6558,
      "Quick": 6559,
      "Like": 6560,
      "NOT": 6561,
      "swelled": 6562,
      "preparation": 6563,
      "preparations": 6564,
      "Lock": 6565,
      "emerged": 6566,
      "referred": 6567,
      "cabinet": 6568,
      "censure": 6569,
      "swift": 6570,
      "jumped": 6571,
      "President": 6572,
      "revived": 6573,
      "restraint": 6574,
      "system": 6575,
      "gaoler": 6576,
      "details": 6577,
      "illustrious": 6578,
      "privilege": 6579,
      "relaxed": 6580,
      "vehicle": 6581,
      "embarrassment": 6582,
      "receipt": 6583,
      "Dawkins": 6584,
      ";--": 6585,
      "CI": 6586,
      "FUL": 6587,
      "Him": 6588,
      "Im": 6589,
      "Ju": 6590,
      "Jar": 6591,
      "June": 6592,
      "Japan": 6593,
      "NE": 6594,
      "Non": 6595,
      "Out": 6596,
      "Rob": 6597,
      "Wot": 6598,
      "_is_": 6599,
      "aim": 6600,
      "battle": 6601,
      "brug": 6602,
      "cret": 6603,
      "claimed": 6604,
      "ditch": 6605,
      "fid": 6606,
      "ffi": 6607,
      "frantic": 6608,
      "gun": 6609,
      "ggn": 6610,
      "iably": 6611,
      "jack": 6612,
      "naked": 6613,
      "pence": 6614,
      "tast": 6615,
      "tint": 6616,
      "uary": 6617,
      "inha": 6618,
      "inscri": 6619,
      "oning": 6620,
      "atic": 6621,
      "attering": 6622,
      "enab": 6623,
      "artic": 6624,
      "arrows": 6625,
      "hack": 6626,
      "mead": 6627,
      "stable": 6628,
      "nowhere": 6629,
      "rog": 6630,
      "rocks": 6631,
      "ldbrug": 6632,
      "vember": 6633,
      "ented": 6634,
      "herd": 6635,
      "owe": 6636,
      "notwithstanding": 6637,
      "sustained": 6638,
      "dew": 6639,
      "degener": 6640,
      "decor": 6641,
      "degrad": 6642,
      "united": 6643,
      "hook": 6644,
      "losing": 6645,
      "peev": 6646,
      "acknowledge": 6647,
      "tempered": 6648,
      "exten": 6649,
      "exemp": 6650,
      "permit": 6651,
      "perceiving": 6652,
      "endured": 6653,
      "apt": 6654,
      "apsed": 6655,
      "affir": 6656,
      "whatsoever": 6657,
      "inev": 6658,
      "ruffi": 6659,
      "comment": 6660,
      "retain": 6661,
      "complied": 6662,
      "blew": 6663,
      "lessons": 6664,
      "eful": 6665,
      "grasping": 6666,
      "November": 6667,
      "market": 6668,
      "housebreak": 6669,
      "parce": 6670,
      "parall": 6671,
      "courts": 6672,
      "blu": 6673,
      "voided": 6674,
      "forming": 6675,
      "happier": 6676,
      "satin": 6677,
      "chambers": 6678,
      "natives": 6679,
      "guilty": 6680,
      "carpet": 6681,
      "adding": 6682,
      "surveying": 6683,
      "kinds": 6684,
      "passions": 6685,
      "Royal": 6686,
      "wrought": 6687,
      "waved": 6688,
      "curses": 6689,
      "purple": 6690,
      "relish": 6691,
      "relinqu": 6692,
      "actual": 6693,
      "exclaim": 6694,
      "crimson": 6695,
      "Comp": 6696,
      "vidence": 6697,
      "misfortunes": 6698,
      "openly": 6699,
      "appearances": 6700,
      "repeating": 6701,
      "falls": 6702,
      "tricks": 6703,
      "drops": 6704,
      "fairly": 6705,
      "cordi": 6706,
      "corpse": 6707,
      "Luggn": 6708,
      "creating": 6709,
      "affections": 6710,
      "conversing": 6711,
      "ctors": 6712,
      "later": 6713,
      "respects": 6714,
      "viewed": 6715,
      "judged": 6716,
      "terminated": 6717,
      "crag": 6718,
      "queer": 6719,
      "secrets": 6720,
      "bury": 6721,
      "humility": 6722,
      "crushed": 6723,
      "quarre": 6724,
      "quarters": 6725,
      "ORY": 6726,
      "slightest": 6727,
      "announce": 6728,
      "studies": 6729,
      "wander": 6730,
      "constitution": 6731,
      "ragged": 6732,
      "compliments": 6733,
      "labou": 6734,
      "solemnly": 6735,
      "attendant": 6736,
      "confessed": 6737,
      "endeavours": 6738,
      "People": 6739,
      "buildings": 6740,
      "thrusting": 6741,
      "introduce": 6742,
      "Hallo": 6743,
      "rubbing": 6744,
      "defects": 6745,
      "audience": 6746,
      "hesitated": 6747,
      "stroke": 6748,
      "screamed": 6749,
      "alteration": 6750,
      "reported": 6751,
      "robbery": 6752,
      "elegance": 6753,
      "applicable": 6754,
      "ambition": 6755,
      "issue": 6756,
      "More": 6757,
      "gruel": 6758,
      "vexation": 6759,
      "deliberately": 6760,
      "perpetual": 6761,
      "magnific": 6762,
      "detected": 6763,
      "abruptly": 6764,
      "tumbri": 6765,
      "purchase": 6766,
      "malicious": 6767,
      "puzzled": 6768,
      "qualified": 6769,
      "discern": 6770,
      "ridiculous": 6771,
      "tsey": 6772,
      "secrecy": 6773,
      "GHT": 6774,
      "sympathis": 6775,
      "Blanche": 6776,
      "_did_": 6777,
      "thieves": 6778,
      "Lockwood": 6779,
      "Jarvis": 6780,
      "meadow": 6781,
      "20": 6782,
      ":”": 6783,
      "DAM": 6784,
      "Fe": 6785,
      "Foul": 6786,
      "Ger": 6787,
      "List": 6788,
      "Made": 6789,
      "MIT": 6790,
      "Par": 6791,
      "PRE": 6792,
      "SS": 6793,
      "SU": 6794,
      "Sil": 6795,
      "Since": 6796,
      "Tues": 6797,
      "alike": 6798,
      "bay": 6799,
      "bled": 6800,
      "dined": 6801,
      "drown": 6802,
      "dirt": 6803,
      "fla": 6804,
      "iver": 6805,
      "lass": 6806,
      "laced": 6807,
      "louder": 6808,
      "mould": 6809,
      "nay": 6810,
      "nations": 6811,
      "ox": 6812,
      "omed": 6813,
      "pac": 6814,
      "ral": 6815,
      "rab": 6816,
      "sci": 6817,
      "sang": 6818,
      "tink": 6819,
      "vir": 6820,
      "vap": 6821,
      "vail": 6822,
      "valley": 6823,
      "wn": 6824,
      "wakened": 6825,
      "invisible": 6826,
      "remor": 6827,
      "atives": 6828,
      "tower": 6829,
      "tossed": 6830,
      "ench": 6831,
      "isk": 6832,
      "meals": 6833,
      "members": 6834,
      "sere": 6835,
      "nobility": 6836,
      "roman": 6837,
      "withered": 6838,
      "entity": 6839,
      "adventure": 6840,
      "sober": 6841,
      "solace": 6842,
      "solid": 6843,
      "term": 6844,
      "deaf": 6845,
      "defi": 6846,
      "deject": 6847,
      "defer": 6848,
      "uncommon": 6849,
      "feed": 6850,
      "feather": 6851,
      "redistribut": 6852,
      "moise": 6853,
      "peas": 6854,
      "tie": 6855,
      "amount": 6856,
      "outward": 6857,
      "doll": 6858,
      "mption": 6859,
      "text": 6860,
      "tearing": 6861,
      "ifying": 6862,
      "persever": 6863,
      "lful": 6864,
      "user": 6865,
      "discour": 6866,
      "disorder": 6867,
      "provo": 6868,
      "ckweed": 6869,
      "rule": 6870,
      "retained": 6871,
      "diversion": 6872,
      "daylight": 6873,
      "pless": 6874,
      "reek": 6875,
      "lessly": 6876,
      "impe": 6877,
      "immen": 6878,
      "impet": 6879,
      "graciously": 6880,
      "clust": 6881,
      "renched": 6882,
      "lightning": 6883,
      "marking": 6884,
      "tedious": 6885,
      "counting": 6886,
      "monsieur": 6887,
      "blush": 6888,
      "pleasures": 6889,
      "maj": 6890,
      "lieu": 6891,
      "minded": 6892,
      "justified": 6893,
      "winding": 6894,
      "matri": 6895,
      "emphat": 6896,
      "commit": 6897,
      "pied": 6898,
      "talents": 6899,
      "wrung": 6900,
      "shill": 6901,
      "regions": 6902,
      "landing": 6903,
      "follows": 6904,
      "acting": 6905,
      "Thurs": 6906,
      "Soho": 6907,
      "treacher": 6908,
      "shower": 6909,
      "sities": 6910,
      "hurrying": 6911,
      "prime": 6912,
      "struldbrug": 6913,
      "Force": 6914,
      "sundry": 6915,
      "deadly": 6916,
      "arrive": 6917,
      "blackened": 6918,
      "questioned": 6919,
      "THER": 6920,
      "suppressed": 6921,
      "corners": 6922,
      "cutting": 6923,
      "READ": 6924,
      "LITY": 6925,
      "LIMIT": 6926,
      "transport": 6927,
      "startled": 6928,
      "smoo": 6929,
      "humoured": 6930,
      "travel": 6931,
      "movements": 6932,
      "examination": 6933,
      "ORT": 6934,
      "occupy": 6935,
      "payments": 6936,
      "crossing": 6937,
      "colours": 6938,
      "exerc": 6939,
      "whispers": 6940,
      "pitch": 6941,
      "extravag": 6942,
      "comprehended": 6943,
      "principles": 6944,
      "imperfect": 6945,
      "entreaties": 6946,
      "calmly": 6947,
      "separated": 6948,
      "glided": 6949,
      "grove": 6950,
      "paragraphs": 6951,
      "apprehended": 6952,
      "declined": 6953,
      "rushing": 6954,
      "feverish": 6955,
      "customers": 6956,
      "Although": 6957,
      "desiring": 6958,
      "AGRE": 6959,
      "apparent": 6960,
      "limitation": 6961,
      "expenses": 6962,
      "royalties": 6963,
      "grieve": 6964,
      "philosophy": 6965,
      "cautious": 6966,
      "vessels": 6967,
      "replacement": 6968,
      "operation": 6969,
      "searched": 6970,
      "derivative": 6971,
      "divine": 6972,
      "embarrassed": 6973,
      "management": 6974,
      "equipment": 6975,
      "abrupt": 6976,
      "excellen": 6977,
      "storey": 6978,
      "climbed": 6979,
      "eloqu": 6980,
      "Chickweed": 6981,
      "brave": 6982,
      "insolent": 6983,
      "printed": 6984,
      "tendency": 6985,
      "brooding": 6986,
      "intellectual": 6987,
      "Meantime": 6988,
      "shoemaker": 6989,
      "BILITY": 6990,
      "vivacity": 6991,
      "wholesome": 6992,
      "afforded": 6993,
      "offensive": 6994,
      "Nonsense": 6995,
      "degradation": 6996,
      "DAMAG": 6997,
      "Foulon": 6998,
      "Tuesday": 6999,
      "remorse": 7000,
      "moiselle": 7001,
      "immense": 7002,
      "Thursday": 7003,
      "LIMITED": 7004,
      "01": 7005,
      "Apri": 7006,
      "Bless": 7007,
      "Bible": 7008,
      "Dutch": 7009,
      "IR": 7010,
      "Jury": 7011,
      "LD": 7012,
      "Make": 7013,
      "Nature": 7014,
      "OO": 7015,
      "Sit": 7016,
      "Van": 7017,
      "Wood": 7018,
      "_are": 7019,
      "_struldbrug": 7020,
      "avoided": 7021,
      "base": 7022,
      "citiz": 7023,
      "dang": 7024,
      "emin": 7025,
      "fli": 7026,
      "fish": 7027,
      "fying": 7028,
      "job": 7029,
      "jaw": 7030,
      "lur": 7031,
      "lorn": 7032,
      "liter": 7033,
      "pend": 7034,
      "pite": 7035,
      "pang": 7036,
      "rings": 7037,
      "sly": 7038,
      "sink": 7039,
      "uals": 7040,
      "wits": 7041,
      "wings": 7042,
      "winking": 7043,
      "—‘": 7044,
      "rear": 7045,
      "eration": 7046,
      "atmo": 7047,
      "enclosed": 7048,
      "asks": 7049,
      "arter": 7050,
      "haired": 7051,
      "leather": 7052,
      "mered": 7053,
      "staff": 7054,
      "adorn": 7055,
      "adjust": 7056,
      "irk": 7057,
      "soil": 7058,
      "coal": 7059,
      "coals": 7060,
      "coinc": 7061,
      "ripp": 7062,
      "allusion": 7063,
      "devour": 7064,
      "unlike": 7065,
      "unaccount": 7066,
      "females": 7067,
      "lover": 7068,
      "ague": 7069,
      "moss": 7070,
      "poet": 7071,
      "poster": 7072,
      "amity": 7073,
      "amused": 7074,
      "dock": 7075,
      "resour": 7076,
      "resort": 7077,
      "exchange": 7078,
      "gos": 7079,
      "foli": 7080,
      "disclosure": 7081,
      "gered": 7082,
      "ounded": 7083,
      "ittance": 7084,
      "cken": 7085,
      "intoler": 7086,
      "composition": 7087,
      "canoe": 7088,
      "dice": 7089,
      "divert": 7090,
      "handle": 7091,
      "repair": 7092,
      "repaired": 7093,
      "cile": 7094,
      "cili": 7095,
      "plant": 7096,
      "overflow": 7097,
      "obvious": 7098,
      "stories": 7099,
      "spar": 7100,
      "image": 7101,
      "granted": 7102,
      "spell": 7103,
      "spection": 7104,
      "counted": 7105,
      "traced": 7106,
      "housemaid": 7107,
      "torment": 7108,
      "mond": 7109,
      "blunder": 7110,
      "prevail": 7111,
      "psy": 7112,
      "vesti": 7113,
      "distri": 7114,
      "restrain": 7115,
      "umbered": 7116,
      "guine": 7117,
      "guilt": 7118,
      "feels": 7119,
      "strained": 7120,
      "winds": 7121,
      "bodily": 7122,
      "visage": 7123,
      "glory": 7124,
      "flag": 7125,
      "shivering": 7126,
      "refusal": 7127,
      "wax": 7128,
      "Stay": 7129,
      "caress": 7130,
      "choos": 7131,
      "insist": 7132,
      "relating": 7133,
      "trap": 7134,
      "crimes": 7135,
      "highway": 7136,
      "coldly": 7137,
      "helpless": 7138,
      "listener": 7139,
      "trifle": 7140,
      "objections": 7141,
      "dropping": 7142,
      "pretence": 7143,
      "final": 7144,
      "garments": 7145,
      "accounts": 7146,
      "supplied": 7147,
      "griev": 7148,
      "decay": 7149,
      "necessarily": 7150,
      "characteristic": 7151,
      "madness": 7152,
      "judicious": 7153,
      "shutting": 7154,
      "Being": 7155,
      "knitted": 7156,
      "expectations": 7157,
      "countenances": 7158,
      "obliging": 7159,
      "pursuing": 7160,
      "sweetest": 7161,
      "witch": 7162,
      "utterly": 7163,
      "sorrel": 7164,
      "occupations": 7165,
      "missionary": 7166,
      "stuck": 7167,
      "cultiv": 7168,
      "suspended": 7169,
      "exertion": 7170,
      "antial": 7171,
      "succession": 7172,
      "blowing": 7173,
      "intimacy": 7174,
      "warned": 7175,
      "privately": 7176,
      "defence": 7177,
      "jewels": 7178,
      "fasc": 7179,
      "witnessed": 7180,
      "suitable": 7181,
      "fatal": 7182,
      "nodding": 7183,
      "lodging": 7184,
      "balls": 7185,
      "attentively": 7186,
      "dimly": 7187,
      "contrive": 7188,
      "bridle": 7189,
      "attempting": 7190,
      "relationship": 7191,
      "suggestion": 7192,
      "proofs": 7193,
      "superiority": 7194,
      "explo": 7195,
      "shouted": 7196,
      "shouting": 7197,
      "scream": 7198,
      "persisted": 7199,
      "picking": 7200,
      "infernal": 7201,
      "indignant": 7202,
      "teacher": 7203,
      "solicit": 7204,
      "materials": 7205,
      "sexes": 7206,
      "intentions": 7207,
      "bigness": 7208,
      "filling": 7209,
      "patriot": 7210,
      "patriots": 7211,
      "Carter": 7212,
      "restore": 7213,
      "Moor": 7214,
      "instinctively": 7215,
      "beasts": 7216,
      "encouragement": 7217,
      "souls": 7218,
      "religion": 7219,
      "religious": 7220,
      "dispute": 7221,
      "prompt": 7222,
      "consulting": 7223,
      "commencement": 7224,
      "mirror": 7225,
      "significant": 7226,
      "disguise": 7227,
      "despatched": 7228,
      "Tribunal": 7229,
      "advertise": 7230,
      "brandy": 7231,
      "permanent": 7232,
      "critical": 7233,
      "_Houyhnhnm_": 7234,
      "piano": 7235,
      "satisfactory": 7236,
      "seamen": 7237,
      "temporary": 7238,
      "invariably": 7239,
      "enabled": 7240,
      "articulate": 7241,
      "peevish": 7242,
      "housebreaker": 7243,
      "Luggnagg": 7244,
      "German": 7245,
      "serene": 7246,
      "shillings": 7247,
      "April": 7248,
      "_are_": 7249,
      ");": 7250,
      ";’": 7251,
      "Bri": 7252,
      "CEN": 7253,
      "DE": 7254,
      "Day": 7255,
      "Dover": 7256,
      "Hundred": 7257,
      "Last": 7258,
      "Pr": 7259,
      "Show": 7260,
      "_was": 7261,
      "_not_": 7262,
      "brace": 7263,
      "barrier": 7264,
      "cris": 7265,
      "dwe": 7266,
      "eli": 7267,
      "econ": 7268,
      "faded": 7269,
      "gno": 7270,
      "gap": 7271,
      "gross": 7272,
      "iance": 7273,
      "igent": 7274,
      "jar": 7275,
      "nin": 7276,
      "nes": 7277,
      "nic": 7278,
      "pular": 7279,
      "pathy": 7280,
      "uge": 7281,
      "vable": 7282,
      "vary": 7283,
      "whim": 7284,
      "yell": 7285,
      "insp": 7286,
      "recommenced": 7287,
      "thumb": 7288,
      "tocr": 7289,
      "enjo": 7290,
      "envy": 7291,
      "orange": 7292,
      "leet": 7293,
      "sters": 7294,
      "stress": 7295,
      "nob": 7296,
      "wives": 7297,
      "cean": 7298,
      "lican": 7299,
      "lihood": 7300,
      "forlorn": 7301,
      "adjoining": 7302,
      "sore": 7303,
      "copied": 7304,
      "ctive": 7305,
      "unction": 7306,
      "unreasonable": 7307,
      "loaded": 7308,
      "samond": 7309,
      "pear": 7310,
      "shell": 7311,
      "abuse": 7312,
      "convent": 7313,
      "concept": 7314,
      "console": 7315,
      "popular": 7316,
      "upward": 7317,
      "upright": 7318,
      "mantel": 7319,
      "dole": 7320,
      "wheel": 7321,
      "resign": 7322,
      "exal": 7323,
      "external": 7324,
      "exagger": 7325,
      "disdain": 7326,
      "protra": 7327,
      "thereby": 7328,
      "mbre": 7329,
      "ruined": 7330,
      "comer": 7331,
      "retching": 7332,
      "thanked": 7333,
      "plun": 7334,
      "plane": 7335,
      "overheard": 7336,
      "elapsed": 7337,
      "nevertheless": 7338,
      "clut": 7339,
      "clasping": 7340,
      "oline": 7341,
      "brisk": 7342,
      "everywhere": 7343,
      "scra": 7344,
      "screw": 7345,
      "impud": 7346,
      "backs": 7347,
      "prey": 7348,
      "preference": 7349,
      "tenant": 7350,
      "ressing": 7351,
      "happens": 7352,
      "happiest": 7353,
      "umn": 7354,
      "Providence": 7355,
      "chapter": 7356,
      "breed": 7357,
      "sawyer": 7358,
      "shoot": 7359,
      "interpreter": 7360,
      "engine": 7361,
      "Rosamond": 7362,
      "wrist": 7363,
      "region": 7364,
      "relative": 7365,
      "traversed": 7366,
      "drawers": 7367,
      "fasten": 7368,
      "keeps": 7369,
      "charitable": 7370,
      "shows": 7371,
      "kennel": 7372,
      "lawyer": 7373,
      "elev": 7374,
      "doesn": 7375,
      "fourteen": 7376,
      "sunny": 7377,
      "sweep": 7378,
      "ordering": 7379,
      "pretending": 7380,
      "fication": 7381,
      "pens": 7382,
      "whit": 7383,
      "strictly": 7384,
      "needed": 7385,
      "skins": 7386,
      "volume": 7387,
      "painted": 7388,
      "autumn": 7389,
      "decide": 7390,
      "favours": 7391,
      "latch": 7392,
      "spectators": 7393,
      "differently": 7394,
      "murdered": 7395,
      "viewing": 7396,
      "destination": 7397,
      "destiny": 7398,
      "mentioning": 7399,
      "offices": 7400,
      "bloody": 7401,
      "repeatedly": 7402,
      "horseback": 7403,
      "difficulties": 7404,
      "ONE": 7405,
      "invalid": 7406,
      "glasses": 7407,
      "lugg": 7408,
      "bargain": 7409,
      "gratification": 7410,
      "Under": 7411,
      "firmness": 7412,
      "intelligent": 7413,
      "gravely": 7414,
      "gleamed": 7415,
      "bidding": 7416,
      "opportunities": 7417,
      "mounting": 7418,
      "civilities": 7419,
      "studied": 7420,
      "depends": 7421,
      "sickly": 7422,
      "swallow": 7423,
      "pitied": 7424,
      "antipathy": 7425,
      "porridge": 7426,
      "situated": 7427,
      "creep": 7428,
      "measures": 7429,
      "coughed": 7430,
      "OUN": 7431,
      "designed": 7432,
      "accepting": 7433,
      "faithfully": 7434,
      "faculty": 7435,
      "banished": 7436,
      "succeeding": 7437,
      "employments": 7438,
      "contriv": 7439,
      "luckily": 7440,
      "cows": 7441,
      "imaginary": 7442,
      "suspicions": 7443,
      "recognise": 7444,
      "speedily": 7445,
      "monstrous": 7446,
      "indulged": 7447,
      "nimb": 7448,
      "panes": 7449,
      "assembled": 7450,
      "devotion": 7451,
      "Liber": 7452,
      "solicitude": 7453,
      "schemes": 7454,
      "thrice": 7455,
      "decidedly": 7456,
      "valued": 7457,
      "arguments": 7458,
      "consistent": 7459,
      "obscurity": 7460,
      "retreated": 7461,
      "Caroline": 7462,
      "prudence": 7463,
      "shroud": 7464,
      "perpetually": 7465,
      "scruple": 7466,
      "malign": 7467,
      "reconc": 7468,
      "TAIN": 7469,
      "prosperous": 7470,
      "obstinate": 7471,
      "Work": 7472,
      "eccent": 7473,
      "rattled": 7474,
      "adopted": 7475,
      "ejaculated": 7476,
      "nails": 7477,
      "sanct": 7478,
      "appropriate": 7479,
      "physician": 7480,
      "tidings": 7481,
      "obedience": 7482,
      "abominable": 7483,
      "infallibly": 7484,
      "merchant": 7485,
      "perplexity": 7486,
      "repetition": 7487,
      "tastes": 7488,
      "inhabited": 7489,
      "ruffian": 7490,
      "Listen": 7491,
      "Silence": 7492,
      "defiance": 7493,
      "dwelt": 7494,
      "enjoying": 7495,
      "!)": 7496,
      "16": 7497,
      "AC": 7498,
      "AY": 7499,
      "DI": 7500,
      "Den": 7501,
      "Ere": 7502,
      "Fo": 7503,
      "High": 7504,
      "Kent": 7505,
      "LL": 7506,
      "Lor": 7507,
      "Lane": 7508,
      "Min": 7509,
      "Mic": 7510,
      "Sever": 7511,
      "Ter": 7512,
      "Turn": 7513,
      "Wal": 7514,
      "_must": 7515,
      "aver": 7516,
      "awaited": 7517,
      "bind": 7518,
      "dened": 7519,
      "eggs": 7520,
      "fren": 7521,
      "flies": 7522,
      "gasped": 7523,
      "ime": 7524,
      "iate": 7525,
      "lend": 7526,
      "lings": 7527,
      "mous": 7528,
      "pha": 7529,
      "pint": 7530,
      "soften": 7531,
      "tap": 7532,
      "ture": 7533,
      "tended": 7534,
      "tasted": 7535,
      "uated": 7536,
      "vine": 7537,
      "vicious": 7538,
      "yaw": 7539,
      "indo": 7540,
      "income": 7541,
      "reared": 7542,
      "recur": 7543,
      "rebell": 7544,
      "references": 7545,
      "thou": 7546,
      "tofore": 7547,
      "toms": 7548,
      "ensed": 7549,
      "encounter": 7550,
      "asy": 7551,
      "arrested": 7552,
      "itate": 7553,
      "itably": 7554,
      "haul": 7555,
      "hagg": 7556,
      "lex": 7557,
      "melt": 7558,
      "stables": 7559,
      "stretching": 7560,
      "beloved": 7561,
      "nostri": 7562,
      "hired": 7563,
      "roses": 7564,
      "rolling": 7565,
      "lighter": 7566,
      "ential": 7567,
      "idance": 7568,
      "forgiven": 7569,
      "herbs": 7570,
      "sombre": 7571,
      "notions": 7572,
      "rigid": 7573,
      "allied": 7574,
      "sul": 7575,
      "demean": 7576,
      "deem": 7577,
      "unci": 7578,
      "unseen": 7579,
      "unpleasant": 7580,
      "unlikely": 7581,
      "unfortunately": 7582,
      "unlucky": 7583,
      "hotel": 7584,
      "local": 7585,
      "agent": 7586,
      "agers": 7587,
      "agged": 7588,
      "aggra": 7589,
      "tick": 7590,
      "butter": 7591,
      "ouncing": 7592,
      "teaching": 7593,
      "etc": 7594,
      "expost": 7595,
      "ardent": 7596,
      "shy": 7597,
      "shrun": 7598,
      "ifies": 7599,
      "ifully": 7600,
      "raving": 7601,
      "gobl": 7602,
      "perused": 7603,
      "usage": 7604,
      "dissol": 7605,
      "disadvantage": 7606,
      "endur": 7607,
      "appar": 7608,
      "somehow": 7609,
      "prostr": 7610,
      "artist": 7611,
      "meditated": 7612,
      "forest": 7613,
      "forefinger": 7614,
      "veness": 7615,
      "vengeance": 7616,
      "comfor": 7617,
      "sibly": 7618,
      "shaped": 7619,
      "plants": 7620,
      "ademy": 7621,
      "overpow": 7622,
      "assid": 7623,
      "bleeding": 7624,
      "lesson": 7625,
      "whereby": 7626,
      "hasis": 7627,
      "brutes": 7628,
      "scrap": 7629,
      "para": 7630,
      "igning": 7631,
      "minist": 7632,
      "improb": 7633,
      "backwards": 7634,
      "umbled": 7635,
      "contracted": 7636,
      "cerity": 7637,
      "tenants": 7638,
      "smith": 7639,
      "throng": 7640,
      "tells": 7641,
      "guidance": 7642,
      "Therefore": 7643,
      "intercourse": 7644,
      "mative": 7645,
      "kindred": 7646,
      "visiting": 7647,
      "glit": 7648,
      "glances": 7649,
      "engaging": 7650,
      "submiss": 7651,
      "emphasis": 7652,
      "commer": 7653,
      "Rome": 7654,
      "dense": 7655,
      "register": 7656,
      "registered": 7657,
      "curse": 7658,
      "curled": 7659,
      "undoub": 7660,
      "confron": 7661,
      "speaks": 7662,
      "charges": 7663,
      "presents": 7664,
      "accents": 7665,
      "stealing": 7666,
      "helor": 7667,
      "misty": 7668,
      "admittance": 7669,
      "appren": 7670,
      "acquies": 7671,
      "spiration": 7672,
      "trim": 7673,
      "hushed": 7674,
      "discovering": 7675,
      "pretended": 7676,
      "pencil": 7677,
      "casement": 7678,
      "resolve": 7679,
      "stripped": 7680,
      "ski": 7681,
      "wilder": 7682,
      "conversations": 7683,
      "cupboard": 7684,
      "greet": 7685,
      "occasional": 7686,
      "destined": 7687,
      "flood": 7688,
      "knives": 7689,
      "worthless": 7690,
      "transa": 7691,
      "Devil": 7692,
      "knelt": 7693,
      "fellows": 7694,
      "liberal": 7695,
      "barbar": 7696,
      "brighter": 7697,
      "ramble": 7698,
      "completed": 7699,
      "governed": 7700,
      "cellar": 7701,
      "flushed": 7702,
      "assurances": 7703,
      "lamb": 7704,
      "eighty": 7705,
      "habitual": 7706,
      "utterance": 7707,
      "lineaments": 7708,
      "producing": 7709,
      "polished": 7710,
      "casting": 7711,
      "desert": 7712,
      "warmly": 7713,
      "earnestness": 7714,
      "complaining": 7715,
      "persuasion": 7716,
      "swinging": 7717,
      "addresses": 7718,
      "punch": 7719,
      "passionately": 7720,
      "provoked": 7721,
      "communicate": 7722,
      "bonny": 7723,
      "blows": 7724,
      "remarkably": 7725,
      "TIES": 7726,
      "seizing": 7727,
      "intimated": 7728,
      "furnish": 7729,
      "couch": 7730,
      "defy": 7731,
      "steadfast": 7732,
      "hanged": 7733,
      "Lucases": 7734,
      "representation": 7735,
      "yielding": 7736,
      "witnesses": 7737,
      "Everybody": 7738,
      "mortals": 7739,
      "gratefully": 7740,
      "mixed": 7741,
      "mixture": 7742,
      "leader": 7743,
      "pronounce": 7744,
      "cheerfulness": 7745,
      "involved": 7746,
      "removing": 7747,
      "superintend": 7748,
      "harmless": 7749,
      "tiresome": 7750,
      "breathe": 7751,
      "mourning": 7752,
      "indulgence": 7753,
      "sincerity": 7754,
      "smelling": 7755,
      "ublican": 7756,
      "leisurely": 7757,
      "proposals": 7758,
      "assertion": 7759,
      "craving": 7760,
      "argument": 7761,
      "massive": 7762,
      "anticipated": 7763,
      "songs": 7764,
      "fixing": 7765,
      "executed": 7766,
      "twisted": 7767,
      "discussion": 7768,
      "customs": 7769,
      "swim": 7770,
      "recently": 7771,
      "congratulations": 7772,
      "depths": 7773,
      "treasurer": 7774,
      "excessive": 7775,
      "propriety": 7776,
      "jealousy": 7777,
      "washing": 7778,
      "branches": 7779,
      "invention": 7780,
      "troublesome": 7781,
      "apology": 7782,
      "liquor": 7783,
      "interpreted": 7784,
      "meditating": 7785,
      "idiot": 7786,
      "piercing": 7787,
      "gallantry": 7788,
      "accomplishments": 7789,
      "weapon": 7790,
      "benevolence": 7791,
      "bachelor": 7792,
      "judice": 7793,
      "ensued": 7794,
      "Indian": 7795,
      "deprived": 7796,
      "sarcas": 7797,
      "scholars": 7798,
      "British": 7799,
      "Gentlemen": 7800,
      "emigrant": 7801,
      "exempt": 7802,
      "affirmative": 7803,
      "parallel": 7804,
      "blushed": 7805,
      "exclaiming": 7806,
      "tumbrils": 7807,
      "Briggs": 7808,
      "_was_": 7809,
      "economy": 7810,
      "exalted": 7811,
      "_must_": 7812,
      "undoubted": 7813,
      "AP": 7814,
      "ABLE": 7815,
      "Cé": 7816,
      "Cly": 7817,
      "COM": 7818,
      "Des": 7819,
      "Eh": 7820,
      "EIN": 7821,
      "GE": 7822,
      "Gr": 7823,
      "Great": 7824,
      "HE": 7825,
      "Jack": 7826,
      "KS": 7827,
      "Life": 7828,
      "March": 7829,
      "Oc": 7830,
      "Other": 7831,
      "PLA": 7832,
      "Plain": 7833,
      "Sm": 7834,
      "Up": 7835,
      "bition": 7836,
      "cable": 7837,
      "dil": 7838,
      "daring": 7839,
      "dwar": 7840,
      "fund": 7841,
      "foul": 7842,
      "gings": 7843,
      "hue": 7844,
      "honey": 7845,
      "iac": 7846,
      "jok": 7847,
      "lun": 7848,
      "loun": 7849,
      "otic": 7850,
      "oats": 7851,
      "ocean": 7852,
      "pir": 7853,
      "pall": 7854,
      "paced": 7855,
      "ras": 7856,
      "rity": 7857,
      "sword": 7858,
      "tame": 7859,
      "heer": 7860,
      "incur": 7861,
      "inconvenience": 7862,
      "anch": 7863,
      "recl": 7864,
      "research": 7865,
      "attain": 7866,
      "isance": 7867,
      "estim": 7868,
      "lland": 7869,
      "hael": 7870,
      "haunt": 7871,
      "seed": 7872,
      "sewing": 7873,
      "stim": 7874,
      "stature": 7875,
      "beholding": 7876,
      "nook": 7877,
      "hiding": 7878,
      "roots": 7879,
      "ceit": 7880,
      "chuck": 7881,
      "lion": 7882,
      "lime": 7883,
      "liking": 7884,
      "idly": 7885,
      "fork": 7886,
      "ads": 7887,
      "withdraw": 7888,
      "soli": 7889,
      "cock": 7890,
      "rial": 7891,
      "riment": 7892,
      "depressed": 7893,
      "definite": 7894,
      "developed": 7895,
      "uncommonly": 7896,
      "agon": 7897,
      "sailed": 7898,
      "abound": 7899,
      "conqu": 7900,
      "acute": 7901,
      "acquire": 7902,
      "academy": 7903,
      "amond": 7904,
      "whip": 7905,
      "button": 7906,
      "doom": 7907,
      "quive": 7908,
      "ressible": 7909,
      "ets": 7910,
      "etary": 7911,
      "perfection": 7912,
      "indust": 7913,
      "ica": 7914,
      "disliked": 7915,
      "disease": 7916,
      "anty": 7917,
      "owned": 7918,
      "propose": 7919,
      "prolonged": 7920,
      "oundrel": 7921,
      "afresh": 7922,
      "mbling": 7923,
      "opposed": 7924,
      "cheap": 7925,
      "diamond": 7926,
      "fired": 7927,
      "intr": 7928,
      "Its": 7929,
      "compressed": 7930,
      "inkling": 7931,
      "sermon": 7932,
      "immo": 7933,
      "clay": 7934,
      "lighting": 7935,
      "ffic": 7936,
      "brings": 7937,
      "heretofore": 7938,
      "trunk": 7939,
      "thoughtful": 7940,
      "scent": 7941,
      "rightly": 7942,
      "turnkey": 7943,
      "newly": 7944,
      "implo": 7945,
      "attraction": 7946,
      "evenings": 7947,
      "backed": 7948,
      "aneously": 7949,
      "breeding": 7950,
      "strain": 7951,
      "strings": 7952,
      "gipsy": 7953,
      "masters": 7954,
      "glare": 7955,
      "glaring": 7956,
      "flint": 7957,
      "flashed": 7958,
      "spoon": 7959,
      "denial": 7960,
      "temples": 7961,
      "merits": 7962,
      "fewer": 7963,
      "confer": 7964,
      "fastening": 7965,
      "darkened": 7966,
      "Through": 7967,
      "countrymen": 7968,
      "holds": 7969,
      "worldly": 7970,
      "stealth": 7971,
      "recovery": 7972,
      "publ": 7973,
      "coldness": 7974,
      "Attorney": 7975,
      "prisons": 7976,
      "applying": 7977,
      "tribut": 7978,
      "trick": 7979,
      "heaved": 7980,
      "finest": 7981,
      "corrob": 7982,
      "blot": 7983,
      "statement": 7984,
      "striving": 7985,
      "considerably": 7986,
      "seconds": 7987,
      "greed": 7988,
      "respectful": 7989,
      "wisely": 7990,
      "towns": 7991,
      "topic": 7992,
      "topics": 7993,
      "crust": 7994,
      "cradle": 7995,
      "Dead": 7996,
      "barred": 7997,
      "secretary": 7998,
      "humili": 7999,
      "Yours": 8000,
      "palm": 8001,
      "effectually": 8002,
      "mouths": 8003,
      "gloves": 8004,
      "dreamt": 8005,
      "dreaming": 8006,
      "frighten": 8007,
      "harness": 8008,
      "facts": 8009,
      "interrupt": 8010,
      "accordance": 8011,
      "damage": 8012,
      "arers": 8013,
      "raging": 8014,
      "vais": 8015,
      "ART": 8016,
      "supportable": 8017,
      "convince": 8018,
      "struggles": 8019,
      "admirable": 8020,
      "provoking": 8021,
      "cheerfully": 8022,
      "magic": 8023,
      "creation": 8024,
      "seize": 8025,
      "appreci": 8026,
      "rousing": 8027,
      "practised": 8028,
      "practical": 8029,
      "designs": 8030,
      "handkerchiefs": 8031,
      "glim": 8032,
      "rustic": 8033,
      "apprehensions": 8034,
      "professed": 8035,
      "Everything": 8036,
      "organ": 8037,
      "lodgings": 8038,
      "banks": 8039,
      "ceptible": 8040,
      "regularly": 8041,
      "faintly": 8042,
      "zzled": 8043,
      "lords": 8044,
      "European": 8045,
      "tenderly": 8046,
      "troop": 8047,
      "hesitating": 8048,
      "educated": 8049,
      "borrowed": 8050,
      "boldly": 8051,
      "limits": 8052,
      "indulge": 8053,
      "Quite": 8054,
      "shrill": 8055,
      "reckoned": 8056,
      "vereign": 8057,
      "dragging": 8058,
      "glowing": 8059,
      "compassionate": 8060,
      "ghosts": 8061,
      "expedition": 8062,
      "lids": 8063,
      "obtaining": 8064,
      "sneer": 8065,
      "surrounding": 8066,
      "Hope": 8067,
      "unexpectedly": 8068,
      "advisable": 8069,
      "retreating": 8070,
      "nieces": 8071,
      "irritation": 8072,
      "irritated": 8073,
      "shuddering": 8074,
      "lamentations": 8075,
      "errors": 8076,
      "leaped": 8077,
      "fatigued": 8078,
      "fragments": 8079,
      "rewarded": 8080,
      "mortification": 8081,
      "January": 8082,
      "drunken": 8083,
      "belonging": 8084,
      "league": 8085,
      "perplexed": 8086,
      "reluctant": 8087,
      "embraced": 8088,
      "oppression": 8089,
      "preceding": 8090,
      "criminal": 8091,
      "beckoned": 8092,
      "IMP": 8093,
      "kneeling": 8094,
      "slave": 8095,
      "inflict": 8096,
      "moaned": 8097,
      "abstraction": 8098,
      "abstracted": 8099,
      "jailer": 8100,
      "philosophers": 8101,
      "gift": 8102,
      "saddle": 8103,
      "positive": 8104,
      "squeezed": 8105,
      "August": 8106,
      "Damn": 8107,
      "lofty": 8108,
      "staggered": 8109,
      "confinement": 8110,
      "Robert": 8111,
      "jackal": 8112,
      "Royalty": 8113,
      "quarrelling": 8114,
      "Parsonage": 8115,
      "_struldbrugs_": 8116,
      "district": 8117,
      "eligible": 8118,
      "luggage": 8119,
      "Liberty": 8120,
      "reconciled": 8121,
      "eccentric": 8122,
      "Michael": 8123,
      "haggard": 8124,
      "improbable": 8125,
      "wilderness": 8126,
      "Céline": 8127,
      "PLACE": 8128,
      "dwarf": 8129,
      "rascal": 8130,
      "quivered": 8131,
      "corrobor": 8132,
      "90": 8133,
      "Cal": 8134,
      "Cher": 8135,
      "Cap": 8136,
      "Dis": 8137,
      "Down": 8138,
      "DON": 8139,
      "Ever": 8140,
      "Four": 8141,
      "Fare": 8142,
      "Fort": 8143,
      "Hard": 8144,
      "Ja": 8145,
      "Lap": 8146,
      "Lamb": 8147,
      "Pre": 8148,
      "Ple": 8149,
      "Park": 8150,
      "Papa": 8151,
      "Que": 8152,
      "Res": 8153,
      "TR": 8154,
      "Till": 8155,
      "Tower": 8156,
      "Wed": 8157,
      "WOR": 8158,
      "XI": 8159,
      "_He": 8160,
      "_this": 8161,
      "ait": 8162,
      "ailed": 8163,
      "bought": 8164,
      "claws": 8165,
      "carts": 8166,
      "dashing": 8167,
      "eter": 8168,
      "emotions": 8169,
      "fought": 8170,
      "fishing": 8171,
      "gal": 8172,
      "jun": 8173,
      "kicked": 8174,
      "mul": 8175,
      "mence": 8176,
      "mused": 8177,
      "mirth": 8178,
      "maker": 8179,
      "pig": 8180,
      "panting": 8181,
      "rou": 8182,
      "rash": 8183,
      "sangu": 8184,
      "uation": 8185,
      "urious": 8186,
      "wri": 8187,
      "wart": 8188,
      "ête": 8189,
      "iners": 8190,
      "insufficient": 8191,
      "theme": 8192,
      "thun": 8193,
      "edition": 8194,
      "toward": 8195,
      "total": 8196,
      "enable": 8197,
      "endered": 8198,
      "assuming": 8199,
      "orchard": 8200,
      "aration": 8201,
      "halt": 8202,
      "metal": 8203,
      "sti": 8204,
      "stun": 8205,
      "stated": 8206,
      "hire": 8207,
      "roared": 8208,
      "root": 8209,
      "wipe": 8210,
      "widest": 8211,
      "chast": 8212,
      "liability": 8213,
      "forci": 8214,
      "adam": 8215,
      "colate": 8216,
      "alled": 8217,
      "alling": 8218,
      "ctr": 8219,
      "uncertainty": 8220,
      "holi": 8221,
      "fected": 8222,
      "neg": 8223,
      "lots": 8224,
      "locking": 8225,
      "saving": 8226,
      "conso": 8227,
      "constru": 8228,
      "accost": 8229,
      "tier": 8230,
      "timber": 8231,
      "outcast": 8232,
      "upwards": 8233,
      "manu": 8234,
      "docu": 8235,
      "doctr": 8236,
      "respected": 8237,
      "exposed": 8238,
      "shan": 8239,
      "shrew": 8240,
      "sharing": 8241,
      "usive": 8242,
      "Help": 8243,
      "icable": 8244,
      "mentally": 8245,
      "disci": 8246,
      "dismay": 8247,
      "dismiss": 8248,
      "distrust": 8249,
      "astron": 8250,
      "failing": 8251,
      "prophe": 8252,
      "illa": 8253,
      "boot": 8254,
      "opposition": 8255,
      "oppressed": 8256,
      "compose": 8257,
      "dious": 8258,
      "file": 8259,
      "fireplace": 8260,
      "intending": 8261,
      "intens": 8262,
      "ideal": 8263,
      "cial": 8264,
      "mug": 8265,
      "plac": 8266,
      "readers": 8267,
      "assad": 8268,
      "blem": 8269,
      "stomach": 8270,
      "whereas": 8271,
      "hasn": 8272,
      "clinging": 8273,
      "spec": 8274,
      "ledge": 8275,
      "pleaded": 8276,
      "marve": 8277,
      "march": 8278,
      "mademoiselle": 8279,
      "gentleness": 8280,
      "beings": 8281,
      "scoundrel": 8282,
      "rights": 8283,
      "doorway": 8284,
      "mini": 8285,
      "impl": 8286,
      "atting": 8287,
      "backward": 8288,
      "blan": 8289,
      "blunt": 8290,
      "preci": 8291,
      "quires": 8292,
      "throne": 8293,
      "ums": 8294,
      "begins": 8295,
      "begging": 8296,
      "chapel": 8297,
      "justly": 8298,
      "justify": 8299,
      "childish": 8300,
      "shocking": 8301,
      "consisted": 8302,
      "carpe": 8303,
      "surly": 8304,
      "sensit": 8305,
      "subsequ": 8306,
      "flap": 8307,
      "pike": 8308,
      "personage": 8309,
      "denied": 8310,
      "writ": 8311,
      "deeds": 8312,
      "refined": 8313,
      "refuge": 8314,
      "wail": 8315,
      "cutor": 8316,
      "relent": 8317,
      "relap": 8318,
      "tract": 8319,
      "Lintons": 8320,
      "excused": 8321,
      "wery": 8322,
      "generosity": 8323,
      "steal": 8324,
      "seln": 8325,
      "graves": 8326,
      "dub": 8327,
      "gaunt": 8328,
      "pattern": 8329,
      "trifling": 8330,
      "angels": 8331,
      "heaving": 8332,
      "sounding": 8333,
      "resolving": 8334,
      "needless": 8335,
      "calamity": 8336,
      "signal": 8337,
      "Remember": 8338,
      "fervent": 8339,
      "fervour": 8340,
      "spectre": 8341,
      "identify": 8342,
      "beauties": 8343,
      "destitute": 8344,
      "rider": 8345,
      "transcri": 8346,
      "cram": 8347,
      "crash": 8348,
      "dreadfully": 8349,
      "oblige": 8350,
      "remembering": 8351,
      "publicly": 8352,
      "barrel": 8353,
      "brim": 8354,
      "crush": 8355,
      "Whereupon": 8356,
      "frozen": 8357,
      "ension": 8358,
      "assume": 8359,
      "robbed": 8360,
      "wisest": 8361,
      "varied": 8362,
      "motionless": 8363,
      "bounds": 8364,
      "damages": 8365,
      "military": 8366,
      "apartments": 8367,
      "importun": 8368,
      "musical": 8369,
      "slender": 8370,
      "extending": 8371,
      "concealment": 8372,
      "sadness": 8373,
      "despised": 8374,
      "taller": 8375,
      "successor": 8376,
      "fondness": 8377,
      "warmed": 8378,
      "entreaty": 8379,
      "bitterness": 8380,
      "evils": 8381,
      "suffo": 8382,
      "rapidity": 8383,
      "rusty": 8384,
      "sleeper": 8385,
      "summons": 8386,
      "kissing": 8387,
      "costs": 8388,
      "injury": 8389,
      "desperation": 8390,
      "grandeur": 8391,
      "labouring": 8392,
      "removal": 8393,
      "alarming": 8394,
      "fiercely": 8395,
      "nicely": 8396,
      "debt": 8397,
      "debts": 8398,
      "avow": 8399,
      "voyages": 8400,
      "substantial": 8401,
      "sheltered": 8402,
      "soldier": 8403,
      "reckless": 8404,
      "stationed": 8405,
      "calculate": 8406,
      "chimneys": 8407,
      "hints": 8408,
      "assert": 8409,
      "asserted": 8410,
      "indicate": 8411,
      "indicated": 8412,
      "turf": 8413,
      "release": 8414,
      "ascending": 8415,
      "draper": 8416,
      "encouraging": 8417,
      "stamped": 8418,
      "balance": 8419,
      "corruption": 8420,
      "linked": 8421,
      "sensations": 8422,
      "breeze": 8423,
      "shudder": 8424,
      "shuddered": 8425,
      "furiously": 8426,
      "detect": 8427,
      "victuals": 8428,
      "custody": 8429,
      "wealthy": 8430,
      "betrayed": 8431,
      "available": 8432,
      "pistols": 8433,
      "bustle": 8434,
      "delicious": 8435,
      "shrieked": 8436,
      "Presently": 8437,
      "retirement": 8438,
      "forbidden": 8439,
      "restrained": 8440,
      "sheets": 8441,
      "complaints": 8442,
      "flinging": 8443,
      "machine": 8444,
      "landscape": 8445,
      "selected": 8446,
      "noisy": 8447,
      "philosopher": 8448,
      "mechanically": 8449,
      "contemplation": 8450,
      "farewell": 8451,
      "lustre": 8452,
      "True": 8453,
      "maintaining": 8454,
      "Accord": 8455,
      "impertinence": 8456,
      "Spyers": 8457,
      "filthy": 8458,
      "subsided": 8459,
      "framed": 8460,
      "prominently": 8461,
      "comparatively": 8462,
      "testimony": 8463,
      "radiant": 8464,
      "restrictions": 8465,
      "FULL": 8466,
      "cretion": 8467,
      "hackney": 8468,
      "parcel": 8469,
      "provoke": 8470,
      "treachery": 8471,
      "atmosphere": 8472,
      "ripples": 8473,
      "intolerable": 8474,
      "crisis": 8475,
      "protracted": 8476,
      "Several": 8477,
      "unciation": 8478,
      "overpowered": 8479,
      "Smith": 8480,
      "Chertsey": 8481,
      "Farewell": 8482,
      "_this_": 8483,
      "thundered": 8484,
      "adamant": 8485,
      "22": 8486,
      "30": 8487,
      "41": 8488,
      "Aunt": 8489,
      "ACH": 8490,
      "Bal": 8491,
      "BRE": 8492,
      "Bring": 8493,
      "BOO": 8494,
      "Cle": 8495,
      "City": 8496,
      "CII": 8497,
      "DIST": 8498,
      "EBOO": 8499,
      "Far": 8500,
      "Fleet": 8501,
      "Gull": 8502,
      "LU": 8503,
      "Llo": 8504,
      "ME": 8505,
      "Mind": 8506,
      "Must": 8507,
      "MER": 8508,
      "MAY": 8509,
      "Open": 8510,
      "PG": 8511,
      "PLE": 8512,
      "Ri": 8513,
      "Ref": 8514,
      "Ser": 8515,
      "Sup": 8516,
      "South": 8517,
      "Scot": 8518,
      "Span": 8519,
      "Tra": 8520,
      "Try": 8521,
      "Use": 8522,
      "Varen": 8523,
      "Yer": 8524,
      "_shall": 8525,
      "_That": 8526,
      "ald": 8527,
      "bend": 8528,
      "bers": 8529,
      "bond": 8530,
      "based": 8531,
      "cary": 8532,
      "craw": 8533,
      "cating": 8534,
      "ciful": 8535,
      "dur": 8536,
      "dried": 8537,
      "ebook": 8538,
      "fence": 8539,
      "grud": 8540,
      "ially": 8541,
      "iveness": 8542,
      "mast": 8543,
      "ns": 8544,
      "rout": 8545,
      "rattle": 8546,
      "sag": 8547,
      "tête": 8548,
      "ule": 8549,
      "umin": 8550,
      "vouch": 8551,
      "ws": 8552,
      "wink": 8553,
      "wagg": 8554,
      "xious": 8555,
      "’,": 8556,
      "”;": 8557,
      "heir": 8558,
      "incess": 8559,
      "infirm": 8560,
      "injustice": 8561,
      "inspection": 8562,
      "thecary": 8563,
      "requ": 8564,
      "rebu": 8565,
      "reshed": 8566,
      "resuming": 8567,
      "revive": 8568,
      "onward": 8569,
      "thorn": 8570,
      "attired": 8571,
      "toss": 8572,
      "enc": 8573,
      "isit": 8574,
      "asm": 8575,
      "asper": 8576,
      "asunder": 8577,
      "itality": 8578,
      "halted": 8579,
      "lect": 8580,
      "seas": 8581,
      "severed": 8582,
      "bel": 8583,
      "bellow": 8584,
      "becomes": 8585,
      "rooted": 8586,
      "vels": 8587,
      "ceas": 8588,
      "livid": 8589,
      "histo": 8590,
      "forces": 8591,
      "uting": 8592,
      "alac": 8593,
      "withdrawn": 8594,
      "sobs": 8595,
      "sovereign": 8596,
      "weigh": 8597,
      "aying": 8598,
      "coin": 8599,
      "comed": 8600,
      "alluded": 8601,
      "detain": 8602,
      "depos": 8603,
      "demon": 8604,
      "deference": 8605,
      "deceit": 8606,
      "unworthy": 8607,
      "unprotected": 8608,
      "fere": 8609,
      "feeding": 8610,
      "nets": 8611,
      "negli": 8612,
      "loaf": 8613,
      "loos": 8614,
      "agre": 8615,
      "agility": 8616,
      "modif": 8617,
      "peeping": 8618,
      "abide": 8619,
      "concourse": 8620,
      "concent": 8621,
      "condesc": 8622,
      "conception": 8623,
      "ticed": 8624,
      "pool": 8625,
      "butcher": 8626,
      "uproar": 8627,
      "mansion": 8628,
      "domain": 8629,
      "quad": 8630,
      "resided": 8631,
      "mps": 8632,
      "teasing": 8633,
      "excur": 8634,
      "exult": 8635,
      "nowt": 8636,
      "pert": 8637,
      "induced": 8638,
      "whoever": 8639,
      "disper": 8640,
      "dishes": 8641,
      "dissip": 8642,
      "ested": 8643,
      "prop": 8644,
      "propit": 8645,
      "lav": 8646,
      "laud": 8647,
      "ille": 8648,
      "illumin": 8649,
      "mbkins": 8650,
      "meditation": 8651,
      "foremost": 8652,
      "ruth": 8653,
      "inkled": 8654,
      "plunder": 8655,
      "plague": 8656,
      "readable": 8657,
      "Ange": 8658,
      "earliest": 8659,
      "pressure": 8660,
      "stored": 8661,
      "spreading": 8662,
      "longing": 8663,
      "descent": 8664,
      "vial": 8665,
      "gray": 8666,
      "grain": 8667,
      "grasped": 8668,
      "clad": 8669,
      "clasp": 8670,
      "ornaments": 8671,
      "brink": 8672,
      "oldest": 8673,
      "trash": 8674,
      "scare": 8675,
      "scanty": 8676,
      "parsonage": 8677,
      "ighed": 8678,
      "monkey": 8679,
      "pleases": 8680,
      "anew": 8681,
      "quivering": 8682,
      "auvais": 8683,
      "nerve": 8684,
      "ocity": 8685,
      "astern": 8686,
      "chal": 8687,
      "throughout": 8688,
      "hypoc": 8689,
      "carved": 8690,
      "joke": 8691,
      "suring": 8692,
      "brook": 8693,
      "interfere": 8694,
      "watches": 8695,
      "glist": 8696,
      "flames": 8697,
      "spots": 8698,
      "emptied": 8699,
      "Church": 8700,
      "refrain": 8701,
      "refreshed": 8702,
      "momentary": 8703,
      "momentarily": 8704,
      "tempest": 8705,
      "career": 8706,
      "chocolate": 8707,
      "Ask": 8708,
      "busily": 8709,
      "tremend": 8710,
      "sentences": 8711,
      "steel": 8712,
      "ized": 8713,
      "severity": 8714,
      "fearing": 8715,
      "approving": 8716,
      "lists": 8717,
      "ggy": 8718,
      "gait": 8719,
      "hammer": 8720,
      "drooping": 8721,
      "cordial": 8722,
      "resolutely": 8723,
      "volumes": 8724,
      "Read": 8725,
      "ferocity": 8726,
      "footman": 8727,
      "Ladybird": 8728,
      "promises": 8729,
      "Beauvais": 8730,
      "knuck": 8731,
      "RECT": 8732,
      "REAT": 8733,
      "LICEN": 8734,
      "transi": 8735,
      "crou": 8736,
      "animation": 8737,
      "reflecting": 8738,
      "Defect": 8739,
      "exception": 8740,
      "purposely": 8741,
      "Donations": 8742,
      "cushion": 8743,
      "electronically": 8744,
      "praying": 8745,
      "smothered": 8746,
      "employe": 8747,
      "gratify": 8748,
      "guardian": 8749,
      "Unless": 8750,
      "authorities": 8751,
      "inquisit": 8752,
      "examining": 8753,
      "pondering": 8754,
      "paleness": 8755,
      "seats": 8756,
      "resume": 8757,
      "languages": 8758,
      "wiser": 8759,
      "appointment": 8760,
      "mountains": 8761,
      "conceited": 8762,
      "deserves": 8763,
      "complained": 8764,
      "eaten": 8765,
      "harvest": 8766,
      "forgetting": 8767,
      "explaining": 8768,
      "ESS": 8769,
      "interrupting": 8770,
      "damaged": 8771,
      "instructed": 8772,
      "swung": 8773,
      "vault": 8774,
      "colouring": 8775,
      "supporting": 8776,
      "admiring": 8777,
      "impropri": 8778,
      "folding": 8779,
      "conveniently": 8780,
      "evinced": 8781,
      "freshness": 8782,
      "virtuous": 8783,
      "solemnity": 8784,
      "discoveries": 8785,
      "OUS": 8786,
      "defined": 8787,
      "salutation": 8788,
      "youthful": 8789,
      "impressive": 8790,
      "peaceful": 8791,
      "accidental": 8792,
      "symptoms": 8793,
      "kisses": 8794,
      "rats": 8795,
      "preservation": 8796,
      "Alas": 8797,
      "grandfather": 8798,
      "trodden": 8799,
      "exec": 8800,
      "wickedness": 8801,
      "relieve": 8802,
      "SEQU": 8803,
      "starving": 8804,
      "maids": 8805,
      "politics": 8806,
      "pulse": 8807,
      "screaming": 8808,
      "RIBUT": 8809,
      "concerns": 8810,
      "Looking": 8811,
      "panels": 8812,
      "pinch": 8813,
      "carelessly": 8814,
      "AST": 8815,
      "ASCII": 8816,
      "sailors": 8817,
      "Limbkins": 8818,
      "engagements": 8819,
      "Republican": 8820,
      "ATES": 8821,
      "wearied": 8822,
      "millions": 8823,
      "heaps": 8824,
      "chestnut": 8825,
      "pledge": 8826,
      "CONTAIN": 8827,
      "ambassad": 8828,
      "federal": 8829,
      "stamping": 8830,
      "stammered": 8831,
      "domestics": 8832,
      "START": 8833,
      "model": 8834,
      "rejoiced": 8835,
      "poisoned": 8836,
      "heavier": 8837,
      "involuntary": 8838,
      "ascertained": 8839,
      "UND": 8840,
      "proprietary": 8841,
      "reluctance": 8842,
      "embracing": 8843,
      "Better": 8844,
      "modesty": 8845,
      "response": 8846,
      "elope": 8847,
      "shrieks": 8848,
      "branch": 8849,
      "attractive": 8850,
      "axe": 8851,
      "rejected": 8852,
      "blaze": 8853,
      "rarely": 8854,
      "computer": 8855,
      "computers": 8856,
      "correspondence": 8857,
      "blooming": 8858,
      "altar": 8859,
      "confirmation": 8860,
      "fireside": 8861,
      "Redistribut": 8862,
      "disclaimer": 8863,
      "WARRANTY": 8864,
      "WARRANTIES": 8865,
      "vehemence": 8866,
      "imprisonment": 8867,
      "caprice": 8868,
      "annoyance": 8869,
      "TWIST": 8870,
      "ernity": 8871,
      "shunned": 8872,
      "obstacle": 8873,
      "dexterity": 8874,
      "promoting": 8875,
      "functionary": 8876,
      "extensive": 8877,
      "inevitably": 8878,
      "labourers": 8879,
      "vapour": 8880,
      "dejected": 8881,
      "perseverance": 8882,
      "matrimony": 8883,
      "AGREE": 8884,
      "DAMAGES": 8885,
      "Vanilla": 8886,
      "adorned": 8887,
      "nesday": 8888,
      "pearl": 8889,
      "contrivance": 8890,
      "Denny": 8891,
      "Minny": 8892,
      "Terms": 8893,
      "shrunk": 8894,
      "endurance": 8895,
      "comforted": 8896,
      "submissive": 8897,
      "Captain": 8898,
      "Wednesday": 8899,
      "shrewd": 8900,
      "specified": 8901,
      "sensitive": 8902,
      "BREACH": 8903,
      "DISTRIBUT": 8904,
      "EBOOK": 8905,
      "Lloyd": 8906,
      "Varens": 8907,
      "_shall_": 8908,
      "_That_": 8909,
      "alacrity": 8910,
      "loosened": 8911,
      "tremendous": 8912,
      "LICENSE": 8913,
      "45": 8914,
      "Abo": 8915,
      "Amer": 8916,
      "Ca": 8917,
      "Creat": 8918,
      "Cler": 8919,
      "Cripples": 8920,
      "Field": 8921,
      "Lag": 8922,
      "Men": 8923,
      "MON": 8924,
      "OY": 8925,
      "ORE": 8926,
      "Right": 8927,
      "Sha": 8928,
      "Ten": 8929,
      "Time": 8930,
      "Won": 8931,
      "Whit": 8932,
      "Wait": 8933,
      "XII": 8934,
      "XLI": 8935,
      "avar": 8936,
      "bb": 8937,
      "bone": 8938,
      "bath": 8939,
      "blight": 8940,
      "batt": 8941,
      "braid": 8942,
      "dame": 8943,
      "dances": 8944,
      "eag": 8945,
      "elf": 8946,
      "ement": 8947,
      "eel": 8948,
      "fide": 8949,
      "fits": 8950,
      "fitting": 8951,
      "gled": 8952,
      "gang": 8953,
      "gies": 8954,
      "gig": 8955,
      "gged": 8956,
      "gments": 8957,
      "horn": 8958,
      "hanger": 8959,
      "ihi": 8960,
      "ivity": 8961,
      "kid": 8962,
      "lonel": 8963,
      "mak": 8964,
      "nour": 8965,
      "oes": 8966,
      "ocious": 8967,
      "pper": 8968,
      "piled": 8969,
      "rade": 8970,
      "rating": 8971,
      "sand": 8972,
      "sallow": 8973,
      "sash": 8974,
      "sworn": 8975,
      "science": 8976,
      "tac": 8977,
      "tour": 8978,
      "tled": 8979,
      "tending": 8980,
      "tinct": 8981,
      "tune": 8982,
      "wages": 8983,
      "wrenched": 8984,
      "zes": 8985,
      "”—": 8986,
      "inse": 8987,
      "infl": 8988,
      "indeb": 8989,
      "inmate": 8990,
      "insupportable": 8991,
      "ante": 8992,
      "theat": 8993,
      "rection": 8994,
      "reign": 8995,
      "reiter": 8996,
      "recalling": 8997,
      "thirst": 8998,
      "attire": 8999,
      "toy": 9000,
      "toil": 9001,
      "tomb": 9002,
      "tober": 9003,
      "ander": 9004,
      "assign": 9005,
      "arising": 9006,
      "itating": 9007,
      "melted": 9008,
      "meagre": 9009,
      "sealed": 9010,
      "stal": 9011,
      "beau": 9012,
      "rocking": 9013,
      "wick": 9014,
      "veins": 9015,
      "charms": 9016,
      "chase": 9017,
      "entail": 9018,
      "ids": 9019,
      "ider": 9020,
      "ades": 9021,
      "admon": 9022,
      "adie": 9023,
      "cohe": 9024,
      "alliance": 9025,
      "suck": 9026,
      "sugar": 9027,
      "devoured": 9028,
      "unspeak": 9029,
      "unusually": 9030,
      "hob": 9031,
      "hog": 9032,
      "ferer": 9033,
      "lovers": 9034,
      "loading": 9035,
      "moons": 9036,
      "shelf": 9037,
      "abbed": 9038,
      "consp": 9039,
      "conversed": 9040,
      "ache": 9041,
      "tial": 9042,
      "pomp": 9043,
      "ample": 9044,
      "amends": 9045,
      "doomed": 9046,
      "quity": 9047,
      "whel": 9048,
      "resigned": 9049,
      "ational": 9050,
      "exchanging": 9051,
      "shrank": 9052,
      "raven": 9053,
      "ractions": 9054,
      "perusal": 9055,
      "lfully": 9056,
      "inder": 9057,
      "disquiet": 9058,
      "displeased": 9059,
      "disengaged": 9060,
      "estates": 9061,
      "problem": 9062,
      "affold": 9063,
      "mbled": 9064,
      "oppose": 9065,
      "rumour": 9066,
      "veneration": 9067,
      "canv": 9068,
      "dili": 9069,
      "handful": 9070,
      "replaced": 9071,
      "intru": 9072,
      "intently": 9073,
      "Itali": 9074,
      "shouldered": 9075,
      "cier": 9076,
      "cient": 9077,
      "comprom": 9078,
      "computation": 9079,
      "pling": 9080,
      "plates": 9081,
      "planted": 9082,
      "omitted": 9083,
      "ranging": 9084,
      "adequ": 9085,
      "overhead": 9086,
      "overwhel": 9087,
      "series": 9088,
      "stores": 9089,
      "spi": 9090,
      "spending": 9091,
      "imposing": 9092,
      "immortal": 9093,
      "effic": 9094,
      "undergo": 9095,
      "underwent": 9096,
      "undergone": 9097,
      "offending": 9098,
      "poses": 9099,
      "bery": 9100,
      "brass": 9101,
      "clothing": 9102,
      "leton": 9103,
      "scand": 9104,
      "scaffold": 9105,
      "torrent": 9106,
      "mono": 9107,
      "monster": 9108,
      "imped": 9109,
      "blown": 9110,
      "prejud": 9111,
      "precaution": 9112,
      "happening": 9113,
      "Indies": 9114,
      "causeway": 9115,
      "dearly": 9116,
      "guided": 9117,
      "lical": 9118,
      "additions": 9119,
      "survey": 9120,
      "mature": 9121,
      "giant": 9122,
      "kinder": 9123,
      "founded": 9124,
      "sensibility": 9125,
      "engendered": 9126,
      "subscri": 9127,
      "sublime": 9128,
      "flutter": 9129,
      "streaming": 9130,
      "empress": 9131,
      "shilling": 9132,
      "refusing": 9133,
      "regained": 9134,
      "waves": 9135,
      "waiter": 9136,
      "Stand": 9137,
      "State": 9138,
      "mercen": 9139,
      "merriment": 9140,
      "cuit": 9141,
      "cuff": 9142,
      "supposition": 9143,
      "exciting": 9144,
      "confid": 9145,
      "countryman": 9146,
      "reasonably": 9147,
      "maintained": 9148,
      "caps": 9149,
      "morality": 9150,
      "directing": 9151,
      "mises": 9152,
      "biting": 9153,
      "irectly": 9154,
      "priest": 9155,
      "continuing": 9156,
      "valent": 9157,
      "valour": 9158,
      "expressly": 9159,
      "mistakes": 9160,
      "approval": 9161,
      "gaily": 9162,
      "patiently": 9163,
      "sunset": 9164,
      "orderly": 9165,
      "finer": 9166,
      "blos": 9167,
      "strikes": 9168,
      "volution": 9169,
      "hairs": 9170,
      "painfully": 9171,
      "husbands": 9172,
      "deepened": 9173,
      "decree": 9174,
      "ferocious": 9175,
      "Within": 9176,
      "social": 9177,
      "dogged": 9178,
      "termination": 9179,
      "drift": 9180,
      "REM": 9181,
      "posture": 9182,
      "postili": 9183,
      "comfortably": 9184,
      "welcomed": 9185,
      "employing": 9186,
      "analy": 9187,
      "gardens": 9188,
      "embro": 9189,
      "fixedly": 9190,
      "robbers": 9191,
      "pleasantly": 9192,
      "sends": 9193,
      "trusting": 9194,
      "bowl": 9195,
      "Englishman": 9196,
      "annihi": 9197,
      "stub": 9198,
      "complaint": 9199,
      "softness": 9200,
      "watchful": 9201,
      "bounded": 9202,
      "gallop": 9203,
      "experiment": 9204,
      "slack": 9205,
      "slumber": 9206,
      "extend": 9207,
      "exists": 9208,
      "croaked": 9209,
      "sufficed": 9210,
      "loudly": 9211,
      "constable": 9212,
      "conclude": 9213,
      "valet": 9214,
      "admiral": 9215,
      "tallest": 9216,
      "pitcher": 9217,
      "aristocr": 9218,
      "porch": 9219,
      "tongues": 9220,
      "influenced": 9221,
      "associate": 9222,
      "narrowly": 9223,
      "gradual": 9224,
      "confession": 9225,
      "alien": 9226,
      "originally": 9227,
      "originated": 9228,
      "vainly": 9229,
      "peculiarly": 9230,
      "salary": 9231,
      "throp": 9232,
      "representations": 9233,
      "blinds": 9234,
      "acceptable": 9235,
      "accidentally": 9236,
      "apprehend": 9237,
      "declaration": 9238,
      "resemble": 9239,
      "resembled": 9240,
      "mix": 9241,
      "Almost": 9242,
      "gestures": 9243,
      "attempts": 9244,
      "aspir": 9245,
[...]
